the 4292495
. 3984185
, 3439825
to 2204285
&quot; 2144042
of 1911515
a 1802735
and 1784159
in 1717061
&apos;s 804373
on 752638
for 751128
is 745552
was 724831
that 688793
The 663022
said 611912
it 512441
with 508097
at 472430
by 454194
have 448704
be 434578
has 433933
from 428528
as 426850
he 418294
I 367319
are 355602
his 327098
been 315220
had 314986
not 310612
- 309967
: 296536
will 293650
) 278176
( 277763
an 277600
but 268320
were 263348
who 249999
they 245487
this 240588
their 226163
we 222491
Mr 209622
It 203800
which 194854
after 194718
would 191785
He 173139
more 173119
people 166086
also 163281
about 157449
out 149466
or 143539
up 143270
one 142156
there 137568
its 137351
A 135828
&apos;t 133707
can 131198
when 130606
&apos; 130169
her 129403
over 127023
all 126785
We 124302
she 123192
first 121499
than 120463
you 120387
year 118568
But 117945
two 115603
time 114160
into 110570
years 107270
last 107056
could 106112
told 103239
new 101742
In 101470
them 98497
£ 98352
so 97299
being 97044
BBC 94401
government 94318
what 92583
some 91992
our 91665
% 90752
now 90409
UK 88502
before 88374
other 88123
says 87878
just 87504
him 87412
if 84333
no 83937
against 82259
made 81751
very 80317
do 80281
only 75774
get 74741
right 73299
three 72361
because 72037
back 71571
added 68676
US 68164
like 66859
They 64990
left 64805
any 64294
police 63570
my 63069
where 62410
England 62004
work 61309
make 60629
while 60567
since 60398
how 59373
then 59292
many 59264
should 58855
way 57905
? 57892
man 57786
take 57658
down 57636
most 57401
team 57200
home 57127
well 57124
This 57117
between 57046
those 57022
found 56208
world 56025
There 55620
off 55228
going 54247
say 54219
Wales 53039
through 52979
did 52644
me 52611
us 52598
still 52453
part 52210
number 52160
Scotland 51891
United 51749
think 51374
second 51280
shot 50831
free 50645
side 50342
season 49581
She 49503
half 49394
game 49292
go 49027
day 48974
good 48800
next 48728
&apos;ve 48596
place 48585
see 48199
country 47583
win 47494
under 47404
four 47375
City 47260
such 47175
former 45972
during 45602
much 45515
week 44731
club 44537
won 44329
want 44246
need 43941
including 43748
League 43574
group 43227
end 42892
set 42840
around 42823
London 42721
public 42633
got 41637
Ms 41113
And 41102
come 41083
children 40656
family 40644
put 40379
both 40334
box 40263
help 40012
don 39918
may 39864
&apos;re 39765
these 39691
report 39679
kick 39174
Police 38999
five 38959
used 38757
really 38018
taken 37936
know 37775
support 37597
took 37394
EU 37331
10 37132
top 37132
wins 37038
later 36961
following 36845
players 36798
called 36734
If 36413
play 36368
centre 36253
&apos;m 36133
best 35994
Ireland 35840
another 35716
British 35656
months 35395
deal 35226
too 35178
However 34949
local 34774
party 34552
came 34398
even 34202
final 34174
; 34046
life 33995
court 33931
men 33834
own 33509
World 33490
same 33231
Labour 32980
company 32902
died 32608
outside 32604
Scottish 32499
That 32461
South 32397
six 32264
away 32176
across 32138
use 31471
One 31430
footed 31367
&#91; 31335
&#93; 31314
your 31288
women 31265
Foul 31263
area 31184
days 31174
Attempt 31156
case 31143
Cup 31074
seen 30999
city 30726
money 30665
head 30591
long 30403
month 30187
European 30176
already 30115
given 30086
decision 29980
until 29934
1 29910
able 29879
leader 29493
here 29454
went 29367
having 29034
high 28858
great 28811
close 28784
May 28778
news 28545
working 28501
services 28456
further 28372
attack 28339
lot 28339
Â 28338
campaign 28277
never 28201
state 28117
David 28012
2015 27804
show 27794
goal 27686
$ 27573
death 27568
saying 27537
better 27484
big 27463
again 27348
health 27304
start 27238
move 27178
points 26960
statement 26836
2014 26742
staff 26690
future 26670
Saturday 26601
played 26601
early 26540
games 26532
West 26465
manager 26453
am 26440
lost 26400
change 26328
President 26297
New 26293
every 26288
past 26216
school 26097
minister 25981
without 25975
young 25878
media 25858
few 25848
business 25842
third 25757
As 25739
chief 25653
due 25550
whether 25469
run 25458
system 25378
clear 25350
20 25294
far 25292
Manchester 25269
Sunday 25223
look 25145
making 25049
election 25039
Trump 25008
international 24991
i 24927
taking 24875
thought 24873
forward 24793
service 24767
On 24755
killed 24733
important 24726
times 24543
football 24501
30 24495
members 24353
match 24289
led 24269
minutes 24203
2016 24169
give 24151
You 24063
political 24055
might 23963
Northern 23957
John 23936
something 23902
supported 23866
held 23849
lead 23841
behind 23729
Friday 23600
different 23515
missed 23449
always 23447
device 23386
point 23372
North 23345
China 23332
become 23245
car 23239
ago 23217
expected 23197
When 23133
saved 23004
asked 22929
His 22864
Court 22732
find 22721
face 22720
pay 22692
Wednesday 22690
must 22596
done 22589
each 22585
near 22472
Welsh 22359
security 22355
Monday 22301
council 22143
ahead 22126
At 22091
Britain 22086
continue 22042
vote 22032
things 22025
known 22001
Minister 21958
ball 21951
heard 21938
does 21805
woman 21733
hit 21725
within 21697
recent 21628
plans 21598
National 21592
earlier 21569
Tuesday 21557
investigation 21529
player 21299
15 21227
care 21116
2 21054
enough 21038
12 21027
countries 21007
involved 20982
information 20975
hospital 20972
power 20915
spokesman 20911
action 20890
looking 20816
president 20802
director 20783
social 20758
June 20745
Media 20716
Town 20686
reported 20648
million 20621
result 20559
evidence 20534
hard 20504
saw 20447
Thursday 20346
major 20333
weeks 20319
little 20303
announced 20300
least 20286
-@@ 20258
hours 20228
body 20211
January 20197
full 20150
March 20053
2012 20045
wanted 20017
less 20003
executive 19981
James 19977
believe 19972
So 19927
2013 19921
started 19905
record 19857
keep 19835
For 19779
described 19760
possible 19604
replaces 19548
live 19449
Dr 19407
level 19407
national 19403
April 19296
France 19296
Council 19278
bit 19276
Europe 19274
o 19267
playing 19258
Substitution 19246
likely 19212
didn 19187
try 19181
why 19119
market 19114
night 19067
yet 19064
role 19048
difficult 19034
playback 19033
several 18998
law 18959
coming 18948
programme 18913
blocked 18908
event 18811
leave 18743
seven 18693
O 18586
job 18535
Two 18490
issue 18487
using 18442
victory 18405
military 18395
among 18393
almost 18321
officers 18312
After 18295
needed 18211
eight 18184
County 18179
according 18141
Mrs 18083
trying 18002
risk 17946
series 17926
corner 17919
University 17901
doing 17871
areas 17864
process 17839
control 17827
July 17824
ever 17772
getting 17742
Russia 17734
fire 17722
reports 17694
community 17673
return 17648
! 17575
key 17572
feel 17554
line 17487
schools 17446
site 17436
officials 17320
tax 17294
firm 17286
What 17278
&apos;ll 17259
September 17251
incident 17241
arrested 17201
late 17119
coach 17109
11 17086
Australia 17060
open 17049
data 17040
happened 16987
y 16980
yn 16973
economy 16953
... 16938
house 16934
Premier 16928
meeting 16909
sent 16847
accused 16844
fans 16840
means 16817
strong 16792
together 16746
released 16737
authorities 16735
current 16696
scored 16680
shown 16666
defensive 16650
An 16622
figures 16619
Michael 16562
December 16518
Last 16478
latest 16462
building 16422
plan 16413
Twitter 16327
Some 16295
summer 16279
injury 16257
November 16249
others 16238
son 16193
received 16182
00 16181
failed 16142
child 16091
16 16089
force 16077
stage 16044
water 16009
comes 15995
18 15952
course 15951
financial 15931
chance 15928
Africa 15864
Radio 15847
NHS 15836
serious 15827
Corner 15813
once 15802
India 15768
became 15752
cost 15750
legal 15728
huge 15712
thing 15703
Assisted 15702
forces 15695
remain 15693
October 15683
race 15623
Jones 15619
position 15610
/ 15606
small 15590
age 15527
general 15514
order 15510
real 15481
problem 15476
A@@ 15447
hope 15444
bad 15388
currently 15387
Cardiff 15343
cut 15324
un@@ 15317
biggest 15289
Paul 15278
economic 15272
Park 15266
trial 15209
S@@ 15189
Syria 15183
sure 15179
title 15169
policy 15157
2011 15153
air 15139
issues 15121
impact 15120
14 15114
changes 15110
Liverpool 15092
began 15087
Conceded 15084
signed 15056
despite 15013
member 14953
leaders 14946
attacks 14888
August 14866
needs 14857
include 14839
February 14833
50 14829
showed 14829
significant 14819
increase 14818
gave 14794
beat 14741
today 14737
pressure 14736
town 14693
problems 14663
previous 14662
project 14648
Chris 14624
4 14609
French 14591
performance 14548
stop 14541
often 14515
Mark 14501
13 14466
5 14439
funding 14423
ensure 14403
charge 14398
goals 14398
period 14378
history 14377
3 14349
paid 14343
person 14336
groups 14312
along 14283
rather 14262
round 14258
online 14252
provide 14211
brought 14208
card 14194
re@@ 14170
main 14133
fight 14102
rights 14069
training 14058
based 14035
story 14029
war 14023
official 14017
jobs 14009
Championship 13987
concerns 13978
Sir 13969
quite 13933
education 13900
large 13897
industry 13896
T@@ 13882
confirmed 13878
murder 13875
companies 13853
bring 13851
although 13850
research 13832
East 13830
safety 13828
career 13810
spent 13808
TV 13801
old 13798
review 13740
road 13705
All 13698
call 13693
worked 13675
board 13672
25 13637
MPs 13624
league 13621
House 13616
Russian 13597
agreed 13581
Road 13572
break 13572
believed 13565
moment 13546
mother 13535
Irish 13509
front 13509
Germany 13493
claims 13492
MP 13431
form 13425
challenge 13422
though 13413
previously 13402
remains 13401
results 13384
claimed 13375
name 13368
families 13365
American 13363
access 13354
lives 13312
carried 13310
growth 13285
terms 13275
towards 13266
boss 13247
winning 13206
squad 13205
&apos;d 13191
17 13186
experience 13154
Smith 13128
St 13124
2010 13123
available 13111
situation 13109
More 13098
senior 13082
film 13081
rise 13079
running 13076
patients 13033
parents 13023
100 13000
looked 12919
wants 12883
website 12877
himself 12862
penalty 12859
victims 12851
cannot 12847
total 12844
food 12831
felt 12815
helped 12796
Sport 12768
potential 12768
cases 12763
Party 12757
40 12748
Royal 12724
defeat 12712
nine 12706
officer 12685
anyone 12666
Williams 12662
bottom 12645
opportunity 12630
Brexit 12617
referendum 12608
fact 12607
Facebook 12602
special 12600
Chelsea 12565
living 12552
IS 12491
couple 12484
prison 12466
News 12461
ground 12456
B@@ 12432
Cameron 12418
whose 12394
teams 12393
injured 12389
defence 12383
offer 12383
low 12356
leading 12351
attacking 12340
Glasgow 12339
capital 12294
ends 12291
whole 12283
warned 12249
agency 12241
dead 12238
With 12230
contract 12214
Street 12197
caused 12197
opposition 12190
fell 12163
workers 12162
land 12137
everyone 12130
father 12126
BST 12095
gone 12081
stay 12069
study 12046
closed 12042
office 12037
human 12017
rate 12013
N@@ 12012
interest 11981
24 11974
trade 11950
video 11917
D@@ 11911
prime 11909
students 11880
admitted 11868
George 11843
22 11797
region 11789
opening 11785
someone 11781
development 11778
short 11778
champion 11773
charges 11764
post 11761
moved 11760
charged 11754
denied 11744
bank 11736
field 11707
de 11703
talks 11678
themselves 11672
investment 11663
allow 11660
joined 11652
yellow 11645
E@@ 11643
range 11632
nothing 11602
single 11600
thousands 11597
energy 11586
anything 11579
appeared 11576
majority 11572
suffered 11569
committee 11568
inquiry 11568
success 11556
morning 11538
abuse 11532
K@@ 11531
meet 11522
weekend 11503
global 11493
19 11486
raised 11485
recently 11455
Association 11451
included 11423
higher 11389
While 11387
friends 11386
foreign 11381
similar 11374
private 11363
allowed 11355
Chinese 11350
probably 11327
soon 11320
Union 11319
response 11317
21 11300
M@@ 11283
longer 11272
inside 11244
turned 11244
treatment 11237
G@@ 11220
C@@ 11218
leaving 11184
named 11183
debate 11180
affected 11170
injuries 11154
&amp; 11153
let 11139
F@@ 11129
continued 11119
published 11111
York 11095
in@@ 11089
Secretary 11085
events 11076
er 11065
English 11014
Olympic 11013
P@@ 10999
scheme 10997
wing 10992
23 10986
rules 10974
tried 10950
rest 10911
everything 10896
crisis 10890
conditions 10882
These 10880
question 10880
competition 10870
matter 10865
homes 10853
chairman 10849
matches 10847
visit 10834
sport 10826
L@@ 10818
actually 10810
term 10801
fourth 10780
captain 10769
met 10768
ended 10751
price 10751
To 10747
parties 10738
secretary 10738
R@@ 10726
Lord 10724
violence 10693
makes 10659
Office 10658
hold 10651
oil 10642
decided 10637
target 10636
State 10630
costs 10625
Peter 10623
cross 10598
0 10595
Conservative 10594
2017 10593
reach 10590
shows 10567
My 10527
launched 10526
happy 10523
allegations 10515
Our 10501
ar 10479
build 10469
k@@ 10468
missing 10453
wrong 10441
kind 10440
suggested 10437
particularly 10436
per 10429
guilty 10413
takes 10397
caught 10389
Prime 10386
loss 10364
share 10355
spending 10341
aged 10332
Martin 10321
Tom 10298
wrote 10296
UN 10293
hand 10281
step 10280
numbers 10279
nearly 10266
People 10262
idea 10247
Edinburgh 10234
average 10199
improve 10175
north 10173
doesn 10162
heart 10160
happen 10140
H@@ 10117
cause 10116
followed 10096
GMT 10068
customers 10067
technology 10058
charity 10043
forced 10039
Celtic 10023
agreement 10001
list 9991
parts 9983
crime 9979
wife 9972
medical 9967
stand 9960
safe 9959
Belfast 9955
d@@ 9946
German 9933
supporters 9933
extra 9927
@ 9917
phone 9909
International 9851
create 9833
love 9825
striker 9814
alleged 9811
finished 9811
Health 9808
header 9806
turn 9784
Paris 9774
levels 9769
independent 9763
claim 9739
W@@ 9738
mean 9706
draw 9704
focus 9702
either 9689
No 9681
ban 9673
midfielder 9661
revealed 9661
space 9658
worth 9657
y@@ 9622
fall 9620
threat 9569
runs 9567
test 9559
Leicester 9547
appeal 9547
quality 9547
judge 9530
border 9522
Rovers 9506
strike 9483
amount 9481
Prof 9472
view 9467
Many 9451
travel 9439
questions 9416
calls 9392
knew 9370
finish 9367
black 9358
places 9352
crash 9337
positive 9332
station 9326
fighting 9322
believes 9316
winner 9277
music 9271
sector 9268
union 9265
scene 9244
increased 9237
Arsenal 9232
poor 9220
u 9216
sexual 9211
sales 9206
changed 9203
O@@ 9200
reached 9197
Hamilton 9178
tournament 9172
trust 9170
2009 9162
businesses 9154
prices 9151
Former 9146
gold 9145
quickly 9123
visitors 9110
protect 9107
understand 9105
returned 9104
Bank 9098
wide 9096
2008 9093
g@@ 9089
built 9075
ers 9066
account 9059
contact 9053
offered 9050
driver 9049
Bristol 9033
misses 9030
act 9024
table 9021
lack 9015
minute 9010
Group 8994
clubs 8986
Obama 8984
es 8977
Commission 8976
room 8968
comments 8963
en 8957
personal 8955
budget 8949
Syrian 8945
Scott 8942
Birmingham 8936
Islamic 8934
adding 8933
hearing 8929
7 8922
Rangers 8920
Andrew 8912
Swansea 8898
approach 8886
wasn 8868
Lee 8855
growing 8850
loan 8847
largest 8834
effort 8828
emergency 8821
Queen 8807
cancer 8792
kept 8786
message 8782
Now 8771
details 8771
example 8763
Thomas 8753
Australian 8745
opened 8735
Crown 8732
cuts 8720
score 8711
Ben 8706
driving 8694
drugs 8679
sold 8665
Department 8649
28 8642
Test 8635
bill 8624
letter 8622
elections 8620
Meanwhile 8619
rates 8614
Her 8598
Turkey 8596
Yorkshire 8584
meant 8579
operation 8574
central 8554
search 8548
Ryan 8536
created 8528
planning 8527
figure 8513
boy 8512
light 8508
above 8504
First 8495
lower 8490
victim 8487
By 8479
Davies 8469
works 8461
ministers 8448
giving 8442
itself 8423
sides 8411
measures 8410
Hospital 8375
27 8374
fully 8366
attempt 8357
progress 8347
26 8333
committed 8333
concerned 8331
successful 8327
save 8318
ing 8304
America 8299
rugby 8287
appear 8283
defender 8279
tough 8278
African 8265
population 8264
highest 8258
Alex 8255
considered 8249
ready 8249
conference 8248
Italy 8236
miles 8232
Johnson 8226
star 8222
compared 8215
Parliament 8209
leadership 8201
s 8200
sign 8188
however 8186
8 8160
especially 8159
damage 8157
born 8155
managed 8152
value 8136
Richard 8134
foul 8134
i@@ 8133
relationship 8120
simply 8115
Murray 8109
daughter 8109
Joe 8098
9 8094
3@@ 8092
tell 8086
Games 8066
Brown 8058
girl 8055
en@@ 8048
6 8044
gas 8022
goes 8016
south 8010
Service 7997
Champions 7988
criticised 7985
track 7983
FA 7978
t@@ 7977
5@@ 7973
confidence 7968
talk 7967
organisation 7963
twice 7958
expect 7954
Rio 7941
drug 7920
Taylor 7912
hopes 7912
reason 7912
arrived 7902
page 7888
Speaking 7883
row 7874
treated 7874
6@@ 7871
planned 7857
release 7855
White 7845
justice 7840
residents 7839
popular 7816
s@@ 7816
address 7802
users 7799
concern 7797
annual 7796
Spain 7794
effect 7790
speech 7783
hour 7781
Earlier 7776
property 7776
&apos;r 7772
SNP 7760
parliament 7758
n@@ 7748
criminal 7744
provided 7741
join 7706
states 7705
losing 7703
raise 7700
ran 7699
efforts 7695
Both 7693
Korea 7693
bid 7692
nuclear 7690
sense 7688
4@@ 7672
cars 7669
Football 7663
Government 7662
friend 7653
Iraq 7651
follow 7651
calling 7641
lose 7616
killing 7607
secure 7599
Japan 7594
passed 7580
Pakistan 7579
Trust 7572
train 7558
red 7548
seems 7537
complete 7502
individual 7494
moving 7493
Athletic 7486
demand 7483
dangerous 7477
behaviour 7466
V@@ 7458
Sheffield 7456
chances 7435
ruled 7435
facing 7433
pass 7433
ability 7417
carry 7414
date 7393
hundreds 7393
battle 7392
linked 7386
29 7383
pupils 7378
fifth 7377
certainly 7376
High 7368
Andy 7365
60 7354
King 7346
Donald 7342
Half 7337
buy 7336
ways 7319
condition 7312
issued 7311
candidate 7305
else 7303
Open 7273
absolutely 7273
Green 7269
Iran 7265
dropped 7265
Stephen 7238
responsible 7232
powers 7224
receive 7224
sex 7223
ask 7221
I@@ 7215
university 7215
alongside 7210
white 7203
Corbyn 7202
Aberdeen 7195
extremely 7193
consider 7191
instead 7190
management 7188
politics 7188
J@@ 7180
suspended 7175
starting 7168
aware 7166
quarter 7160
er@@ 7157
professional 7145
Steve 7144
continues 7141
reduce 7138
e@@ 7136
Newcastle 7121
an@@ 7114
al 7113
Zealand 7107
According 7105
ruling 7083
hands 7078
7@@ 7075
jailed 7075
newspaper 7074
Ross 7071
interview 7066
voted 7059
written 7057
Justice 7055
ar@@ 7053
girls 7048
via 7042
Sam 7036
mental 7030
Day 7028
particular 7026
benefit 7018
required 7010
Lewis 6998
appearances 6997
authority 6995
peace 6995
v 6995
comment 6994
Grand 6990
army 6988
ch@@ 6985
voters 6982
network 6980
War 6977
Goal 6971
Adam 6967
flight 6967
mobile 6967
benefits 6962
Leeds 6956
nation 6935
debut 6926
Jack 6921
includes 6913
conflict 6911
aid 6900
Republic 6899
Indian 6890
al@@ 6886
net 6870
Nations 6868
coalition 6866
fine 6860
certain 6853
p@@ 6846
civil 6844
Madrid 6842
Although 6838
firms 6837
ate 6836
host 6825
pair 6824
communities 6823
z@@ 6819
pretty 6811
movement 6810
becoming 6800
ed 6795
completely 6793
sentence 6792
book 6788
park 6782
Evans 6778
faced 6770
non-@@ 6770
beyond 6769
migrants 6767
cash 6760
pitch 6759
press 6749
internet 6746
broke 6744
massive 6744
deaths 6741
van 6737
evening 6735
Great 6734
Another 6733
helping 6727
Committee 6722
hosts 6720
watch 6720
During 6716
on@@ 6716
brother 6711
Dundee 6703
Second 6700
e 6690
clearly 6689
h@@ 6673
politicians 6672
female 6671
Despite 6669
drive 6669
Jordan 6664
easy 6661
throughout 6661
rule 6660
k 6658
Match 6657
deliver 6655
avoid 6653
l@@ 6652
operations 6651
tour 6642
words 6641
tries 6635
proposed 6634
boys 6622
2007 6617
45 6617
struck 6615
looks 6614
read 6612
carrying 6611
activity 6610
discovered 6601
prevent 6601
UKIP 6589
31 6580
rejected 6575
speak 6573
identified 6571
sports 6563
Since 6561
responsibility 6555
urged 6549
Kevin 6548
u@@ 6547
banned 6545
stories 6532
advice 6529
overall 6515
income 6511
production 6509
paper 6507
fellow 6497
stopped 6491
re-@@ 6486
decisions 6478
8@@ 6477
Christmas 6473
Conservatives 6468
bus 6467
greater 6464
standards 6463
difference 6457
b@@ 6454
champions 6449
Hull 6448
putting 6445
backed 6441
f@@ 6440
teachers 6438
partner 6436
35 6432
present 6432
el@@ 6424
presidential 6424
waiting 6424
drivers 6417
language 6413
spoke 6405
assault 6402
m@@ 6402
estimated 6400
Women 6399
housing 6397
refused 6397
cricket 6395
sites 6384
Their 6370
society 6369
seconds 6368
seats 6354
subject 6353
vehicle 6351
convicted 6345
owner 6344
cover 6343
sea 6342
attacked 6340
t 6335
banks 6333
talking 6331
unable 6323
tackle 6321
passengers 6317
Real 6316
recorded 6314
reasons 6309
Gary 6306
tests 6305
experts 6293
Brazil 6287
States 6286
ton 6286
mark 6277
removed 6274
environment 6262
proud 6262
illegal 6261
common 6255
Three 6248
Ian 6242
j@@ 6242
independence 6241
husband 6232
seeing 6231
armed 6213
completed 6208
remaining 6208
disease 6206
offences 6204
protests 6204
Al@@ 6202
Simon 6198
designed 6196
soldiers 6191
begin 6190
double 6189
weapons 6187
C 6185
products 6185
proposals 6185
How 6181
spend 6181
speaking 6180
Robert 6166
9@@ 6162
Clinton 6159
Danny 6154
tweeted 6150
blood 6148
actions 6146
scoring 6145
hear 6143
introduced 6141
Everton 6138
street 6132
elected 6125
spot 6125
doubt 6117
goalkeeper 6112
Jamie 6102
legislation 6099
troops 6097
original 6092
choice 6074
fantastic 6072
leg 6069
baby 6067
Israel 6066
Tottenham 6052
sale 6051
placed 6043
Centre 6040
eventually 6040
investigating 6038
so-called 6035
spokeswoman 6035
e-@@ 6032
Daniel 6021
west 6019
bodies 6018
Jonathan 6017
jury 6017
straight 6013
fit 6011
Palace 6002
councils 6000
direct 6000
feeling 6000
practice 5997
images 5991
separate 5991
seeking 5990
department 5989
Other 5988
Home 5984
Ukraine 5983
couldn 5980
island 5953
200 5951
worst 5943
produced 5942
respect 5939
student 5939
Barcelona 5936
laws 5932
doctors 5931
suggest 5927
g 5923
correspondent 5919
votes 5919
School 5911
shared 5910
domestic 5908
picture 5902
decades 5901
weather 5894
Olympics 5893
seriously 5892
candidates 5885
v@@ 5883
Nick 5882
Z@@ 5881
fund 5881
fear 5876
remember 5876
rose 5872
launch 5871
es@@ 5870
negotiations 5870
sell 5866
ley 5863
perhaps 5861
Craig 5860
confident 5858
militants 5844
posted 5841
announcement 5837
aircraft 5834
bought 5830
transfer 5828
true 5825
shares 5824
dis@@ 5822
Oxford 5820
markets 5817
18@@ 5816
base 5815
Premiership 5808
vehicles 5805
climate 5804
alone 5799
Of 5797
status 5793
appointed 5787
U@@ 5783
immediately 5779
warning 5776
plane 5769
mind 5765
Muslim 5764
remained 5764
General 5747
FC 5743
faces 5742
at@@ 5740
opportunities 5740
ordered 5725
suggests 5724
below 5714
causing 5708
accident 5705
fair 5702
millions 5701
circumstances 5697
attention 5696
crowd 5692
disappointed 5691
normal 5691
transport 5691
east 5688
signing 5688
accept 5679
70 5672
standing 5670
survey 5669
w@@ 5663
seat 5661
continuing 5660
1,000 5657
protest 5653
Westminster 5650
Stadium 5648
explained 5647
Cymru 5638
heavy 5634
award 5627
a@@ 5624
advantage 5615
gets 5615
al-@@ 5612
Western 5605
strikes 5603
challenges 5600
isn 5596
Its 5594
thinking 5593
myself 5591
Alan 5590
airport 5590
protection 5583
r@@ 5582
route 5582
critical 5581
Canada 5580
Church 5579
researchers 5578
In@@ 5577
Even 5576
Greece 5575
Red 5572
arrest 5565
wait 5565
additional 5559
Ar@@ 5555
Y@@ 5555
decide 5547
Tony 5546
intelligence 5546
culture 5545
basis 5542
failure 5541
long-term 5537
Commons 5533
Most 5532
strategy 5530
Matt 5524
views 5519
el 5508
asking 5506
d 5500
hoped 5489
Ulster 5487
door 5483
boost 5482
Harry 5478
email 5476
80 5473
existing 5462
wider 5462
medal 5454
traffic 5453
criticism 5449
increasing 5448
television 5446
Jeremy 5443
develop 5442
Mar@@ 5440
northern 5438
Google 5434
served 5433
deep 5432
vulnerable 5430
showing 5428
holding 5427
pick 5420
initially 5419
m 5419
beaten 5418
Bill 5416
village 5416
Today 5415
finally 5413
fired 5409
Washington 5404
broken 5402
necessary 5400
administration 5397
class 5397
deputy 5397
Follow 5391
n 5387
drop 5384
trip 5383
p 5375
Forest 5372
suffering 5366
reduced 5365
piece 5363
gives 5357
B 5354
2006 5351
Albion 5349
ones 5339
sort 5339
sometimes 5338
argued 5337
lived 5337
send 5328
targeted 5325
skills 5322
Morgan 5317
source 5308
Fifa 5302
travelling 5301
ated 5299
rebels 5294
Southampton 5289
2005 5288
refugees 5287
Wood 5285
c@@ 5282
aim 5281
headed 5279
amid 5277
highly 5276
unit 5274
patient 5273
vital 5273
Six 5271
nearby 5260
wouldn 5257
corruption 5255
lawyer 5253
providing 5252
rising 5247
Hall 5246
ation 5246
findings 5241
systems 5241
answer 5238
dog 5238
journey 5235
developed 5234
powerful 5233
haven 5227
o@@ 5219
owners 5216
type 5212
favour 5211
am@@ 5210
Not 5202
Sunderland 5202
display 5202
ting 5200
Liam 5199
jail 5199
accounts 5192
anti-@@ 5189
policies 5181
controversial 5177
falling 5176
Times 5175
Mike 5170
Those 5167
90 5164
radio 5163
scale 5163
welcomed 5160
Agency 5158
College 5158
From 5158
commitment 5156
supply 5149
learn 5147
rivals 5144
appears 5140
cities 5137
assembly 5136
camp 5136
immigration 5135
funds 5134
bomb 5129
shooting 5119
Republican 5116
complex 5114
failing 5114
promised 5105
ating 5096
surgery 5092
decade 5091
organisations 5090
sentenced 5090
regional 5087
Italian 5083
Villa 5083
speed 5074
band 5069
pulled 5067
Chief 5064
32 5062
character 5061
miss 5059
is@@ 5045
emerged 5039
picked 5035
county 5033
fast 5032
prepared 5031
names 5029
Newport 5025
Nottingham 5025
wearing 5024
appearance 5023
Christian 5022
Neil 5022
pace 5016
2@@ 5011
athletes 5005
updated 5003
Saudi 5000
welcome 5000
brain 4998
crimes 4996
shortly 4996
streets 4995
Wilson 4991
Wimbledon 4986
accepted 4983
physical 4979
incidents 4973
suspected 4973
projects 4972
whom 4972
option 4971
individuals 4967
ha@@ 4964
di@@ 4955
serve 4954
D 4951
add 4949
exactly 4948
bridge 4946
or@@ 4941
content 4938
buildings 4937
€ 4931
delighted 4927
bar 4923
animals 4922
involving 4919
knows 4919
resources 4917
attended 4912
Liberal 4906
beginning 4902
approved 4901
ongoing 4899
giant 4895
modern 4895
&apos;n 4892
2018 4890
rescue 4890
rival 4889
inquest 4888
unlikely 4888
citizens 4884
keeping 4884
ts 4874
debt 4872
ship 4871
pictures 4870
custody 4865
teacher 4863
loved 4861
achieve 4851
awarded 4851
replaced 4850
model 4846
spread 4846
finding 4844
hotel 4844
material 4843
hoping 4838
seek 4834
cabinet 4819
initial 4814
touch 4811
influence 4807
priority 4806
experienced 4802
Afghanistan 4801
Team 4801
Clarke 4800
Cambridge 4799
agree 4796
de@@ 4796
size 4790
gap 4787
regular 4786
primary 4782
seem 4782
st@@ 4782
handed 4778
struggling 4778
S 4770
bringing 4770
dedicated 4767
Black 4762
bigger 4762
governments 4757
About 4754
paying 4754
flat 4746
Then 4738
Theresa 4738
ad@@ 4733
image 4733
fallen 4732
shop 4726
pleased 4725
actor 4722
1@@ 4719
limited 4719
supporting 4718
Club 4715
over@@ 4715
William 4713
reform 4713
Old 4712
features 4710
colleagues 4708
nature 4704
seemed 4704
audience 4690
credit 4689
options 4689
ill 4688
stadium 4686
suspicion 4678
art 4675
Apple 4673
joint 4672
reality 4671
expressed 4670
worse 4665
le 4664
Act 4663
qualifying 4663
Foreign 4659
panel 4654
directly 4649
changing 4648
push 4647
payments 4642
winners 4642
interests 4638
reportedly 4638
Prince 4636
delivered 4630
potentially 4630
Reading 4627
Under 4626
scientists 4624
Anthony 4620
app 4620
increasingly 4616
Rugby 4615
signs 4612
related 4611
Ham 4609
Super 4609
afternoon 4609
St@@ 4605
em@@ 4604
keen 4603
adds 4602
traditional 4599
amazing 4593
surprise 4589
Det 4586
secured 4586
rare 4585
computer 4578
operating 4577
established 4574
proved 4571
gun 4570
Luke 4569
questioned 4562
Nigeria 4558
setting 4555
targets 4546
duty 4545
famous 4538
owned 4538
request 4527
ei 4525
southern 4523
Stuart 4522
Norwich 4521
spokesperson 4516
block 4515
religious 4514
natural 4513
older 4509
connection 4508
selling 4502
Steven 4499
science 4497
telling 4490
Derby 4489
allowing 4489
learning 4486
Spanish 4485
nations 4485
consultation 4484
plant 4479
Wanderers 4476
semi-final 4476
Kent 4474
trading 4470
die 4469
generation 4463
maybe 4463
bed 4462
attempted 4458
style 4458
l 4455
commercial 4453
Democratic 4452
Car@@ 4450
ceremony 4449
responded 4449
Tour 4448
Security 4443
threatened 4440
&apos;@@ 4438
investors 4437
construction 4436
improved 4434
2004 4433
effective 4431
Turkish 4430
determined 4424
focused 4419
messages 4419
rape 4419
fighters 4417
discuss 4414
Blues 4413
Beijing 4411
declared 4408
risks 4404
expert 4403
sixth 4397
mission 4396
festival 4395
insisted 4394
ro@@ 4394
Tim 4391
watching 4391
lines 4389
version 4388
Euro 4379
joining 4379
clean 4378
ab@@ 4375
freedom 4373
ia 4370
various 4370
eye 4366
immediate 4366
visited 4365
compete 4364
feature 4364
terrorism 4363
dispute 4361
coast 4360
species 4359
ti@@ 4359
dismissed 4358
contest 4355
Institute 4352
ad 4351
Championships 4349
wedi 4347
ol@@ 4345
understood 4345
prove 4343
beating 4342
Why 4341
ex-@@ 4339
ice 4336
th@@ 4336
honour 4335
Central 4334
capacity 4329
recovery 4329
ant 4327
im@@ 4325
2003 4324
Hong 4323
middle 4319
fan 4317
Stoke 4313
severe 4312
Ali 4307
walk 4307
Ch@@ 4303
Cook 4303
2020 4302
records 4301
Following 4298
welfare 4297
limit 4293
it@@ 4291
largely 4291
closely 4284
crucial 4283
achieved 4279
hospitals 4277
foot 4270
steps 4270
crew 4268
DUP 4267
balance 4266
Northampton 4265
stood 4262
teenager 4255
os 4254
holiday 4251
der 4250
word 4250
assistant 4246
happens 4236
mayor 4236
Josh 4234
deals 4231
kill 4231
Sturgeon 4230
gay 4226
suspect 4225
entire 4223
produce 4222
denies 4221
fresh 4220
appropriate 4218
infrastructure 4218
follows 4216
Press 4215
equipment 4213
GB 4208
footage 4208
links 4208
os@@ 4207
youth 4207
governing 4205
ly 4201
offering 4201
widely 4199
strength 4198
Four 4197
employees 4196
developing 4194
returning 4194
church 4191
aimed 4190
Education 4188
keeper 4184
minimum 4184
driven 4181
grow 4180
journalists 4180
Sh@@ 4179
boat 4176
Lib 4172
alcohol 4170
happening 4169
daily 4164
addition 4163
presence 4161
obviously 4160
spoken 4160
documents 4159
fears 4155
violent 4155
books 4153
extended 4152
walking 4149
34 4148
exciting 4147
design 4145
Kong 4140
â 4139
activities 4137
recognised 4137
birth 4129
half-time 4124
ine 4123
roads 4120
encourage 4119
wall 4119
Hill 4115
fraud 4111
33 4110
century 4110
definitely 4105
agencies 4101
mass 4101
An@@ 4099
2-0 4095
Sky 4093
Hughes 4092
link 4092
broadcast 4091
ties 4091
sanctions 4090
M 4088
male 4084
Graham 4083
ie 4081
Year 4079
Read 4077
tie 4077
creating 4074
Brighton 4073
ch 4073
nice 4073
window 4073
Exeter 4072
relegation 4072
danger 4064
solution 4063
500 4062
editor 4062
sister 4061
opinion 4058
begins 4055
competitive 4055
damaged 4052
facilities 4052
organised 4051
Mc@@ 4050
promotion 4050
Democrats 4049
claiming 4046
play-off 4046
suicide 4044
Mexico 4040
expensive 4040
titles 4038
sitting 4033
zone 4033
simple 4030
winter 4028
shock 4027
Khan 4024
alternative 4022
floor 4019
deeply 4018
animal 4015
concluded 4007
Con@@ 4005
originally 4003
Wigan 4002
recovered 4001
Dan 4000
polls 4000
ministry 3998
ling 3997
analysis 3996
dark 3995
fought 3995
E 3993
Port 3993
Who 3993
granted 3990
session 3990
fuel 3989
b 3988
Sinn 3986
disappointing 3986
outcome 3985
writing 3982
Essex 3981
voice 3975
remove 3970
0.@@ 3969
song 3969
wish 3969
measure 3968
Osborne 3963
considering 3963
terrorist 3963
affect 3961
Just 3959
Judge 3958
usually 3957
fee 3956
store 3954
feels 3952
specific 3952
silver 3951
standard 3950
smaller 3949
Putin 3946
serving 3945
application 3944
edge 3944
Sean 3942
replace 3942
Bridge 3941
conduct 3940
apply 3937
enjoy 3937
marriage 3937
Will 3927
36 3924
offside 3921
Tory 3920
era 3920
lots 3916
Robinson 3913
sources 3909
green 3904
acting 3903
inflation 3902
Local 3901
devices 3901
shadow 3899
Charlie 3898
Matthew 3898
rain 3896
outstanding 3895
reaction 3891
weight 3887
talent 3883
tribute 3882
membership 3878
Army 3867
Belgium 3867
worried 3867
z 3866
Sea 3864
voting 3864
prosecution 3863
sit 3858
Find 3857
profits 3857
province 3857
h 3854
offence 3854
plays 3853
stars 3852
Bournemouth 3850
Midlands 3848
struggled 3847
Moscow 3846
scandal 3846
perfect 3844
li@@ 3840
respond 3840
parliamentary 3839
album 3834
opponents 3834
properly 3834
complaints 3833
Young 3832
48 3829
proposal 3827
fewer 3823
sought 3823
digital 3821
favourite 3819
presented 3816
doctor 3815
il@@ 3814
centres 3812
specialist 3812
enjoyed 3811
protesters 3811
Anderson 3808
becomes 3805
2-1 3802
receiving 3800
Jason 3799
asylum 3799
Egypt 3797
Netherlands 3795
Free 3794
commission 3794
hurt 3793
testing 3789
harm 3788
Gordon 3785
ey 3782
cleared 3779
identify 3779
employment 3777
direction 3776
drawn 3776
retired 3776
detained 3775
Brian 3770
ac@@ 3770
controlled 3770
partnership 3769
wickets 3769
judges 3768
travelled 3766
check 3764
Surrey 3760
singer 3759
thanks 3756
trained 3756
attend 3755
chair 3752
leaves 3750
industrial 3749
improving 3748
items 3748
onto 3748
investigated 3747
Public 3744
Instagram 3743
possibility 3743
territory 3743
finance 3742
apologised 3741
challenging 3740
ri@@ 3738
cast 3736
relations 3732
Lions 3729
prize 3729
closer 3727
relatively 3727
permanent 3725
brilliant 3723
coverage 3723
stages 3723
+ 3716
brand 3714
pushed 3714
backing 3712
Dublin 3710
recognise 3709
Inverness 3707
profit 3704
Gareth 3700
shots 3700
poll 3698
attempts 3697
300 3696
as@@ 3696
disaster 3696
Transport 3688
exit 3687
effectively 3686
historic 3686
closing 3685
Bar@@ 3684
Jim 3674
civilians 3673
meaning 3673
Coventry 3672
Supreme 3671
spell 3670
witnesses 3665
uses 3664
heading 3663
pain 3661
unless 3660
starts 3659
younger 3659
rail 3657
active 3656
investigations 3656
slow 3655
Ed 3654
55 3646
Congress 3646
ic 3643
38 3641
Over 3640
investigate 3634
Ford 3632
Patrick 3632
product 3631
La 3630
1m 3627
shut 3627
waste 3624
Aston 3623
eastern 3621
activists 3620
strongly 3620
understanding 3620
turning 3616
ending 3614
2,000 3613
Only 3613
critics 3613
platform 3610
Human 3607
allows 3607
Israeli 3604
interested 3601
1-0 3600
Research 3599
ted 3599
yards 3598
Har@@ 3597
entered 3596
blamed 3594
slightly 3593
wind 3593
fees 3591
Earth 3590
referee 3590
reforms 3589
Victoria 3588
involvement 3588
represents 3588
vast 3588
offers 3581
le@@ 3579
quoted 3578
films 3577
intended 3577
2002 3576
Watson 3576
maintain 3576
Having 3571
therefore 3569
Davis 3568
surface 3565
earned 3564
repeatedly 3564
allegedly 3562
chosen 3560
2001 3559
dogs 3559
enter 3558
gathered 3558
married 3557
software 3557
y-@@ 3557
possession 3555
permission 3552
secret 3548
Asia 3547
Century 3547
Defence 3547
1.@@ 3546
goods 3546
sad 3546
funded 3544
quick 3543
Vale 3536
grounds 3536
-based 3534
ter 3534
watched 3531
et 3530
ac 3529
Before 3528
knowledge 3528
regime 3528
learned 3524
note 3521
R 3518
Murphy 3513
ates 3513
king 3513
trouble 3513
Society 3509
Japanese 3505
impressive 3503
overseas 3499
Sussex 3498
prisoners 3497
artist 3496
T 3495
Lancashire 3494
Roberts 3493
acts 3491
universities 3491
44 3489
upon 3489
Insp 3487
flying 3486
ourselves 3486
cancelled 3484
drama 3481
eyes 3481
struggle 3481
compensation 3479
greatest 3476
f 3475
10@@ 3472
losses 3472
wake 3467
location 3466
abroad 3464
managing 3464
Poland 3462
elsewhere 3461
Asked 3459
ul@@ 3459
Brussels 3458
rebel 3456
defending 3455
consumers 3453
ic@@ 3452
Sweden 3449
Watford 3447
Bradford 3446
establish 3446
Russell 3444
ard 3440
trains 3440
alive 3438
virus 3437
lawyers 3436
Plaid 3435
arms 3434
technical 3434
om@@ 3431
grew 3430
Stewart 3427
summit 3426
formal 3425
tells 3425
P 3424
suggestion 3424
stock 3423
Jackson 3422
anniversary 3421
engine 3420
pension 3420
moments 3418
reporters 3417
gain 3416
informed 3413
stronger 3413
assessment 3412
seized 3411
Charles 3409
Air 3408
Taliban 3408
Argentina 3407
surprised 3407
positions 3404
Officers 3403
blue 3402
Greek 3401
c 3400
team-mate 3400
bail 3397
destroyed 3396
division 3396
importance 3396
mainly 3392
matters 3392
sending 3392
guys 3391
everybody 3390
Di@@ 3388
covered 3384
dealing 3383
Americans 3382
significantly 3381
friendly 3379
partners 3378
wonderful 3378
dominated 3376
licence 3375
Le@@ 3374
Foundation 3373
excellent 3373
plenty 3373
referred 3371
defend 3369
houses 3368
stations 3368
contracts 3367
Children 3364
racing 3362
pilot 3358
37 3356
Mourinho 3356
Muslims 3355
hopefully 3354
mis@@ 3353
Rights 3352
ing@@ 3352
stands 3351
Islamist 3349
author 3347
tennis 3347
Once 3346
easier 3346
exchange 3345
savings 3345
stolen 3343
breaking 3341
closure 3339
raising 3338
temporary 3338
mistake 3336
reaching 3335
# 3332
ford 3332
Korean 3327
Crystal 3325
effects 3325
42 3323
Instead 3323
Philip 3323
winger 3323
currency 3321
worker 3320
10,000 3319
manage 3319
medals 3318
revenue 3318
Bolton 3317
heads 3317
programmes 3315
appealed 3314
Dutch 3313
ap@@ 3312
5,000 3310
journalist 3310
surrounding 3310
argue 3308
ambulance 3307
formed 3307
possibly 3307
excited 3304
consequences 3303
require 3303
cutting 3302
passenger 3302
unbeaten 3301
choose 3300
L 3299
Rotherham 3298
sets 3297
stone 3297
tested 3297
Man 3296
sound 3296
pointed 3294
Miss 3293
Ma@@ 3292
verdict 3292
threats 3289
decline 3288
thank 3288
earn 3287
sees 3287
Bayern 3283
ir@@ 3282
rock 3282
ur@@ 3282
poverty 3281
protected 3281
identity 3280
unique 3278
pre-@@ 3277
improvement 3275
ings 3275
2000 3274
75 3273
selection 3272
ans 3271
defended 3271
buying 3270
r 3270
Middle 3269
represent 3268
Van 3266
inspired 3266
balls 3264
regularly 3263
farmers 3262
delay 3260
Mercedes 3258
provides 3255
internal 3254
opposed 3251
F 3250
crashed 3247
discussions 3245
Among 3243
Man@@ 3243
bronze 3243
reading 3241
fish 3240
reputation 3240
payment 3238
guide 3237
heavily 3237
impossible 3237
environmental 3236
whatever 3235
angry 3233
Rooney 3232
sh@@ 3232
incredible 3230
degree 3229
euros 3229
PM 3228
terror 3227
farm 3226
negative 3224
tickets 3223
Museum 3221
minority 3221
Burnley 3220
replied 3218
seasons 3218
Business 3215
100,000 3214
deficit 3214
ham 3213
id@@ 3209
performances 3207
truth 3206
Here 3203
interesting 3203
Daily 3198
Delay 3198
cap 3195
Mae 3192
badly 3191
Chancellor 3190
basic 3190
den 3189
lo@@ 3188
ty 3186
En@@ 3181
registered 3180
Blackburn 3177
delivery 3174
ally 3173
district 3171
petition 3167
appointment 3164
offensive 3164
Nigel 3163
Phil 3162
electricity 3162
estate 3161
pleaded 3161
Wright 3157
structure 3156
multiple 3155
43 3153
managers 3151
nor 3150
widespread 3150
overnight 3149
rich 3148
Channel 3145
Authority 3144
out@@ 3143
Hampshire 3142
QC 3141
anger 3141
courts 3141
collapsed 3138
Re@@ 3133
affairs 3131
atmosphere 3131
contacted 3130
herself 3130
replacement 3130
dream 3129
totally 3127
Mary 3124
easily 3124
finishing 3123
posts 3123
Fulham 3122
confirm 3121
Commonwealth 3120
uncertainty 3120
si@@ 3118
5m 3117
counts 3117
featured 3117
Libya 3116
ag@@ 3115
ations 3115
Arabia 3114
Dean 3114
Yes 3110
stabbed 3110
Every 3107
scheduled 3106
collection 3105
mostly 3105
willing 3105
shape 3104
Middlesbrough 3103
feet 3103
no-one 3103
task 3102
faith 3101
bod 3099
transfers 3099
shops 3098
3,000 3097
Edwards 3097
Plymouth 3095
ent 3091
De 3090
ideas 3089
relatives 3089
harder 3088
ne 3088
41 3087
path 3085
Fire 3082
behalf 3080
memory 3080
17@@ 3079
split 3077
arm 3075
qu@@ 3074
au 3072
ring 3071
beach 3068
End 3067
N 3067
improvements 3067
Met 3066
Sports 3066
Kenya 3065
healthy 3065
races 3065
teaching 3065
yr 3065
visiting 3064
federal 3063
praised 3063
properties 3063
Rob 3062
chancellor 3062
Darren 3061
Le 3060
penalties 3060
pound 3060
Canadian 3059
delayed 3059
unacceptable 3059
thoughts 3054
rural 3050
institutions 3049
El@@ 3047
imposed 3047
aims 3046
Somerset 3044
seventh 3041
Miller 3040
substitute 3040
successive 3040
Aaron 3039
x 3039
Nato 3038
Greater 3037
self-@@ 3037
explain 3036
Nicola 3032
Kelly 3030
ani 3029
Blackpool 3028
Blair 3028
Dons 3025
Portsmouth 3025
vision 3024
contribution 3023
id 3023
museum 3022
Preston 3020
conducted 3019
highlighted 3018
busy 3016
39 3015
Arab 3015
Ashley 3015
collapse 3014
unusual 3011
Walker 3008
innings 3008
thinks 3007
blow 3006
emissions 3005
Kim 3004
flights 3004
represented 3004
100m 3003
apart 3003
democracy 3002
fun 3002
comfortable 3001
shocked 3001
da 2999
Huddersfield 2998
kids 2998
sharing 2998
Reuters 2996
stepped 2995
65 2993
als 2993
be@@ 2992
delays 2992
Thistle 2991
fled 2990
distance 2989
code 2986
Barack 2985
resigned 2981
a-@@ 2980
adults 2980
Dave 2977
proper 2975
bbc.co.uk 2973
camera 2971
ons 2967
facility 2963
Grant 2962
pledged 2962
Board 2961
blame 2961
t-@@ 2960
factor 2956
lie 2956
notice 2956
se 2956
Portugal 2954
Barry 2949
Sarah 2949
YouTube 2949
passing 2949
ultimately 2949
Bay 2947
J 2947
Valley 2947
AFP 2946
operate 2945
prospect 2945
insurance 2944
Bradley 2939
perform 2938
Social 2937
Five 2936
exercise 2936
Un@@ 2935
helicopter 2935
profile 2934
ticket 2932
drink 2926
essential 2926
larger 2926
Billy 2925
Foster 2925
begun 2924
ec@@ 2924
Airport 2922
Notts 2922
venue 2921
se@@ 2919
assets 2916
section 2914
unions 2914
suspects 2913
meetings 2912
bench 2911
Henry 2907
moves 2905
reporting 2905
ding 2904
ethnic 2904
sp@@ 2904
Cor@@ 2903
DNA 2902
sa@@ 2902
Tories 2900
funeral 2898
likes 2898
entirely 2897
count 2895
deny 2895
plus 2895
associated 2894
regulations 2893
catch 2890
cultural 2890
lowest 2890
walked 2888
mile 2887
Assembly 2886
Treasury 2885
campaigners 2883
invest 2882
aren 2879
Ipswich 2878
machine 2877
47 2876
Adams 2876
Independent 2876
Iraqi 2876
CCTV 2874
birds 2874
ker 2873
ot@@ 2873
recommendations 2871
Doncaster 2870
escape 2870
sustained 2870
Division 2869
departure 2869
hasn 2868
false 2865
400 2864
les 2863
emotional 2862
ist 2862
flag 2861
prompted 2861
lucky 2860
golf 2857
combined 2856
con@@ 2855
wage 2855
approval 2852
factors 2850
user 2850
ks 2848
screen 2847
performed 2846
academy 2845
ina 2845
labour 2845
extend 2843
s-@@ 2842
none 2841
Cornwall 2840
port 2840
steel 2838
chain 2837
legacy 2837
well-@@ 2836
52 2835
lifted 2835
tourists 2834
cells 2833
hair 2833
California 2830
Clark 2829
San 2829
roles 2829
Stormont 2828
beautiful 2828
customer 2828
witness 2827
Harris 2823
core 2823
ir 2820
pool 2820
thrown 2820
crossed 2818
shopping 2816
declined 2815
selected 2815
rally 2814
consumer 2810
Southern 2807
bo@@ 2805
document 2804
finals 2803
index 2803
river 2801
ya 2801
absence 2800
Lane 2798
Replacements 2798
Kyle 2797
hole 2797
Leave 2796
Mac@@ 2793
Fox 2792
values 2790
Switzerland 2787
afford 2787
phones 2787
realised 2786
sacked 2786
magazine 2785
two-year 2785
Offside 2784
dramatic 2783
Swiss 2781
breach 2780
knee 2780
survived 2779
reducing 2778
1980s 2776
refugee 2776
applied 2775
ol 2775
pounds 2775
pull 2774
Allen 2770
advised 2770
ell 2769
stable 2769
text 2769
councillor 2768
dy 2767
maximum 2766
truly 2763
capable 2760
mixed 2760
incredibly 2759
occasions 2758
staying 2758
Féin 2757
Is 2757
cold 2757
Because 2756
collision 2756
1999 2755
ou@@ 2755
relief 2755
restrictions 2753
G 2752
diagnosed 2752
discussed 2752
competing 2750
46 2748
argument 2748
hall 2748
retail 2747
detail 2746
Several 2745
connected 2745
orders 2744
stuck 2742
2m 2741
Pope 2741
rescued 2740
awards 2739
Wembley 2736
ana 2736
semi-finals 2736
tr@@ 2736
Big 2734
reflect 2734
Motherwell 2732
River 2732
pl@@ 2732
yard 2732
attract 2731
drew 2730
desire 2729
doors 2728
Care 2727
fly 2726
sorry 2725
marked 2724
guy 2722
knife 2721
cycling 2719
Nathan 2718
ds 2718
railway 2718
Democrat 2717
crossing 2717
stress 2711
cope 2710
prosecutors 2710
cards 2708
listed 2706
papers 2706
wear 2706
De@@ 2705
opener 2705
illness 2704
settlement 2702
causes 2701
gained 2698
captured 2697
register 2696
Fund 2695
stuff 2695
ge 2693
Francis 2689
apparently 2689
college 2689
wood 2687
Johnstone 2686
Col@@ 2684
GP 2683
write 2682
16@@ 2681
Charlton 2681
tree 2681
Am@@ 2680
founder 2680
monitoring 2680
autumn 2679
grown 2679
on-@@ 2679
Alexander 2678
arrangements 2677
legs 2677
qualified 2677
tragedy 2675
Catholic 2672
extreme 2671
Also 2669
ay 2669
western 2668
realise 2666
Qatar 2665
arrival 2665
extraordinary 2665
lift 2665
promise 2665
sparked 2665
shift 2663
coaching 2662
actress 2660
stores 2660
videos 2660
co-@@ 2659
th 2659
ma 2657
Asian 2656
150 2655
Devon 2655
3m 2653
ed@@ 2652
Yet 2651
detailed 2650
qualify 2650
Ward 2649
gang 2647
demands 2646
drinking 2646
Cheltenham 2645
et@@ 2645
under@@ 2645
treat 2644
conceded 2643
ig@@ 2643
53 2642
Ministry 2642
officially 2642
performing 2642
pushing 2640
Moore 2639
invited 2639
terrible 2639
tech 2637
Thompson 2635
migration 2635
politician 2635
1bn 2634
ride 2634
F1 2633
controls 2633
leads 2633
0@@ 2632
Festival 2631
encouraging 2631
extent 2631
51 2630
Star 2630
disruption 2630
governor 2630
Commissioner 2628
lorry 2627
stake 2627
Brazilian 2626
free-kick 2626
entering 2623
normally 2620
Luton 2619
deserved 2619
hitting 2618
hugely 2618
Frank 2617
abused 2617
faster 2616
heat 2615
Greg 2614
package 2614
Miliband 2612
guidance 2612
&apos;Neill 2611
Carlisle 2611
PC 2611
background 2611
helps 2609
Wrexham 2608
representing 2608
upset 2608
20,000 2607
lies 2605
Durham 2604
fashion 2604
knocked 2604
attempting 2603
agent 2602
manifesto 2602
flooding 2601
Jon 2600
49 2599
aside 2599
km 2597
Bath 2596
chemical 2596
manufacturing 2595
Bell 2594
theatre 2594
15@@ 2593
urgent 2593
Hearts 2592
coup 2591
examination 2591
generally 2591
3-0 2590
forecast 2590
per@@ 2590
studies 2590
purpose 2588
introduce 2587
length 2587
Afghan 2584
recover 2584
banking 2583
prepare 2583
intention 2580
ka 2579
photos 2579
ter@@ 2579
recommended 2578
mid-@@ 2577
militant 2577
occurred 2577
Down 2576
condemned 2576
FBI 2575
eurozone 2575
NI 2573
diplomatic 2572
fined 2572
sporting 2571
pe@@ 2570
substantial 2570
stated 2569
est 2568
euro 2567
Ladies 2566
artists 2566
volunteers 2566
Mal@@ 2565
Jose 2564
sleep 2564
afterwards 2563
Rail 2562
neck 2562
neighbouring 2562
celebrate 2561
assistance 2560
Academy 2559
minor 2559
in-@@ 2558
indicated 2558
Derbyshire 2557
Hunt 2557
murdered 2557
reduction 2557
Slam 2556
personnel 2556
Owen 2555
hate 2555
Kenny 2554
ke 2554
consecutive 2553
Rose 2552
complaint 2552
grant 2552
overs 2550
prior 2550
Per@@ 2549
difficulties 2547
writer 2547
1970s 2546
Colin 2546
man@@ 2546
obvious 2545
remarkable 2544
complained 2543
conversation 2540
Kilmarnock 2538
56 2536
bombing 2535
exhibition 2534
otherwise 2534
movie 2533
13@@ 2531
Like 2531
units 2531
worldwide 2530
preparing 2528
resulted 2528
forms 2526
IRA 2525
honest 2522
occasion 2522
ra@@ 2520
channel 2519
relevant 2517
Coast 2515
Saints 2515
article 2514
campaigning 2514
Loan 2511
promote 2511
ft 2510
dozens 2509
um 2508
increases 2506
Me@@ 2504
dealt 2503
neighbours 2503
speculation 2503
deadline 2502
tens 2502
wild 2502
indeed 2500
acknowledged 2499
pollution 2499
Good 2498
Keith 2497
suggesting 2493
1998 2492
Palestinian 2492
drove 2491
fatal 2491
trees 2491
Milan 2490
clinical 2490
Sc@@ 2489
El 2487
Ebola 2486
error 2486
regions 2485
Costa 2484
eighth 2484
proceedings 2484
lessons 2480
listen 2480
ry 2480
unveiled 2480
stayed 2479
59 2478
ner 2478
gh@@ 2477
Conor 2476
Live 2476
entry 2475
2019 2473
acted 2473
Oliver 2472
seed 2472
Th@@ 2471
checks 2471
loans 2471
USA 2470
expectations 2468
plants 2468
allies 2466
taxes 2466
1-1 2465
Barnsley 2465
weren 2465
publicly 2464
applications 2463
gan 2463
spirit 2463
storm 2462
wicket 2462
Bailey 2461
Swindon 2461
scores 2461
correct 2460
retirement 2460
Gray 2459
Wayne 2459
Peterborough 2458
factory 2458
Rory 2457
Scarlets 2457
constituency 2457
championship 2456
2.@@ 2455
constitution 2454
handling 2454
hot 2454
brings 2453
locations 2451
horse 2449
w 2447
Q@@ 2446
discussion 2446
54 2445
af@@ 2444
Bennett 2443
Ferguson 2443
ne@@ 2440
analyst 2439
conviction 2437
Amazon 2436
Cooper 2436
God 2435
Ro@@ 2435
Shrewsbury 2433
ensuring 2433
owns 2432
58 2431
Yemen 2431
somebody 2430
Jake 2428
Sri 2428
worry 2428
Campbell 2427
belief 2426
caps 2426
carbon 2426
birthday 2425
holds 2425
bi@@ 2421
ff@@ 2421
letters 2421
relation 2419
Burton 2417
bills 2415
interim 2414
1997 2413
di 2412
exposed 2412
laid 2412
Sha@@ 2411
estimates 2411
intervention 2411
organisers 2410
discovery 2408
encouraged 2407
web 2407
deployed 2405
sustainable 2405
3.@@ 2403
fastest 2403
attracted 2402
stressed 2402
1,@@ 2401
Islam 2401
Network 2400
inter@@ 2400
tight 2400
Professor 2399
Rodgers 2399
eat 2399
ler 2399
tourism 2399
anywhere 2398
missile 2398
Everyone 2397
roof 2397
smoke 2397
bl@@ 2396
repeated 2396
ah 2394
ies 2394
healthcare 2393
Falkirk 2392
Ferrari 2392
unclear 2392
agenda 2390
spotted 2390
Senate 2389
babies 2389
prosecutor 2386
Par@@ 2383
conservative 2383
elderly 2382
policing 2382
Mitchell 2381
Stanley 2381
Sydney 2381
unfair 2380
ney 2379
routes 2379
eu 2378
garden 2378
Justin 2377
analysts 2376
delivering 2376
phase 2375
sc@@ 2375
Ber@@ 2374
Downing 2374
statements 2374
Holyrood 2373
quit 2373
reveal 2373
Gen 2372
Kane 2372
ak@@ 2372
guarantee 2371
migrant 2371
determine 2370
inquiries 2368
motion 2366
Farage 2364
notes 2363
expansion 2362
knowing 2362
mistakes 2362
lap 2361
Force 2359
Rosberg 2359
Hibernian 2357
advance 2355
ten 2354
op@@ 2353
achievement 2352
headquarters 2352
noted 2352
Ospreys 2350
Sutton 2350
awareness 2350
threatening 2350
manner 2348
watchdog 2348
Br@@ 2347
mine 2347
Mon@@ 2343
Square 2342
adult 2342
billion 2342
1990s 2341
Ben@@ 2341
flood 2339
explosion 2338
Federation 2337
marks 2337
Oldham 2336
batsman 2336
risen 2336
Any 2333
collected 2332
infection 2331
Aleppo 2330
two-@@ 2329
Energy 2328
12@@ 2327
athlete 2327
Hillary 2326
ra 2325
eating 2324
na 2323
Bury 2322
Cross 2322
Lucas 2322
reporter 2322
Kurdish 2321
dollar 2321
gender 2320
14@@ 2319
Ad@@ 2318
councillors 2318
offices 2318
trophy 2317
Thousands 2316
us@@ 2316
coaches 2315
Mo@@ 2314
tackling 2314
Phillips 2313
approached 2312
Rochdale 2311
clashes 2311
abandoned 2309
4,000 2308
maintained 2308
electoral 2306
workforce 2306
arrests 2304
insists 2304
targeting 2304
towns 2304
Shia 2302
weak 2302
entitled 2301
trend 2301
Juventus 2300
supplies 2300
un 2300
Lords 2299
wave 2299
predicted 2298
sat 2298
7m 2294
founded 2294
Laura 2293
pub 2293
successfully 2293
procedures 2292
Terry 2291
one-day 2291
wounded 2291
engineering 2290
commissioner 2289
types 2289
Assad 2288
Be@@ 2288
puts 2288
Merkel 2287
one-@@ 2287
66 2286
soldier 2285
formally 2284
Louis 2283
Warriors 2283
remarks 2283
accommodation 2282
Bal@@ 2281
bar@@ 2281
submitted 2281
ys 2280
car@@ 2279
ranked 2279
ai 2278
airline 2278
memorial 2278
H 2276
blaze 2276
Sun 2275
communications 2275
io 2274
equivalent 2273
intent 2273
suspicious 2273
Isle 2272
buried 2272
Prix 2270
judgement 2270
sensitive 2270
gr@@ 2269
directed 2268
4.@@ 2266
practices 2266
relating 2266
tiny 2266
Rescue 2265
Watch 2264
introduction 2264
neither 2264
restaurant 2264
secondary 2264
Wenger 2263
offenders 2260
contained 2259
lock 2259
supplied 2259
coroner 2258
addressed 2257
contrast 2257
recognition 2257
aggressive 2256
elite 2256
trapped 2256
usual 2256
Jersey 2255
momentum 2255
der@@ 2253
67 2252
fake 2252
mountain 2252
20@@ 2251
Deputy 2251
Roy 2251
Mayor 2249
swimming 2248
Joseph 2246
resolution 2246
partly 2244
retain 2244
Lincoln 2243
Morris 2243
songs 2243
ages 2242
lights 2242
carefully 2241
Europa 2240
Christopher 2238
cameras 2237
employers 2237
borders 2236
enable 2236
investigators 2236
returns 2235
Norway 2234
deserve 2234
sharp 2233
skin 2233
Haram 2232
flow 2232
Executive 2231
attending 2231
ph@@ 2231
tragic 2231
Environment 2230
proportion 2229
aw@@ 2228
representatives 2227
Singapore 2226
ay@@ 2226
experiences 2226
MK 2225
regulator 2225
chose 2224
disabled 2224
strategic 2224
humanitarian 2223
heritage 2221
Work 2220
guidelines 2220
resignation 2220
explains 2219
6m 2218
Sheriff 2218
yourself 2218
ous 2217
&apos;Brien 2216
Ch 2216
desperate 2216
Ab@@ 2213
transferred 2212
Dem 2211
Derry 2211
ator 2211
statistics 2211
62 2210
Sp@@ 2210
opponent 2209
tweet 2209
schemes 2208
Qu@@ 2207
Bangladesh 2205
ambassador 2205
contributed 2204
hits 2204
mum 2204
shouldn 2204
stick 2203
trials 2203
Li@@ 2202
devastating 2202
peak 2201
pregnant 2201
Callum 2200
exports 2200
recruitment 2200
unprecedented 2200
10th 2198
5.@@ 2198
ships 2198
Don 2197
W 2197
campaigns 2197
category 2196
privacy 2196
unemployment 2196
Jewish 2195
broadcaster 2194
ev@@ 2194
imagine 2194
200m 2193
ise 2193
Abu 2192
brothers 2192
64 2191
Gar@@ 2191
apparent 2191
shoulder 2190
Sudan 2188
employed 2188
waters 2188
advertising 2187
controversy 2187
Hart 2186
admits 2186
lying 2186
scenes 2186
bat 2185
Roger 2183
devolved 2183
fail 2182
warnings 2182
Boko 2181
Brentford 2181
earnings 2181
expects 2181
three-@@ 2180
Norfolk 2179
Austria 2178
Post 2178
outbreak 2178
high-profile 2177
suspension 2177
Millwall 2176
equal 2175
fixed 2175
maker 2175
Shaun 2174
ballot 2174
engage 2174
calm 2171
photo 2171
scrutiny 2171
wealth 2170
ong 2169
settled 2169
9.@@ 2168
Ahmed 2168
enforcement 2168
parent 2168
subsequently 2168
Coleman 2167
anybody 2167
57 2166
survive 2166
Colchester 2165
Reid 2165
Report 2163
Delhi 2162
concert 2162
Microsoft 2161
la 2161
ness 2161
numerous 2161
demanding 2160
guard 2160
sexually 2160
lay 2159
District 2157
cup 2157
pre@@ 2157
Well 2156
humans 2156
switch 2156
draft 2155
islands 2155
stability 2154
requires 2153
weapon 2153
commit 2151
converted 2151
doping 2151
models 2151
Ukrainian 2148
al-Qaeda 2148
jump 2148
Magistrates 2147
suffer 2147
consistent 2146
Far@@ 2145
emails 2145
consent 2144
photographs 2144
resolve 2144
yes 2144
attitude 2143
x@@ 2143
Antrim 2142
ish 2142
forget 2140
ni@@ 2140
600 2139
Jimmy 2139
fishing 2138
nobody 2138
wildlife 2138
restore 2137
understands 2137
09 2136
Belgian 2136
Mohammed 2136
me@@ 2136
Hundreds 2134
defeated 2134
sky 2133
websites 2133
fitness 2131
kicked 2131
conspiracy 2130
clearance 2129
initiative 2129
3-1 2128
combat 2128
fl@@ 2128
apologise 2127
Let 2126
association 2126
smart 2126
Where 2125
adviser 2125
competitions 2125
monitor 2125
Lloyd 2124
Heathrow 2123
prominent 2123
sing 2123
tw@@ 2123
Wolves 2122
disappeared 2121
Officials 2120
Su@@ 2120
empty 2120
secs 2120
1994 2118
quarter-finals 2118
Spurs 2117
raid 2117
Hotspur 2116
expecting 2116
arrive 2115
regarded 2115
Crewe 2114
Oscar 2114
pieces 2114
Duncan 2113
boxing 2113
Eric 2112
Scots 2111
supposed 2111
gate 2110
protecting 2110
Trafford 2109
talked 2109
72 2108
Cha@@ 2107
Life 2107
junior 2105
ery 2104
hill 2103
smoking 2103
Castle 2102
assist 2102
4m 2101
Power 2101
Top 2101
Harrison 2100
clothing 2099
fairly 2099
fault 2099
Collins 2098
RAF 2096
highlights 2096
wages 2095
Angela 2094
fighter 2093
for@@ 2093
killings 2093
please 2092
Bo@@ 2090
McDonald 2090
clothes 2090
intense 2090
Or@@ 2089
rider 2089
rounds 2089
um@@ 2086
Orient 2084
arriving 2084
dad 2082
opposite 2082
85 2081
arts 2081
sentences 2081
Information 2080
St. 2080
teenagers 2080
Mor@@ 2079
Time 2078
T20 2076
ov 2076
providers 2076
survivors 2076
absolute 2074
Berlin 2073
answers 2073
genuine 2073
presenter 2073
falls 2072
mae 2072
Bel@@ 2071
crews 2071
Malaysia 2070
Warren 2070
radical 2070
royal 2068
ym@@ 2068
Sar@@ 2067
amounts 2067
historical 2067
ut@@ 2067
Mer@@ 2066
angle 2066
ini 2066
colleague 2065
7.@@ 2063
to@@ 2063
Elizabeth 2062
kin 2062
recording 2061
bike 2060
Ex@@ 2059
cell 2058
landed 2058
networks 2058
producer 2058
teenage 2058
* 2057
filled 2057
.@@ 2056
Fraser 2056
metres 2054
8m 2053
Kingdom 2053
Can 2052
Kerry 2052
fundamental 2052
argues 2051
95 2050
Community 2050
Monaco 2050
sight 2050
damaging 2049
symptoms 2049
Sa@@ 2048
creation 2047
AFC 2046
Ros@@ 2046
Services 2046
divided 2046
dollars 2046
Egyptian 2045
operator 2045
Republicans 2044
han 2044
ov@@ 2042
three-year 2042
enormous 2041
Lanka 2039
Walsall 2038
bird 2038
detention 2038
extensive 2038
ver@@ 2038
ism 2037
Glamorgan 2036
Iranian 2036
midfield 2036
ps 2036
Kar@@ 2034
provision 2034
charities 2032
prevented 2032
pro-@@ 2032
regarding 2032
whilst 2032
1996 2031
impressed 2031
considerable 2030
dates 2029
ni 2028
stroke 2028
Morton 2027
bag 2027
engaged 2027
50,000 2026
brief 2026
promoted 2026
Bur@@ 2025
Carter 2025
Hammond 2025
ised 2025
satellite 2025
Hungary 2024
hundred 2024
sick 2024
expand 2023
ambition 2022
68 2018
conclusion 2018
Fleetwood 2017
commissioned 2017
prediction 2017
6,000 2016
corporate 2016
planet 2014
hi@@ 2012
combination 2011
ownership 2011
Do 2010
II 2010
alert 2009
pop 2009
warm 2009
Com@@ 2008
Dems 2008
reference 2008
describes 2006
X 2004
facts 2004
6.@@ 2003
X@@ 2003
accusations 2002
convinced 2002
remote 2002
tensions 2000
McLaren 1999
Serbia 1999
Sk@@ 1999
apology 1998
devastated 1997
installed 1997
under-@@ 1997
boards 1996
doubled 1996
extension 1996
headlines 1996
nurses 1994
computers 1993
full-time 1993
Heritage 1992
25-year-old 1991
filmed 1991
63 1989
Briton 1989
Medical 1989
hosted 1989
professor 1989
searching 1989
ancient 1987
solid 1987
Min@@ 1986
describe 1985
veteran 1985
wedding 1985
resident 1983
tonnes 1983
Each 1982
Freedom 1982
Bale 1981
superb 1981
Crawley 1980
Soviet 1980
attackers 1980
tier 1980
viewers 1980
camps 1979
Bob 1978
eligible 1978
pressures 1978
Budget 1977
assaulted 1977
71 1976
Florida 1976
grateful 1976
ninth 1976
Gold 1975
scientific 1975
unknown 1975
challenged 1974
Head 1973
bound 1973
Alliance 1972
ak 1972
devolution 1972
Others 1970
comedy 1970
har@@ 1970
creative 1969
criminals 1969
suddenly 1967
Borders 1966
Dragons 1966
Ken 1966
updates 1966
69 1965
budgets 1965
fields 1965
ore 1965
publication 1965
inspection 1964
locked 1964
bin 1963
Los 1962
Mail 1962
Crime 1961
post-@@ 1960
revenues 1960
Scunthorpe 1959
involve 1958
Hollywood 1957
advanced 1957
constitutional 1957
eb@@ 1957
U 1956
differences 1956
reasonable 1955
auction 1954
feared 1954
memories 1954
Island 1953
transition 1953
Show 1952
cl@@ 1952
ordinary 1952
For@@ 1951
Helen 1951
sons 1951
Thailand 1949
plastic 1949
quiet 1949
08 1948
Wycombe 1948
cycle 1945
democratic 1945
respectively 1945
spring 1945
Bl@@ 1944
Erdogan 1943
Supt 1943
households 1943
ington 1943
ity 1943
Her@@ 1942
producing 1940
vessel 1939
Eddie 1938
Max 1938
episode 1938
promising 1937
kg 1936
triggered 1936
Griffiths 1935
els 1935
Nottinghamshire 1934
24-year-old 1933
Yeovil 1933
fod 1933
survival 1933
obtained 1932
Islands 1931
Vladimir 1931
appealing 1931
er-@@ 1931
temperatures 1931
promises 1930
rises 1930
te 1930
Venezuela 1929
oc@@ 1929
saving 1929
succeed 1929
av@@ 1928
covering 1928
Mu@@ 1927
Wolverhampton 1927
Boris 1926
Howard 1926
Long 1926
ambitious 1925
go@@ 1925
recalled 1925
Alonso 1924
filed 1924
Arena 1923
mer 1923
principle 1922
representative 1922
robust 1922
Tests 1921
1995 1920
250 1920
Brom 1920
Margaret 1919
characters 1919
Easter 1918
singles 1918
Cox 1917
deliberately 1917
escaped 1917
metal 1917
ITV 1916
Tower 1915
describing 1915
Cuba 1912
Pakistani 1912
household 1912
Out 1911
ite 1911
rely 1911
tions 1911
10m 1910
deemed 1910
quarter-final 1910
Law 1908
musical 1906
sub@@ 1905
23-year-old 1904
Lady 1904
full-back 1904
Munich 1903
Sergio 1903
feed 1903
Sgt 1902
Suffolk 1902
medallist 1902
Edward 1901
Kennedy 1901
Metropolitan 1901
Price 1901
Burns 1900
Marc 1900
firing 1900
re 1900
signal 1900
Djokovic 1899
frustrated 1899
mar@@ 1899
murdering 1899
Stevenage 1897
relationships 1896
Tr@@ 1895
adopted 1895
bombs 1895
over-@@ 1895
resort 1894
academic 1893
silence 1893
Robertson 1890
elements 1890
limits 1890
rec@@ 1890
Jonny 1889
Marcus 1889
ists 1889
Gloucestershire 1887
Juan 1887
bear 1887
posed 1887
10-@@ 1886
8.@@ 1886
Alexandra 1886
requests 1886
07 1885
sealed 1885
announce 1884
Dis@@ 1883
Sam@@ 1883
nominated 1883
deadly 1882
misconduct 1882
ur 1882
22-year-old 1881
routine 1881
personally 1880
strengthen 1880
Accrington 1878
Special 1878
ins 1878
presidency 1878
publish 1878
visits 1878
contribute 1877
sufficient 1877
Texas 1876
gains 1876
tied 1876
Hartlepool 1875
discrimination 1875
ou 1875
studying 1875
burn 1874
taxi 1873
valuable 1873
activist 1872
demanded 1872
equaliser 1872
marketing 1872
developments 1871
guns 1871
narrow 1871
Georgia 1870
ru@@ 1870
gathering 1869
witnessed 1869
consultant 1867
pupil 1866
Bishop 1865
Uefa 1864
Vettel 1864
dying 1863
ns 1863
exist 1862
wanting 1862
Denmark 1861
assess 1861
d-@@ 1861
noise 1861
Hodgson 1859
emerging 1859
ge@@ 1859
machines 1859
sy 1859
30,000 1858
Bu@@ 1858
ano 1857
bowler 1857
crowds 1857
Samsung 1856
PSNI 1855
tend 1855
Se@@ 1854
disorder 1854
ics 1854
bonus 1850
co@@ 1850
finances 1850
newspapers 1850
Article 1849
BT 1849
Bromwich 1849
Partick 1849
Maria 1848
agents 1848
mon@@ 1848
religion 1848
shareholders 1848
treating 1848
Antonio 1847
Colombia 1847
Cricket 1847
safely 1847
bowled 1845
Douglas 1844
Fife 1844
businessman 1844
colour 1844
backs 1842
hidden 1842
youngest 1842
context 1841
inappropriate 1841
Clegg 1840
ked 1840
IPCC 1839
mining 1839
settle 1839
BBCNewsEnts 1838
Ri@@ 1838
Silva 1838
br@@ 1838
entertainment.news 1838
picking 1837
Development 1836
Southend 1836
mer@@ 1836
containing 1835
Warwickshire 1834
ary 1834
blast 1834
capture 1834
civilian 1834
restored 1834
ston 1834
talented 1834
1992 1833
ber@@ 1833
ren@@ 1832
documentary 1831
first-half 1831
high-@@ 1831
Or 1830
express 1830
implications 1829
judicial 1829
Queens 1828
Ronaldo 1828
dance 1828
glass 1828
McIlroy 1827
arguing 1827
striking 1827
supports 1827
Hove 1826
ble 1826
consideration 1826
estimate 1826
successor 1826
Modi 1823
communication 1823
Saracens 1821
electric 1821
suit 1820
Best 1819
Co@@ 1819
Leigh 1819
leaked 1819
operated 1819
Little 1818
ance 1818
21-year-old 1817
Uber 1816
Fernando 1815
drone 1815
embassy 1815
planes 1815
chest 1813
coal 1813
nationals 1813
salary 1813
contain 1812
rapidly 1812
Du@@ 1811
od@@ 1810
Baker 1809
Marshall 1809
61 1808
te@@ 1808
theft 1808
Pro@@ 1807
yn@@ 1807
Gillingham 1806
height 1806
Mirren 1804
holes 1804
26-year-old 1803
Gr@@ 1803
respected 1803
update 1803
Affairs 1802
Director 1802
Marine 1802
decent 1802
ian 1802
Carl 1801
ash 1801
footballer 1801
supermarket 1800
ane 1799
grave 1798
takeover 1797
Tesco 1796
blog 1796
disappointment 1796
map 1796
Argyle 1795
Gu@@ 1795
abortion 1795
bright 1795
invested 1795
luck 1795
Mansfield 1794
involves 1794
mo@@ 1794
Chester 1793
Wall 1793
and@@ 1793
fill 1793
Angeles 1792
Federal 1792
soft 1792
pensions 1791
celebrated 1790
ease 1790
materials 1790
walls 1790
Hol@@ 1788
Wasps 1788
Si@@ 1787
cited 1787
Robbie 1786
fix 1786
purchase 1786
fi@@ 1785
hero 1785
ward 1785
Indonesia 1784
evacuated 1784
team-mates 1784
Chesterfield 1783
appearing 1783
pledge 1783
samples 1783
Financial 1781
Tyrone 1781
branch 1781
Brendan 1780
No-one 1779
Such 1779
tri@@ 1779
jumped 1778
somewhere 1778
nurse 1777
Armstrong 1776
tonight 1776
Sal@@ 1775
dating 1775
urge 1775
Bruce 1774
actual 1774
surveillance 1774
variety 1774
five-year 1773
handle 1773
spells 1773
Paralympic 1771
slip 1771
Leinster 1770
air@@ 1769
operators 1769
1989 1768
courses 1768
oldest 1767
highlight 1766
Henderson 1765
Major 1764
snow 1764
hi 1763
throw 1763
Heart 1762
Leicestershire 1762
handled 1762
ob@@ 1762
Ministers 1761
featuring 1761
withdraw 1761
Rhys 1760
rankings 1759
generated 1758
ger 1758
800 1757
output 1757
winds 1757
Telegraph 1755
clients 1754
raped 1754
resulting 1754
Bush 1753
warming 1753
fixture 1752
mix 1752
19@@ 1751
useful 1751
Leyton 1749
ment 1749
withdrawn 1749
Mosul 1748
la@@ 1748
landing 1748
necessarily 1748
end@@ 1747
commander 1746
frustration 1746
urging 1746
Gatland 1745
Grimsby 1745
Music 1745
Nicky 1745
flew 1745
Hor@@ 1744
Messi 1743
worrying 1743
Guardiola 1742
studio 1742
rooms 1740
staged 1740
Sometimes 1739
polling 1739
Gloucester 1738
Luis 1738
cor@@ 1738
landscape 1738
Science 1737
10.@@ 1736
located 1736
professionals 1736
continent 1735
ingly 1735
Shares 1734
tank 1734
up@@ 1734
3-@@ 1733
Company 1733
defeats 1733
homeless 1733
honoured 1733
plea 1733
Hopefully 1732
killer 1732
Derek 1731
Navy 1731
ceasefire 1731
hopeful 1731
investing 1731
reviewed 1731
tomorrow 1731
shocking 1730
Up 1729
odd 1729
regulation 1729
tourist 1729
Roman 1728
bowling 1728
parking 1728
Somalia 1726
austerity 1726
engines 1725
ators 1724
directors 1724
fines 1724
illegally 1724
play-offs 1724
resistance 1723
Czech 1722
Gwent 1722
afraid 1722
Bull 1721
affordable 1721
27-year-old 1720
four-@@ 1720
passion 1720
shirt 1720
wounds 1720
examined 1719
stance 1719
1991 1718
Morecambe 1718
all-@@ 1718
drawing 1718
Maybe 1717
Tommy 1716
holders 1716
physically 1716
generate 1715
qualification 1715
rarely 1715
Dar@@ 1713
punishment 1713
Cole 1712
Dumfries 1712
blocks 1710
relative 1710
repeat 1710
Global 1709
Masters 1709
cheaper 1709
GDP 1708
ach@@ 1708
interviews 1708
28@@ 1707
6-3 1707
Jane 1707
subsequent 1707
2bn 1706
bars 1706
defendant 1706
ot 1706
temperature 1706
resign 1705
Al 1704
threw 1704
vowed 1704
6-4 1703
ang@@ 1703
1960s 1702
As@@ 1702
Associated 1702
ent@@ 1702
plot 1702
schedule 1702
Lawrence 1700
procedure 1700
1990 1699
7,000 1698
ba 1698
ha 1698
taught 1698
regret 1697
bosses 1696
tribunal 1696
IT 1695
Lo@@ 1695
Wallace 1695
Dame 1694
Diego 1694
Given 1694
Sch@@ 1694
celebrating 1694
turns 1693
boats 1692
breaks 1692
brutal 1692
interviewed 1692
ko 1691
Mexican 1690
batting 1690
mood 1690
tools 1690
8,000 1688
Jay 1687
duties 1686
economist 1686
line-up 1686
medicine 1686
tracks 1686
Shane 1685
cur@@ 1685
Capital 1684
Trade 1683
scorer 1683
sq 1683
04 1682
19-year-old 1682
Challenge 1682
cheap 1681
manslaughter 1681
Jenkins 1679
Theatre 1679
enjoying 1679
ably 1678
solar 1677
700 1676
CT 1676
Iain 1676
client 1676
Water 1675
Barnet 1674
meat 1674
AM 1673
Polish 1673
comprehensive 1673
ens 1673
il 1673
implement 1673
inbox 1673
sessions 1673
departments 1672
tall 1672
Operation 1671
Woods 1671
hosting 1671
trafficking 1671
brands 1670
nervous 1670
tears 1670
K 1669
errors 1669
jet 1669
skipper 1669
ta 1668
mph 1667
IMF 1666
aiming 1666
latter 1666
qualifier 1666
terrorists 1666
Davidson 1665
Gulf 1665
Jo 1665
Scientists 1665
Im@@ 1664
novel 1663
covers 1660
awful 1659
bullying 1659
fixtures 1659
native 1659
repair 1659
slowly 1658
ence 1657
sugar 1657
1993 1656
McGuinness 1655
depression 1655
stretch 1655
zero 1655
Stokes 1654
ee 1652
peaceful 1652
wrongdoing 1652
2-@@ 1651
commented 1651
cha@@ 1650
legally 1650
racist 1649
relegated 1649
Ra@@ 1647
Without 1647
ors 1647
determination 1646
regard 1646
ve 1646
73 1645
Space 1645
apps 1645
impose 1645
specifically 1645
19th 1644
den@@ 1644
recall 1644
Scot 1643
chaos 1643
conservation 1642
ri 1642
Love 1641
Source 1641
motivated 1641
res 1641
Bi@@ 1640
drinks 1640
examine 1640
isolated 1640
dropping 1639
noticed 1639
subjects 1639
05 1638
Dunfermline 1638
external 1638
influential 1638
parade 1638
roll 1638
super@@ 1638
Food 1637
ded 1637
implemented 1637
securing 1637
Londonderry 1636
familiar 1634
ino 1634
ky 1634
nomination 1634
triumph 1634
9m 1633
her@@ 1633
Dun@@ 1632
consistently 1632
revolution 1631
Froome 1630
complicated 1630
post-mortem 1630
touched 1630
trusts 1630
74 1629
Iceland 1628
Lu@@ 1628
bu@@ 1628
par@@ 1628
counter 1627
percentage 1627
popularity 1627
pursue 1627
Richards 1626
first-team 1626
wi@@ 1626
Salford 1624
actors 1624
ats 1624
residential 1624
flown 1623
gu@@ 1623
retailers 1622
Ghana 1620
focusing 1620
ters 1620
Nelson 1619
alliance 1619
¦ 1619
Tokyo 1618
makers 1618
pre-season 1618
ranks 1618
victories 1618
Turner 1617
donations 1617
Dominic 1616
gar@@ 1616
indecent 1616
overcome 1616
Nigerian 1615
constant 1615
packed 1615
theory 1615
Joshua 1614
fires 1614
operational 1614
referring 1614
Dortmund 1613
Guardian 1613
Warburton 1613
establishment 1613
generations 1613
recovering 1613
tunnel 1613
Manuel 1612
guards 1612
Anyone 1611
affecting 1611
fiscal 1610
Ak@@ 1609
Monitoring 1609
rated 1609
dementia 1607
disciplinary 1607
aspects 1606
mention 1606
Melbourne 1605
five-@@ 1605
Ofsted 1603
scared 1603
Safety 1601
remembered 1600
ten@@ 1600
ire 1599
rapid 1599
sentencing 1598
40,000 1597
Barrow 1597
infected 1597
legend 1597
Emma 1596
print 1596
Later 1594
lovely 1594
Robin 1593
proof 1593
satisfied 1593
buses 1592
exceptional 1592
meanwhile 1592
Avenue 1591
cael 1591
celebrations 1591
six-@@ 1591
su@@ 1591
29-year-old 1590
20-year-old 1588
dominant 1588
element 1587
negotiating 1587
yesterday 1587
GPs 1586
V 1586
aftermath 1586
liked 1586
trace 1586
200,000 1585
entertainment 1585
mouth 1585
rocket 1585
slipped 1585
• 1585
forcing 1584
journal 1584
50m 1582
ach 1582
dressing 1582
exact 1582
tradition 1582
voluntary 1582
attractive 1581
firefighters 1581
unity 1581
Lawro 1580
negotiate 1580
replacing 1580
villages 1580
Front 1579
broadband 1579
Hibs 1578
Marco 1578
authors 1578
Ambulance 1577
offshore 1577
prisons 1577
sectors 1577
sum 1577
Lincolnshire 1576
ignored 1576
predecessor 1576
rent 1576
halt 1575
second-half 1575
Caroline 1574
franchise 1574
methods 1574
smartphone 1574
string 1574
Tata 1573
priorities 1573
Anne 1572
gy@@ 1572
hat-trick 1572
removal 1572
statue 1572
shoot 1570
500,000 1569
Tigers 1569
barriers 1569
do@@ 1569
Members 1568
pride 1568
bags 1567
diversity 1567
economies 1567
march 1567
viewed 1567
weekly 1567
RMT 1566
alarm 1566
reward 1566
Pro12 1565
Back 1564
hacking 1564
za 1564
18-year-old 1563
26@@ 1563
28-year-old 1563
Powell 1563
closest 1563
dress 1563
sudden 1563
11th 1562
Allan 1562
bedroom 1562
listening 1562
collect 1561
urban 1561
requirements 1560
chart 1559
inmates 1559
st 1559
Unfortunately 1558
celebration 1558
employee 1558
ex@@ 1558
Cancer 1557
Taiwan 1557
ale 1557
cool 1557
oedd 1557
remanded 1557
30@@ 1556
ising 1556
fed 1555
5bn 1554
Rome 1554
co-operation 1554
sw@@ 1554
careful 1553
innovation 1553
acceptable 1551
politically 1551
vi@@ 1551
Perhaps 1550
fe@@ 1550
pending 1550
Zimbabwe 1549
mentioned 1549
levelled 1548
Worcester 1547
athletics 1547
ping 1547
periods 1546
ef@@ 1545
Kate 1544
timing 1544
Atlantic 1543
Palmer 1543
earthquake 1543
ion 1543
soil 1543
cat 1541
girlfriend 1541
multi-@@ 1541
probe 1541
92 1540
Mario 1540
Plans 1540
climb 1539
keeps 1539
min@@ 1539
Mohamed 1538
ONS 1538
du@@ 1538
Thames 1537
reflected 1537
77 1535
Andre 1535
Mills 1535
peers 1535
earning 1534
export 1534
Gaal 1533
missiles 1533
throwing 1533
Congo 1532
Shanghai 1532
dry 1531
finds 1531
proven 1531
shortage 1531
ically 1530
Analysis 1529
Mas@@ 1529
Michelle 1529
maintenance 1529
premises 1529
Ayr 1528
cannabis 1528
im 1528
theme 1528
Cal@@ 1527
Roma 1527
Tor@@ 1527
ankle 1527
questioning 1526
tweets 1526
Kieran 1525
arguments 1525
frustrating 1525
ning 1525
preparation 1525
Unionist 1524
ambitions 1524
engineers 1524
prop 1524
maths 1523
20th 1522
cocaine 1522
draws 1522
producers 1522
99 1521
au@@ 1521
innocent 1521
lin 1521
principal 1521
processes 1521
Station 1520
automatic 1520
disputed 1520
instance 1520
automatically 1519
New@@ 1518
Almost 1517
Connor 1517
Prosecutors 1517
buyers 1517
stopping 1517
Worcestershire 1516
audiences 1516
casualties 1516
disability 1516
efficient 1516
singing 1516
Thomson 1515
fr@@ 1515
deciding 1514
ster 1514
Ba@@ 1513
Finance 1513
reserve 1513
restricted 1512
Hollande 1511
everywhere 1511
neighbour 1511
pulling 1511
HIV 1510
lifetime 1510
Ltd 1509
an-@@ 1509
fleeing 1509
Obviously 1508
Your 1508
difficulty 1508
forever 1508
jihadist 1508
120 1507
favourites 1507
studied 1507
06 1506
accurate 1505
junction 1505
stunning 1505
trail 1505
frame 1504
01 1503
riding 1503
Hu@@ 1502
ely 1502
square 1502
Is@@ 1501
Prize 1501
equality 1501
frequently 1501
iconic 1500
painting 1500
robbery 1500
Unite 1499
withdrawal 1499
Ru@@ 1498
concrete 1498
Constable 1497
hadn 1497
perspective 1497
riders 1496
OK 1495
checked 1495
he@@ 1494
petrol 1494
Galloway 1493
Land 1492
telephone 1492
Munster 1491
cy@@ 1491
Family 1490
ICC 1490
Vincent 1490
resolved 1490
can@@ 1489
25@@ 1488
Duke 1487
decisive 1487
ze 1487
Pre@@ 1486
surge 1486
tower 1486
visa 1486
ECB 1485
Elliott 1485
Project 1485
Until 1484
amongst 1484
equally 1484
substance 1484
Bon@@ 1483
Mad@@ 1482
wonder 1482
Christie 1480
Sterling 1480
sheet 1479
taxpayers 1479
Amnesty 1478
Gavin 1478
La@@ 1478
mothers 1478
strange 1478
Klopp 1477
searched 1477
supporter 1477
Borussia 1476
Wal@@ 1476
Mali 1475
Ram@@ 1475
executives 1475
industries 1475
2,@@ 1474
ear 1474
pro@@ 1474
Sunni 1473
boxes 1473
earth 1473
ferry 1473
grass 1473
tool 1473
29@@ 1472
Guinea 1472
Senator 1472
Technology 1472
assessed 1472
briefly 1471
4-0 1470
searches 1470
Tunisia 1469
burst 1469
Talbot 1468
unnecessary 1468
Wil@@ 1467
ann@@ 1467
hunting 1467
ical 1467
borrowing 1466
concept 1466
76 1465
Critics 1465
Wells 1465
ara 1465
fights 1465
requested 1465
Francois 1464
ders 1464
overwhelming 1464
Stirling 1463
ep@@ 1463
technique 1463
-born 1462
appeals 1462
movements 1462
ranking 1462
reopened 1462
so@@ 1462
Mur@@ 1461
sounds 1461
prospects 1460
21st 1459
Merseyside 1459
preventing 1459
Ham@@ 1458
all@@ 1458
pose 1458
short-term 1458
Awards 1457
Ser@@ 1457
manufacturers 1457
milk 1457
Y 1456
avoided 1456
dr@@ 1456
explore 1456
restaurants 1456
strict 1455
Are 1454
Rachel 1454
Singh 1454
situations 1454
eg@@ 1453
grand 1453
toll 1453
trigger 1453
campaigner 1452
ants 1450
Nice 1449
clash 1449
o-@@ 1448
screening 1448
sun 1448
unexpected 1448
78 1447
Blue 1447
bury 1447
occupied 1447
preferred 1447
Ver@@ 1446
debts 1446
diabetes 1446
practical 1446
solve 1446
switched 1446
lists 1445
minds 1445
shame 1445
typically 1445
Culture 1444
citizen 1444
ology 1444
burning 1443
capt 1443
developers 1443
thanked 1443
24@@ 1442
pack 1442
seekers 1442
3bn 1441
96 1441
Swedish 1441
childhood 1441
farming 1441
sed 1441
ys@@ 1441
Pearson 1440
margin 1440
edged 1439
Atletico 1438
gi@@ 1438
Bernard 1437
inspiration 1437
marine 1437
27@@ 1436
electronic 1436
suitable 1436
ching 1435
comeback 1435
fierce 1435
pages 1435
promoting 1435
tally 1435
clock 1434
com@@ 1434
Cameroon 1433
Country 1433
files 1433
Pacific 1432
voices 1431
citing 1430
engagement 1430
luxury 1430
3-2 1429
ala 1429
az@@ 1429
firmly 1429
Ge@@ 1428
ati@@ 1428
bbcnewsents 1428
coffee 1428
encounter 1428
solutions 1428
dozen 1427
mate 1427
McCarthy 1426
mosque 1426
operates 1426
suggestions 1426
torture 1426
Ay@@ 1425
Charlotte 1425
seal 1425
Can@@ 1424
commitments 1424
temporarily 1424
windows 1424
18th 1423
Vaughan 1423
War@@ 1423
ma@@ 1423
virtual 1423
Action 1422
Pal@@ 1422
no@@ 1422
smashed 1422
Prison 1421
demonstrated 1421
genetic 1421
harassment 1421
Whether 1420
ade 1420
ci@@ 1420
command 1420
passport 1420
removing 1420
Bre@@ 1419
forest 1418
res@@ 1418
4-@@ 1417
Dorset 1417
Formula 1417
compromise 1417
integrity 1417
surprising 1417
Experts 1416
lasted 1416
youngsters 1416
Remain 1415
affair 1415
attacker 1414
burden 1414
fly-half 1414
hide 1414
renewed 1414
Ne@@ 1413
ick 1413
Morrison 1412
bailout 1412
ica 1412
tea 1412
Economic 1411
Gaza 1411
Sebastian 1411
bone 1411
freed 1411
reflects 1411
distribution 1410
legitimate 1410
tournaments 1410
Col 1409
Men 1409
att@@ 1409
des@@ 1409
est@@ 1409
governance 1409
conversations 1408
educational 1408
odds 1408
select 1408
30-year-old 1407
MSP 1407
dec@@ 1407
depth 1407
ines 1407
sm@@ 1407
ber 1406
regardless 1406
Finn 1405
Senior 1405
pen@@ 1405
San@@ 1404
Shaw 1404
foundation 1404
tactics 1404
toilet 1404
Del@@ 1403
broad 1403
ocean 1402
retained 1402
Inter@@ 1401
constantly 1401
holidays 1401
par 1401
2015-16 1400
SDLP 1400
guaranteed 1400
tone 1400
visible 1400
Carlos 1399
20m 1398
Hotel 1398
ses 1398
Fin@@ 1397
headline 1397
convictions 1396
spaces 1396
9,000 1395
Civil 1395
accusing 1395
rating 1395
Cheshire 1394
Protection 1394
Palestinians 1393
classes 1393
objects 1393
1984 1392
Pen@@ 1392
bri@@ 1392
exam 1392
Bashar 1391
Close 1391
Racing 1391
belt 1391
inadequate 1391
launching 1391
Borough 1389
Go@@ 1389
Pol@@ 1389
demonstrate 1389
ew@@ 1389
strain 1389
Eastern 1388
crown 1387
Highland 1386
dd@@ 1386
horses 1386
perfectly 1386
sk@@ 1386
breakthrough 1385
explanation 1385
responding 1385
6,@@ 1384
Armagh 1384
Fi@@ 1384
booked 1384
destruction 1384
ff 1384
gross 1384
resume 1384
reverse 1384
stocks 1384
tougher 1384
79 1383
Academical 1383
Seven 1383
Simpson 1383
ill@@ 1383
photograph 1383
15,000 1382
Roberto 1382
50@@ 1381
Croatia 1381
Get 1381
breast 1381
em 1381
sen 1381
upper 1381
Councillor 1380
bs 1380
Clyde 1379
couples 1379
gangs 1379
inevitable 1379
introducing 1379
rid 1379
safer 1379
allegation 1378
locally 1378
punished 1378
retire 1378
ver 1378
Dover 1377
Ta@@ 1377
Walsh 1377
method 1377
recession 1377
Pe@@ 1376
mainland 1376
optimistic 1376
participation 1376
ada 1375
billions 1375
newly 1375
reviews 1375
treatments 1375
borough 1374
hardly 1374
ski 1374
BBCNewsbeat 1373
forensic 1373
tremendous 1373
inspectors 1372
wishes 1372
Johnston 1371
Mason 1371
grabbed 1371
Kil@@ 1370
chamber 1370
choices 1370
tion 1370
Char@@ 1369
Staff 1369
mortgage 1369
stepping 1369
Farrell 1368
admit 1368
anyway 1368
Karen 1367
Slovakia 1367
forgotten 1367
Valencia 1366
ets 1366
ova 1366
ud@@ 1365
Cumbria 1364
newsletter 1364
spectacular 1364
Romania 1363
tension 1363
unhappy 1363
ek 1362
followers 1362
transparency 1362
MSPs 1361
Norman 1361
pregnancy 1361
Ellis 1360
Philippines 1360
Morning 1359
airports 1359
capped 1359
chasing 1359
recruit 1359
same-sex 1359
unbelievable 1359
Cycling 1358
Er@@ 1358
Honda 1358
Newsnight 1358
Neymar 1358
divisions 1358
swept 1358
lads 1357
revised 1357
wa 1357
02 1356
17-year-old 1356
Cruz 1356
FTSE 1355
Chi@@ 1354
anxiety 1354
murders 1354
Dubai 1353
Middlesex 1353
Twenty20 1353
drones 1353
engineer 1353
mainstream 1353
underground 1353
Fletcher 1351
QPR 1351
Hand 1350
Warrington 1350
barely 1350
donated 1350
gallery 1350
loyal 1350
shed 1350
waves 1350
joy 1349
uncovered 1349
Penalty 1348
Tu@@ 1348
ang 1348
back@@ 1348
Em@@ 1347
opens 1346
sl@@ 1346
Adrian 1345
chase 1345
© 1345
Gor@@ 1344
Konta 1344
file 1343
ms 1343
Lebanon 1342
Maduro 1342
suppliers 1342
crazy 1341
ly@@ 1341
ying 1341
Cambridgeshire 1340
LA 1340
Portuguese 1338
Abbott 1337
Leone 1337
diagnosis 1336
tired 1336
20s 1335
Federer 1335
hunt 1335
ier 1335
12th 1334
Wiltshire 1334
dressed 1334
four-year 1334
passes 1334
Ash@@ 1333
consumption 1333
prisoner 1333
strongest 1333
Xi 1332
Ivan 1331
diesel 1331
joins 1331
Jeff 1330
Staffordshire 1330
Mag@@ 1329
Management 1329
destination 1329
gather 1329
regulators 1329
al-Assad 1328
longest 1328
realistic 1328
united 1328
Raith 1327
Saint 1327
centuries 1327
dale 1327
personality 1327
defendants 1326
yd@@ 1326
400m 1325
Carwyn 1325
Pr@@ 1325
dialogue 1325
retailer 1325
stream 1325
Dal@@ 1324
Ni@@ 1324
Researchers 1324
dangers 1324
destroy 1324
Fre@@ 1323
Indies 1323
forthcoming 1323
immigrants 1323
iron 1323
kicking 1323
DC 1322
Appeal 1321
Chile 1321
Damascus 1321
fitted 1321
Andrea 1320
Blatter 1320
lands 1320
Age 1319
Reports 1319
cinema 1319
12-@@ 1318
300,000 1318
Al-@@ 1318
Policy 1318
fate 1318
rolling 1318
pa@@ 1317
pointing 1317
Lin@@ 1316
disappearance 1316
landmark 1316
principles 1316
typical 1316
Highlands 1315
Val@@ 1315
displaced 1315
lengthy 1315
1988 1314
Hayes 1314
rel@@ 1314
Gove 1313
Statistics 1313
hackers 1313
midnight 1313
war@@ 1313
ain 1312
failures 1312
AP 1311
HMRC 1311
Julian 1311
Thatcher 1311
agreements 1311
classic 1311
contributions 1311
inspector 1311
Dumbarton 1310
Perth 1310
Sanders 1310
diseases 1310
16th 1309
beds 1309
dle 1309
Uganda 1308
low-@@ 1308
Captain 1307
Malcolm 1307
Sierra 1307
hand@@ 1307
library 1307
unrest 1307
Around 1306
Boston 1306
Child 1306
Ha@@ 1306
Russians 1306
chat 1306
distress 1306
grants 1306
guests 1306
surrounded 1306
1,500 1305
Mat@@ 1305
debris 1305
first-class 1305
lin@@ 1305
object 1305
raids 1305
23@@ 1304
Liga 1304
Shadow 1304
feelings 1304
interior 1304
marking 1304
tin 1304
writes 1304
0-@@ 1303
25,000 1303
crack 1303
ea@@ 1303
ena 1303
expertise 1303
wound 1303
comparison 1302
extremism 1302
excessive 1301
Stone 1300
dinner 1300
Residents 1299
Sanchez 1299
brave 1299
doubles 1299
platforms 1299
storage 1299
Bro@@ 1298
appreciate 1298
owed 1298
researcher 1298
surely 1298
03 1297
Vietnam 1297
formation 1297
internationals 1297
shouting 1297
derby 1296
gunman 1296
motorway 1296
affects 1295
Ã 1295
mandate 1294
contains 1293
narrowly 1293
filming 1292
medium 1292
Greens 1291
Pat 1291
od 1291
5,@@ 1290
achieving 1290
pronounced 1290
venues 1290
Nepal 1289
damages 1289
pattern 1289
Sur@@ 1288
funny 1288
sharply 1288
Ker@@ 1287
gunmen 1287
moderate 1287
cher 1286
amendment 1285
comply 1285
exploitation 1285
hub 1285
techniques 1285
Emergency 1284
Townsend 1284
admitting 1284
Duffy 1283
Moon 1283
ars 1283
ideal 1283
Glenn 1282
one-year 1282
rolled 1282
undisclosed 1282
IAAF 1281
climbed 1281
ches 1280
expanded 1280
format 1280
top-@@ 1280
warn 1280
17th 1279
campus 1279
corporation 1279
dubbed 1279
indication 1278
kers 1278
prompting 1278
spare 1278
Governor 1277
debates 1277
grey 1277
shortages 1277
therapy 1277
Bobby 1276
Turnbull 1276
outlets 1276
Next 1275
Q 1275
imports 1275
master 1275
invasion 1274
left-wing 1274
postponed 1274
refusing 1274
Manager 1273
Omar 1273
assaults 1273
competitors 1273
dig 1273
impression 1272
unfortunately 1272
Unit 1271
passionate 1271
Emirates 1270
hearts 1270
vaccine 1270
Jan@@ 1269
Potter 1269
diverse 1269
ering 1269
ik@@ 1269
mu@@ 1269
scrapped 1269
wheelchair 1269
40@@ 1268
Andrews 1268
breathing 1268
scenario 1268
solicitor 1268
outlined 1267
So@@ 1266
hanging 1266
loose 1266
Gal@@ 1265
He@@ 1265
oppose 1265
Midlothian 1264
cloud 1264
battling 1263
campaigned 1263
cr@@ 1263
ensured 1263
attached 1262
spin 1262
Brady 1261
Perry 1261
lifestyle 1261
monthly 1261
sey 1261
Elsewhere 1260
Root 1260
breached 1260
provider 1260
13th 1259
Crimea 1259
Mediterranean 1259
overturned 1259
powered 1258
20-@@ 1257
adrift 1257
examples 1257
mann 1257
Lam@@ 1256
Much 1256
Suarez 1256
glad 1256
i-@@ 1256
rumours 1256
concerning 1255
ile 1255
maintaining 1255
1-@@ 1254
Cr@@ 1254
Indeed 1254
accompanied 1254
concentrate 1254
guided 1254
6-2 1253
Mel@@ 1253
barrier 1253
hiding 1253
childcare 1252
intensive 1252
runway 1252
Bor@@ 1251
dragged 1251
pi@@ 1251
reply 1251
technologies 1251
11@@ 1250
Anna 1250
Spaniard 1250
Wars 1250
Webb 1250
sal@@ 1250
ther@@ 1250
viable 1250
ville 1250
98 1249
exposure 1249
refuse 1249
1.5 1248
Barclays 1248
letting 1248
Pan@@ 1247
Pen 1247
ads 1247
agrees 1247
basically 1247
demonstration 1247
elling 1247
firearms 1247
Cabinet 1246
build-up 1246
stones 1246
tu@@ 1246
McGregor 1245
Reds 1245
Vi@@ 1245
posting 1245
Flynn 1244
ered 1244
visitor 1244
Art 1243
Las 1243
ath 1243
lifting 1243
og@@ 1243
teeth 1243
36@@ 1242
Sevilla 1242
failings 1242
mal@@ 1242
Allardyce 1241
lunch 1241
sleeping 1241
structures 1241
truck 1241
Ball 1240
asset 1240
deserves 1240
lane 1240
racism 1240
Dawson 1239
München 1239
depend 1239
fleet 1239
painful 1239
9-@@ 1238
Graeme 1238
institution 1238
lasting 1238
pursuit 1238
str@@ 1238
undermine 1238
Hillsborough 1237
comfort 1237
Carolina 1236
ative 1236
panic 1236
sen@@ 1236
ves 1236
waited 1236
Organization 1235
copy 1235
responsibilities 1235
Red@@ 1234
achievements 1234
anti@@ 1234
enemy 1234
smile 1234
2.5 1233
joke 1233
of@@ 1233
Dylan 1232
customs 1232
forecasts 1232
rocks 1232
83 1231
skilled 1231
steady 1231
Primary 1230
Victor 1230
rubbish 1230
Harlequins 1229
Lennon 1229
arrangement 1229
cyber 1229
hotels 1229
15-@@ 1228
Button 1228
amateur 1228
bitter 1228
carries 1228
diet 1228
fruit 1228
ond 1228
vessels 1228
assured 1227
crackdown 1227
demonstrations 1227
ell@@ 1227
judged 1227
scientist 1227
Ruth 1226
kitchen 1226
loving 1226
unlike 1226
boosted 1225
flats 1225
Right 1224
channels 1224
collective 1224
explosive 1224
tor@@ 1224
half-@@ 1223
holder 1223
severely 1223
Hal@@ 1222
Nobody 1222
caring 1222
charging 1222
credible 1222
troubled 1221
1983 1220
Ashes 1220
co 1220
north-east 1220
scrap 1220
Carney 1219
are@@ 1219
investments 1219
sha@@ 1219
symbol 1219
tipped 1218
courage 1217
handful 1217
7,@@ 1216
Nor@@ 1216
eggs 1216
existence 1216
15-year-old 1215
Chicago 1215
Higgins 1215
Bri@@ 1214
Eden 1214
Mars 1214
Men@@ 1214
Ofcom 1214
Way 1213
Film 1212
82 1211
Me 1211
Nazi 1211
Rogers 1211
expanding 1211
meals 1211
volume 1211
Go 1210
Mick 1210
knock 1210
zoo 1210
60@@ 1209
criteria 1209
hat 1209
starring 1209
Conte 1208
Gwynedd 1208
18-@@ 1207
Direct 1207
Ke@@ 1207
Myanmar 1207
coastal 1207
fundraising 1207
4bn 1206
Jacob 1206
artificial 1206
credits 1206
loud 1206
wealthy 1206
Overall 1205
addressing 1205
wy@@ 1205
2-2 1204
Anfield 1204
Zika 1204
doubts 1204
fa@@ 1204
nowhere 1204
significance 1204
Da@@ 1203
Did 1203
renewable 1203
ta@@ 1203
Further 1202
answered 1202
nursing 1202
Vatican 1201
conducting 1201
ella 1201
nationalist 1201
ok@@ 1201
pilots 1201
subjected 1201
careers 1200
flags 1200
16-year-old 1199
Agreement 1199
Friends 1199
6bn 1198
craft 1198
lady 1198
Nearly 1197
beauty 1197
defined 1197
warns 1197
Battle 1196
confusion 1196
efficiency 1196
reacted 1196
streaming 1196
Currently 1195
Don@@ 1195
hire 1195
trips 1195
wheel 1195
11.@@ 1194
extremist 1194
outs 1194
pressing 1194
top-flight 1194
actively 1192
del 1192
parks 1192
Macron 1191
differently 1191
kit 1191
th-minute 1191
vice-president 1191
250,000 1190
Assistant 1190
Liberty 1190
attorney 1190
off-@@ 1190
Na@@ 1189
Sony 1189
anonymous 1189
berg 1189
carrier 1189
formerly 1189
medication 1189
rush 1189
constable 1188
measured 1188
30m 1187
Albert 1187
Kremlin 1187
Lancaster 1187
Ten 1187
defenders 1187
regulatory 1187
sa 1187
well-known 1187
1987 1186
Claire 1186
Paisley 1185
executed 1185
Everything 1184
Parker 1184
93 1183
Bond 1183
closures 1183
warrant 1183
Latin 1182
Prosecution 1182
Sol@@ 1182
addresses 1182
bottle 1182
teach 1182
&apos;Connor 1181
86 1181
Natural 1181
Review 1181
poorest 1181
profession 1181
purposes 1181
&apos;Sullivan 1180
Sun@@ 1180
quicker 1180
rough 1180
Athletics 1179
Center 1179
My@@ 1179
Nicolas 1179
Pl@@ 1179
enabled 1179
frozen 1179
wore 1179
Do@@ 1178
ess 1178
Junior 1177
breakdown 1177
kick-off 1177
liberal 1177
painted 1177
Fa@@ 1176
floods 1176
lea@@ 1176
to-@@ 1176
Frenchman 1175
Organisation 1175
barrister 1175
ere 1175
fracking 1175
15th 1174
84 1174
refer 1174
ub@@ 1174
31-year-old 1173
38@@ 1173
Alastair 1173
Arthur 1173
Payne 1173
duo 1173
5-@@ 1172
Dennis 1172
Matthews 1172
Tri@@ 1172
examining 1172
openly 1172
skill 1172
tear 1172
88 1171
Katie 1171
Arts 1170
Johnny 1170
employs 1170
mentally 1170
11-@@ 1169
Dywedodd 1169
Nadal 1169
Sinclair 1169
Str@@ 1169
copies 1169
literally 1169
traditionally 1169
Dagenham 1168
Fer@@ 1168
Holmes 1168
Joel 1168
Pembrokeshire 1168
Series 1168
announcing 1168
edition 1168
grid 1168
ing-@@ 1168
shoes 1167
Guy 1166
haul 1166
tyres 1166
Mos@@ 1165
immune 1165
ser@@ 1165
2014-15 1164
Eastleigh 1164
han@@ 1164
matched 1164
reliable 1164
trainer 1164
function 1163
oo@@ 1163
two-thirds 1163
Ac@@ 1162
Born 1162
VW 1162
asks 1162
bo 1162
exams 1162
indicate 1162
prayers 1162
succeeded 1162
wa@@ 1162
Communist 1161
Rebecca 1161
signings 1161
ydd 1161
Libyan 1160
MoD 1160
Oxfordshire 1160
Part 1160
Rock 1160
bands 1160
thousand 1160
Virgin 1159
anticipated 1159
attraction 1159
beer 1159
golden 1159
Bad@@ 1158
Cam@@ 1158
Jews 1158
ki 1158
publishing 1158
Argentine 1157
Key 1157
displayed 1157
persuade 1157
qualifications 1157
que 1157
8-@@ 1156
Blacks 1156
ist@@ 1156
life-threatening 1156
populations 1156
Britons 1155
Lucy 1155
circuit 1155
praise 1155
Joyce 1154
Politics 1154
Santos 1154
explosives 1154
patrol 1154
tariffs 1154
unfortunate 1154
ut 1154
Analysts 1153
neighbourhood 1153
Vardy 1152
depends 1152
ful 1152
netted 1152
south-east 1152
130 1151
Princess 1151
assaulting 1151
dismissal 1151
gen@@ 1151
Paterson 1150
Within 1150
fence 1150
fo@@ 1150
isation 1150
peer 1150
statutory 1150
ultimate 1150
benchmark 1149
execution 1149
hell 1149
discharged 1148
innovative 1148
venture 1148
Farc 1147
Mak@@ 1147
except 1147
gg@@ 1147
nights 1147
supportive 1147
4,@@ 1146
Ashton 1146
Doctor 1146
Sand@@ 1146
delegates 1146
30-@@ 1145
Ann 1145
Black@@ 1145
Hartley 1145
Spencer 1145
entrance 1145
Stevens 1144
formula 1144
spreading 1144
ti 1144
Inter 1143
col@@ 1143
dramatically 1143
Shakespeare 1142
backgrounds 1142
connections 1142
Hamas 1141
Warner 1141
ali@@ 1141
framework 1141
wyr 1141
discipline 1140
gl@@ 1140
pr@@ 1140
reserves 1140
Ol@@ 1139
tuition 1139
upgrade 1139
Chiefs 1138
Inside 1138
Nasa 1138
fat 1138
volunteer 1138
8bn 1137
Ocean 1137
Which 1137
bombings 1137
crying 1137
cyclist 1137
farms 1137
ide 1137
observed 1137
requirement 1137
Nobel 1136
counterpart 1136
raises 1136
MLA 1135
connect 1135
pet 1135
seven-@@ 1135
sorts 1135
13.@@ 1134
Kenyan 1134
Lyon 1134
Renault 1134
ents 1134
shelter 1134
HSBC 1133
generous 1133
inc@@ 1133
rhetoric 1133
81 1132
999 1132
Being 1132
bones 1132
Subscribe 1131
topped 1131
1979 1130
500m 1130
Ca@@ 1130
ash@@ 1130
discussing 1130
needing 1130
reviewing 1130
valued 1130
advisers 1129
arranged 1129
financially 1129
reception 1129
roughly 1129
accepting 1128
airlines 1128
bailed 1128
missions 1128
observers 1128
bidding 1127
diving 1127
pole 1127
Leader 1126
Rousseff 1126
agriculture 1126
halted 1126
horrific 1126
nominee 1126
repairs 1126
89 1125
Alexis 1125
Algeria 1125
Criminal 1125
Thai 1125
freeze 1125
jets 1125
occur 1125
predict 1125
vice 1125
Cyprus 1124
Donegal 1124
approximately 1124
daughters 1124
defences 1124
gyda 1124
Pyongyang 1123
obesity 1123
hu@@ 1122
lacked 1122
Ibrahimovic 1121
Standard 1121
bas@@ 1121
trauma 1121
EFL 1120
Louise 1120
Winter 1120
blown 1120
intervene 1120
é@@ 1120
Ban@@ 1119
Peace 1119
ah@@ 1119
collaboration 1119
ja 1119
modest 1119
mutual 1119
submit 1119
Garcia 1118
grade 1118
nominations 1118
Boxing 1117
Final 1117
Ger@@ 1117
attendance 1117
indigenous 1117
ming 1117
speaker 1117
Francisco 1116
Moyes 1116
choosing 1116
perceived 1116
convert 1115
prosecuted 1115
Opposition 1114
ari 1114
expenses 1114
leak 1114
outcomes 1114
prefer 1114
Angus 1113
Cairo 1113
grandfather 1113
4-1 1112
RBS 1112
Weir 1112
convention 1112
1986 1111
Leon 1111
ga@@ 1111
iz@@ 1111
outlook 1111
Gen@@ 1110
react 1110
withdrew 1110
16-@@ 1109
Arlene 1109
Mul@@ 1109
oned 1109
privilege 1109
robot 1109
Julie 1108
cm 1108
ned 1108
2016-17 1107
Airlines 1107
Dor@@ 1107
Ethiopia 1107
Senegal 1107
desperately 1107
hamstring 1107
Sel@@ 1106
approve 1106
contention 1106
poorer 1106
Lake 1105
banning 1105
ologist 1105
saves 1105
uncertain 1105
wet 1105
worries 1105
2,500 1104
87 1104
AC 1104
Bol@@ 1104
Referee 1104
Sale 1104
controlling 1104
def@@ 1104
fortunate 1104
om 1104
outfit 1104
timetable 1104
ty@@ 1104
climbing 1103
consensus 1103
dependent 1103
Bou@@ 1102
May@@ 1102
Workers 1102
incomes 1102
Emmanuel 1101
ays 1101
depending 1101
opted 1101
q@@ 1101
14th 1100
IC@@ 1100
celebrity 1100
excess 1100
greatly 1100
k-@@ 1100
reject 1100
shore 1100
stabbing 1100
Baroness 1099
McDonnell 1099
Swift 1099
ain@@ 1099
blind 1099
extending 1099
intensity 1099
interval 1099
reluctant 1099
Clement 1098
Gi@@ 1098
propaganda 1098
sample 1098
Hy@@ 1097
aviation 1097
head@@ 1097
collecting 1096
marathon 1096
sits 1096
¬ 1096
Gill 1095
Hezbollah 1095
clarity 1095
ly-@@ 1095
Muhammad 1094
Steel 1094
Trophy 1094
boxer 1094
swing 1094
37@@ 1093
Bas@@ 1093
jihadists 1093
languages 1093
whistle 1093
7bn 1092
Hertfordshire 1092
bans 1092
crude 1092
fe 1092
participants 1092
stranded 1092
Arctic 1091
Jerusalem 1091
Murdoch 1091
WHO 1091
Win@@ 1091
betting 1091
ola 1091
None 1090
racial 1090
Des@@ 1089
Doyle 1089
Reserve 1089
deprived 1089
extradition 1089
Benjamin 1088
fer@@ 1088
fitting 1088
representation 1088
ser 1088
wine 1088
6-1 1087
gift 1087
harsh 1087
32-year-old 1086
Christians 1086
Golden 1086
Ivory 1086
intend 1086
transgender 1086
12.@@ 1085
championships 1085
detected 1085
ve@@ 1085
globally 1084
productivity 1084
assisted 1083
ratings 1083
solo 1083
ving 1083
Amy 1082
Gateshead 1082
Nicholas 1082
bomber 1082
contested 1082
forwards 1082
outrage 1082
second-@@ 1082
1980 1081
Ag@@ 1081
Ti@@ 1081
alerted 1081
cattle 1081
ese 1081
reassure 1081
trio 1081
Maidstone 1080
Mil@@ 1080
Samuel 1080
commentary 1080
super-@@ 1080
transparent 1080
Barnes 1079
Lisa 1079
Niall 1079
Zuma 1079
ho@@ 1079
pipeline 1079
pol@@ 1079
psychological 1079
stored 1079
zones 1079
Rafael 1078
caution 1078
transform 1078
Az@@ 1077
Kiev 1077
accessible 1077
eight-@@ 1077
feedback 1077
hel@@ 1077
ges 1076
rushed 1076
underlying 1076
by@@ 1075
donation 1075
educated 1075
priest 1075
requiring 1075
signals 1075
uncle 1075
Cl@@ 1074
Finland 1074
acquired 1074
committing 1074
expectation 1074
moral 1074
DR 1073
Eight 1073
Hugh 1073
Mumbai 1073
Mun@@ 1073
US-led 1073
arguably 1073
bur@@ 1073
ill-@@ 1073
wards 1073
char@@ 1072
motorists 1072
receives 1072
virtually 1072
detectives 1071
enc@@ 1071
guess 1071
speeds 1071
abusive 1070
alist 1070
ant@@ 1070
colleges 1070
ear@@ 1070
learnt 1070
produces 1070
Hague 1069
emerge 1069
flowers 1069
ôl 1069
Supporters 1068
detect 1068
dignity 1068
disputes 1068
fossil 1068
mountains 1068
responses 1068
900 1067
Bowie 1067
Carroll 1067
Lanarkshire 1067
Tre@@ 1067
balanced 1067
gradually 1067
ick@@ 1066
Ramsey 1065
bro@@ 1065
80@@ 1064
Englishman 1064
curriculum 1064
pit 1064
grip 1063
inspire 1063
offender 1063
Cape 1062
Geneva 1062
Kat@@ 1062
academies 1062
appalling 1062
aspect 1062
des 1062
engaging 1062
ily 1062
AMs 1061
Sea@@ 1061
impacts 1061
Kin@@ 1060
Torquay 1060
Willie 1060
leisure 1060
ith 1059
ow@@ 1059
Android 1058
Germain 1058
ong@@ 1058
Mis@@ 1057
analysed 1057
apartment 1057
ele 1057
inequality 1057
intends 1057
Istanbul 1056
_ 1056
fails 1056
ita 1056
nie 1056
raw 1056
stretched 1056
succession 1056
weaker 1056
Nico 1055
Schools 1055
experiencing 1055
sprint 1055
stab 1055
stripped 1055
taste 1055
Dugdale 1054
Journal 1054
Maguire 1054
Speaker 1054
Standards 1054
Writing 1054
genuinely 1054
ging 1054
monitored 1054
stops 1054
Lionel 1053
Liz 1053
lit 1053
merger 1053
right-wing 1053
15m 1052
Ki@@ 1052
Tranmere 1052
branches 1052
breaches 1052
broadcasting 1052
inform 1052
sand 1052
turnout 1052
Jan 1051
journeys 1051
qualifiers 1051
separated 1051
world-class 1051
Diamond 1050
Gaddafi 1050
Gallagher 1050
Save 1050
upcoming 1050
Norwegian 1049
Neither 1048
accuse 1048
battery 1048
contributing 1048
enti@@ 1048
gw@@ 1048
revenge 1048
slower 1048
staffing 1048
Ray 1047
Twickenham 1047
al-Shabab 1047
chairs 1047
drunk 1047
experiment 1047
stole 1047
Alison 1046
Brad 1046
Michel 1046
bottles 1046
comedian 1046
flooded 1046
obtain 1046
Mohammad 1045
bonds 1045
breeding 1045
dust 1045
laps 1045
-to-@@ 1044
Gunners 1044
ast@@ 1044
phrase 1044
rebuild 1044
ridiculous 1044
Barton 1043
CEO 1043
counterparts 1043
ju@@ 1043
sympathy 1043
Bra@@ 1042
gaining 1042
70@@ 1041
Calais 1041
Game 1041
belonging 1041
chemicals 1041
economics 1041
preserve 1041
quarters 1041
Ricky 1040
Teachers 1040
bowlers 1040
94 1039
Netanyahu 1038
abusing 1038
deeper 1038
deliberate 1038
finger 1038
ira 1038
5ft 1037
chip 1037
du 1037
dual 1037
slowdown 1037
CPS 1036
Take 1036
Whatever 1036
flee 1036
hailed 1036
objective 1036
Hel@@ 1035
hip 1035
meets 1035
serves 1035
Broad 1034
Rudd 1034
centre-back 1034
nhw 1034
ona 1034
processing 1034
somehow 1034
sooner 1034
Salmond 1033
adopt 1033
applying 1033
ba@@ 1033
boundaries 1033
grandmother 1033
preliminary 1033
ven@@ 1033
Morocco 1032
Ryder 1032
Solihull 1032
Vote 1032
cre@@ 1032
degrees 1032
Fisher 1031
veterans 1031
Sheikh 1030
aries 1030
battles 1030
bowl 1030
humanity 1030
sti@@ 1030
Gerry 1029
branded 1029
broader 1029
ca@@ 1029
registration 1029
somewhat 1029
14-@@ 1028
Ed@@ 1028
Express 1028
Pri@@ 1028
accidents 1028
int@@ 1028
locals 1028
3,@@ 1027
Cre@@ 1027
Ju@@ 1027
paint 1027
writers 1027
Au@@ 1025
Hannah 1025
swim 1025
Living 1024
si 1024
60,000 1023
Airbus 1023
convince 1023
tic 1023
1950s 1022
1985 1022
Wildlife 1022
enterprise 1022
relay 1022
Gabriel 1021
Syrians 1021
bond 1021
developer 1021
hol@@ 1021
humour 1021
resumed 1021
tor 1021
Mandela 1020
Market 1020
Nine 1020
ass 1020
jersey 1020
lending 1020
ran@@ 1020
91 1019
Between 1019
Eve 1019
Partnership 1019
linking 1019
one-off 1019
0-0 1018
7-6 1018
Whilst 1018
Woking 1018
citizenship 1018
dem@@ 1018
mess 1018
nightclub 1018
essentially 1017
reminder 1017
sensible 1017
utterly 1017
worn 1017
Cur@@ 1016
radar 1016
sub-@@ 1016
3D 1015
Jo@@ 1015
barrel 1015
colours 1015
heroin 1015
subsidies 1015
1982 1014
ABC 1014
Fed 1014
Pedro 1014
expression 1014
sisters 1014
thrilled 1014
appointments 1013
Den@@ 1012
Place 1012
fin@@ 1012
progressive 1012
stomach 1012
Kashmir 1011
Night 1011
expense 1011
ham@@ 1011
lodged 1011
seemingly 1011
Austin 1010
Cro@@ 1010
ei@@ 1010
pressed 1010
tape 1010
Heather 1009
acknowledge 1009
acy 1009
compulsory 1009
extremists 1009
shouted 1009
versions 1009
Fury 1008
Ter@@ 1008
employer 1008
lad 1008
Colombian 1007
earliest 1007
ears 1007
flexible 1007
mewn 1007
uc@@ 1007
undoubtedly 1007
Undisclosed 1006
cafe 1006
costing 1006
excitement 1006
screens 1006
scrum-half 1006
1974 1005
Cap@@ 1005
Nothing 1005
Youth 1005
guest 1005
listened 1005
stealing 1005
sydd 1005
Bronze 1004
Holland 1004
bodily 1004
gym 1004
helicopters 1004
infections 1004
presents 1004
shortlist 1004
Connacht 1003
Warnock 1003
West@@ 1003
iPlayer 1003
win@@ 1003
Award 1002
Burgess 1002
Check 1002
Tar@@ 1002
ises 1002
proceed 1002
Campaigners 1001
Chambers 1001
Curtis 1001
Data 1001
Emily 1001
Pistorius 1001
abuses 1001
manufacturer 1001
tide 1001
unlawful 1001
allocated 1000
bet 1000
conclusions 1000
j 1000
salaries 1000
Farah 999
Powys 999
grades 999
placing 999
Fermanagh 998
Nature 998
ow 998
worthy 998
Bahrain 997
Banks 997
Electoral 997
completing 997
iti@@ 997
organ 997
34-year-old 996
Dale 996
ched 996
contracted 996
creditors 996
participate 996
Bolt 995
Bruno 995
Denis 995
Der@@ 995
Figures 995
McKay 995
declaration 995
enthusiasm 995
Gil@@ 994
ignore 994
kid 994
negotiated 994
1981 993
Paddy 993
confirmation 993
dominate 993
far@@ 993
graduate 993
toxic 993
weakness 993
Blake 992
Bul@@ 992
Ga@@ 992
compare 992
database 992
everyday 992
fame 992
farmer 992
Il@@ 991
attitudes 991
by-election 991
runners-up 991
spacecraft 991
At@@ 990
CIA 990
Tim@@ 990
conversion 990
transactions 990
volley 990
Comey 989
Slovenia 989
rehabilitation 989
sole 989
6-@@ 988
Against 988
Railway 988
by-@@ 988
premium 988
yl@@ 988
Fellow 987
Knight 987
Whit@@ 987
designer 987
heavyweight 987
horrible 987
thorough 987
Vegas 986
counter-@@ 986
ret@@ 986
yen 986
Glen@@ 985
alism 985
ce 985
foreigners 985
raced 985
smartphones 985
bearing 984
de-@@ 984
dies 984
speaks 984
unpaid 984
zi 984
Boyle 983
History 983
US@@ 983
billionaire 983
cyclists 983
del@@ 983
iPhone 983
origin 983
Glen 982
Watkins 982
ality 982
assessments 982
lets 982
long-@@ 982
motor 982
Communities 981
MEP 981
internationally 981
relate 981
scope 981
threshold 981
treaty 981
Spa 980
Still 980
investor 980
ours 980
saddened 980
Attorney 979
BC 979
Cas@@ 979
Please 979
acute 979
ards 979
boyfriend 979
dancing 979
fa 979
overwhelmed 979
Paulo 978
bles 978
credibility 978
disadvantaged 978
disclosed 978
gates 978
implementation 978
left-back 978
lesson 978
150,000 977
Golf 977
bases 977
cautious 977
classified 977
ial 977
stamp 977
Foxes 976
Po@@ 976
Saunders 976
Unlike 976
all-rounder 976
blocking 976
conflicts 976
musician 976
terminal 976
wh@@ 976
wrapped 976
adequate 975
advocate 975
agricultural 975
podium 975
possessing 975
tip 975
25m 974
Castro 974
Complaints 974
Cristiano 974
Full 974
Sue 974
consequence 974
97 973
Byrne 973
Sin@@ 973
adi@@ 973
fulfil 973
jurors 972
magistrates 972
spots 972
storms 972
Bir@@ 971
Han@@ 971
Ho@@ 971
Order 971
Though 971
all-time 971
bacteria 970
converts 970
justified 970
medicines 970
run-up 970
sections 969
uncomfortable 969
Jr 968
arena 968
boot 968
testimony 968
travellers 968
9,@@ 967
Alun 967
Disney 967
Fr@@ 967
Hogg 967
Hope 967
Rhodes 967
Sab@@ 967
ame 967
assisting 967
awaiting 967
globe 967
screaming 967
set-up 967
spotlight 967
threaten 967
2022 966
40m 966
carers 966
clinic 966
equalised 966
21-@@ 965
Malaysian 965
cats 965
condolences 965
deflected 965
starred 965
urgently 965
48@@ 964
definition 964
flanker 964
hunger 964
uprising 964
wick 964
33-year-old 963
mm 963
prince 963
Selby 962
donors 962
sion 962
solidarity 962
Caribbean 961
Sub@@ 961
equipped 961
excuse 961
flames 961
grammar 961
photographer 961
Flanagan 960
Green@@ 960
Lothian 960
ban@@ 960
bold 960
parked 960
super 960
8,@@ 959
Hazard 959
RNLI 959
med 959
palace 959
precise 959
35@@ 958
BMW 958
admission 958
attracting 958
coastguard 958
divide 958
erupted 958
1972 957
Abdul 957
Mus@@ 957
beneath 957
counted 957
ose 957
recalls 957
sophisticated 957
Northamptonshire 956
Pa@@ 956
cas@@ 956
constituencies 956
eased 956
fy 956
part-time 956
tro@@ 956
350 955
Authorities 955
Cuban 955
Lloyds 955
exists 955
hardest 955
mystery 955
naturally 955
sol@@ 955
7-5 954
Isles 954
Lambert 954
Players 954
lan 954
leagues 954
recruited 954
é 954
Ex-@@ 953
and-@@ 953
comfortably 953
hung 953
sley 953
undertaken 953
7-@@ 952
AC@@ 952
Ronnie 952
capability 952
dreams 952
hired 952
relaxed 952
Cos@@ 951
Gibson 951
IOC 951
Patel 951
miners 951
pleasure 951
tracking 951
.com 950
Cups 950
PGA 950
Ph@@ 950
Political 950
US-@@ 950
complain 950
frequent 950
fuelled 950
motivation 950
regeneration 950
stem 950
taxpayer 950
ure 950
wherever 950
Archbishop 949
sentiment 949
1967 948
Ajax 948
disrupted 948
dy@@ 948
ening 948
feeding 948
integration 948
opinions 948
progressed 948
Catherine 947
Convention 947
Sen@@ 947
approaching 947
contenders 947
nationwide 947
our@@ 947
sive 947
Guernsey 946
Kerr 946
critic 946
readers 946
Snowden 945
ageing 945
communicate 945
insist 945
patterns 945
policeman 945
Con 944
Germans 944
Have 944
No@@ 944
Por@@ 944
Sher@@ 944
UAE 944
View 944
burial 944
hang 944
trusted 944
Chase 943
Look 943
On@@ 943
roots 943
0.5 942
101 942
demonstrators 942
shoppers 942
whereas 942
Richie 941
declare 941
ech 941
kidnapped 941
orbit 941
siege 941
tricky 941
unsupported 941
Burnham 940
advise 940
sums 940
calendar 939
distributed 939
importantly 939
partially 939
slight 939
steal 939
Cathedral 938
Parliamentary 938
SA 938
Wada 938
agreeing 938
clever 938
ement 938
es-@@ 938
prevention 938
viewing 938
Southport 937
Studies 937
embarrassing 937
emotions 937
hashtag 937
lat@@ 937
le-@@ 937
universal 937
Strachan 936
carriageway 936
ram 936
Ayrshire 935
Bromley 935
Halifax 935
Should 935
ab 935
chi 935
legislative 935
proving 935
sends 935
Sharp 934
Tehran 934
Wiggins 934
adapt 934
admissions 934
detective 934
horror 934
long-running 934
ro 934
robots 934
sch@@ 934
transformed 934
Alistair 933
Hunter 933
Pensions 933
Super@@ 933
cable 933
corrupt 933
form@@ 933
thrilling 933
Sw@@ 932
viral 932
Daly 931
Gardens 931
Jenny 931
McGinn 931
aff@@ 931
alisation 931
ened 931
ians 931
pursuing 931
reveals 931
violations 931
Hay@@ 930
calculated 930
concentration 930
crossbar 930
discover 930
honours 930
jumping 930
unnamed 930
Martinez 929
Shropshire 929
compound 929
resilience 929
scan 929
Drive 928
ich 928
inner 928
recognises 928
ue 928
Barca 927
Gerrard 927
Prosecutor 927
SP@@ 927
Ul@@ 927
Virginia 927
insurgency 927
iting 927
mel@@ 927
nightmare 927
traders 927
Ap@@ 926
Livingston 926
cross-@@ 926
designated 926
footballers 926
Camp 925
Silver 925
bids 925
clause 925
meaningful 925
moon 925
paramedics 925
tablets 925
Berkshire 924
Bin 924
Everybody 924
Ibrox 924
Lottery 924
Orange 924
emphasis 924
ette 924
servants 924
structural 924
uniform 924
Campaign 923
annually 923
Baghdad 922
Wor@@ 922
north-west 922
slowing 922
tar@@ 922
upheld 922
ute 922
14.@@ 921
Intelligence 921
Wakefield 921
fortunes 921
sadly 921
tal@@ 921
Macclesfield 920
ck 920
contractors 920
mat@@ 920
Programme 919
congestion 919
fortune 919
immense 919
Fl@@ 918
Mountain 918
Paralympics 918
clashed 918
conventional 918
jacket 918
pan@@ 918
tobacco 918
unconscious 918
Llan@@ 917
altogether 917
approaches 917
burglary 917
burned 917
deliveries 917
exploded 917
recommendation 917
sovereignty 917
Harvey 916
associate 916
donor 916
en-@@ 916
ish@@ 916
thoroughly 916
advert 915
barred 915
ey@@ 915
governors 915
gre@@ 915
knockout 915
mechanism 915
mounted 915
organising 915
surviving 915
yng 915
Area 914
lung 914
musicians 914
permitted 914
Climate 913
Pogba 913
Sophie 913
ez@@ 913
ili@@ 913
lion 913
rightly 913
stoppage 913
Observatory 912
RSPCA 912
Volkswagen 912
accounting 912
ata 912
broadly 912
cargo 912
een 912
lined 912
po@@ 912
speakers 912
Australians 911
Oil 911
Pietersen 911
breakfast 911
signatures 911
silent 911
yr@@ 911
Athens 910
Hussain 910
McLaughlin 910
celebrities 910
organise 910
ped 910
tenants 910
1975 909
Aberdeenshire 909
Pool 909
maternity 909
wasted 909
wellbeing 909
commentator 908
competed 908
magnificent 908
punched 908
15.@@ 907
Hen@@ 907
ig 907
shootings 907
harmful 906
hooker 906
obligations 906
opposing 906
pri@@ 906
residence 906
tense 906
Di 905
PKK 905
cent 905
costly 905
laugh 905
ously 905
retiring 905
Doctors 904
Garden 904
Houston 904
ally-@@ 904
aya 904
categories 904
hy@@ 904
lawsuit 904
lers 904
tly 904
CQC 903
Ly@@ 903
Under-21 903
abducted 903
nose 903
thin 903
unaware 903
Kosovo 902
Responding 902
bullet 902
crops 902
manages 902
perception 902
poorly 902
richest 902
Danish 901
Ronald 901
briefing 901
handing 901
hungry 901
nerve 901
raping 901
sson 901
Braintree 900
Jean 900
Radio1Newsbeat 900
Boyd 899
Ren@@ 899
adjourned 899
notably 899
pe 899
reopen 899
ace 898
beliefs 898
flexibility 898
Trident 897
insight 897
runners 897
Jessica 896
Lea@@ 896
Listen 896
Ritchie 896
Uruguay 896
ammunition 896
outskirts 896
ups 896
All@@ 895
Monaghan 895
Ranieri 895
anda 895
Bangor 894
Shell 894
albums 894
anti-doping 894
checking 894
creates 894
loves 894
rewarded 894
spectators 894
35-year-old 893
Cork 893
Forces 893
electrical 893
ranging 893
thick 893
trophies 893
Toronto 892
bloc 892
na@@ 892
nine-@@ 892
privately 892
restoration 892
Aldershot 891
Arsene 891
Redbridge 891
assume 891
dominance 891
grab 891
ji 891
misleading 891
Stefan 890
Williamson 890
compiled 890
evil 890
mor@@ 890
washed 890
we@@ 890
Christine 889
albeit 889
suspend 889
12,000 888
Fair@@ 888
inevitably 888
les@@ 888
movies 888
south-west 888
140 887
Credit 887
Lukaku 887
Money 887
Moors 887
Tube 887
kinds 887
load 887
patience 887
pos@@ 887
relieved 887
90@@ 886
Gregory 886
Oh 886
ani@@ 886
appoint 886
buyer 886
spinner 886
Storm 885
alised 885
pledges 885
13-@@ 884
bounce 884
ee@@ 884
gambling 884
naval 884
primarily 884
Grade 883
Kabul 883
Malta 883
Pur@@ 883
circle 883
enhance 883
licences 883
metre 883
ry@@ 883
Hassan 882
Looking 882
Mi@@ 882
Robson 882
Wood@@ 882
pin 882
recruiting 882
DJ 881
Gerard 881
exclusive 881
halfway 881
labelled 881
precious 881
seeds 881
skull 881
Field 880
Marseille 880
Porter 880
bits 880
fying 880
laundering 880
ny 880
switching 880
2013-14 879
Abbey 879
Change 879
Hospitals 879
Nolan 879
ently 879
pot 879
publicity 879
whoever 879
IP@@ 878
Ken@@ 878
Moeen 878
ail@@ 878
remainder 878
restart 878
tham 878
boom 877
chaired 877
VAT 876
topic 876
Boeing 875
anxious 875
hacked 875
hatred 875
ils 875
long-standing 875
mandatory 875
Newton 874
Support 874
disabilities 874
divorce 874
editorial 874
eng@@ 874
giants 874
justify 874
respects 874
soul 874
tackled 874
Claudio 873
Economy 873
Pablo 873
Students 873
ao 873
gaps 873
inquests 873
oun@@ 873
seeks 873
spy 873
surplus 873
lifeboat 872
portfolio 872
sized 872
Mackay 871
Te@@ 871
availability 871
graduates 871
shipping 871
toilets 871
BP 870
Housing 870
Irishman 870
Jesus 870
LGBT 870
Survey 870
Trevor 870
ene 870
imprisonment 870
Somali 869
insisting 869
preparations 869
profound 869
revelations 869
Susan 868
ath@@ 868
brown 868
forming 868
ious 868
joked 868
Africans 867
Stamford 867
consulted 867
convincing 867
label 867
tumour 867
undercover 867
1976 866
Infirmary 866
Keane 866
Lowe 866
chapter 866
riot 866
Brotherhood 865
Things 865
ethics 865
initiatives 865
insufficient 865
massacre 865
wars 865
wished 865
Abdullah 864
Donaldson 864
McInnes 864
Ollie 864
aggregate 864
ama 864
assumed 864
shall 864
Butler 863
Dow 863
Ka@@ 863
alise 863
muscle 863
naked 863
posing 863
q 863
tanks 863
Welshman 862
hack 862
notorious 862
reads 862
Anglesey 861
Exchange 861
Wes 861
accountable 861
coloured 861
disposal 861
meantime 861
strip 861
uk@@ 861
voiced 861
year-olds 861
Duchess 860
Point 860
fractured 860
influenced 860
30s 859
Swans 859
cake 859
dirty 859
isolation 859
lawmakers 859
meal 859
substances 859
9bn 858
AS 858
Farm 858
Giants 858
hostile 858
ison 858
straightforward 858
Liberia 857
Mirror 857
Perez 857
ack 857
displays 857
dock 857
genocide 857
hammer 857
hearings 857
independently 857
ony 857
recycling 857
unfairly 857
Thank 856
far-right 856
mag@@ 856
pocket 856
Clearly 855
Heath 855
Janet 855
counsel 855
phenomenon 855
Linfield 854
Luxembourg 854
Rom@@ 854
Small 854
Week 854
anymore 854
kes 854
ministerial 854
refusal 854
Bryan 853
Lynch 853
Officer 853
alerts 853
avoiding 853
bulk 853
minimise 853
surgeon 853
Dr@@ 852
Enterprise 852
MacDonald 852
We@@ 852
adverts 852
bombers 852
mins 852
overhaul 852
shale 852
Airways 851
Mount 851
Shar@@ 851
app@@ 851
ello 851
hor@@ 851
integrated 851
supermarkets 851
Novak 850
dd 850
explaining 850
milestone 850
militia 850
prestigious 850
reckless 850
shaped 850
the@@ 850
McC@@ 849
Pierre 849
ess@@ 849
har 849
pays 849
runner 849
800m 848
Dol@@ 848
accounted 848
catastrophic 848
churches 848
fre@@ 848
identifying 848
ments 848
Coroner 847
Gri@@ 847
Lithuania 847
Pi@@ 847
assurances 847
cousin 847
workplace 847
Memorial 846
Stade 846
countryside 846
fireworks 846
goalless 846
gs 846
sel@@ 846
smell 846
unsafe 846
400,000 845
Kon@@ 845
Moussa 845
To@@ 845
fel 845
merely 845
Online 844
Pos@@ 844
bout 844
deployment 844
slowed 844
Orkney 843
Owens 843
Pat@@ 843
Questions 843
Rwanda 843
Tom@@ 843
Windsor 843
bon@@ 843
capabilities 843
jockey 843
regain 843
Ko@@ 842
Lang@@ 842
Mir@@ 842
Using 842
eve 842
Bell@@ 841
Conference 841
Line 841
Mata 841
Socialist 841
atic 841
breath 841
certainty 841
cleaning 841
Investment 840
Stars 840
Yates 840
compelling 840
credited 840
reflection 840
squ@@ 840
2021 839
cancel 839
cry 839
distinctive 839
occupation 839
oni 839
Detectives 838
Land@@ 838
Official 838
Olivier 838
Reynolds 838
Rodriguez 838
Shah 838
collided 838
flu 838
ster@@ 838
tasks 838
Avon 837
Carmarthenshire 837
Forbes 837
Gre@@ 837
Milton 837
Whyte 837
th-@@ 837
Chairman 836
Hindu 836
Lt 836
Very 836
ddi@@ 836
lake 836
loads 836
violation 836
6ft 835
optimism 835
recommend 835
Denbighshire 834
Jennifer 834
Mayweather 834
Player 834
Santa 834
Tomas 834
conclude 834
dre@@ 834
warm-up 834
&apos;i 833
MEPs 833
belong 833
ged 833
plain 833
tag 833
twin 833
1,200 832
McManus 832
bing 832
contractor 832
factories 832
mobility 832
revealing 832
Alberto 831
Ibrahim 831
Kal@@ 831
Sainsbury 831
breaching 831
confused 831
pipe 831
sheep 831
Austrian 830
Carrick 830
Monetary 830
Vince 830
chased 830
ett 830
ga 830
identification 830
jewellery 830
jo 830
suburb 830
welcoming 830
,000-@@ 829
Stevenson 829
republican 829
tle 829
BHS 828
Beach 828
Berry 828
Cairns 828
Clare 828
Richardson 828
Sally 828
Slade 828
ashes 828
ass@@ 828
confidential 828
conscious 828
enemies 828
loyalty 828
magic 828
pets 828
GCSE 827
blew 827
mates 827
ok 827
runner-up 827
Rees 826
drowned 826
employ 826
excluded 826
hal@@ 826
ner@@ 826
releasing 826
restructuring 826
sailing 826
sea@@ 826
senator 826
stays 826
ular 826
Ahead 825
Gatwick 825
Southgate 825
Venezuelan 825
accountability 825
elli 825
struggles 825
Dozens 824
God@@ 824
Trudeau 824
gear 824
inclusion 824
smuggling 824
terrific 824
vocal 824
Av@@ 823
Queensland 823
bang 823
bears 823
enhanced 823
month-old 823
ousted 823
ths 823
Dem@@ 822
Savile 822
believing 822
completion 822
eli@@ 822
episodes 822
exploited 822
indicates 822
land@@ 822
ls 822
reign 822
slide 822
tic@@ 822
yw 822
Arnold 821
Canterbury 821
Doherty 821
Quinn 821
See 821
Shi@@ 821
chronic 821
coins 821
designs 821
lacking 821
prosperity 821
ree 821
17.@@ 820
1978 820
36-year-old 820
HM 820
Jam@@ 820
RT 820
Tur@@ 820
considerably 820
liquid 820
CA@@ 819
Fe@@ 819
tracked 819
violated 819
Investigation 818
Organisers 818
Philippe 818
Rec@@ 818
Burke 817
Ev@@ 817
Victorian 817
bn 817
description 817
rivers 817
sectarian 817
5km 816
Elliot 816
Fans 816
HMP 816
anc@@ 816
co-founder 816
frontline 816
surveys 816
Alzheimer 815
FCA 815
Stones 815
busiest 815
commentators 815
diverted 815
instructions 815
keys 815
passage 815
re-election 815
tive 815
Anti-Doping 814
Neville 814
Peru 814
diplomats 814
rebel-held 814
1971 813
catching 813
counter-terrorism 813
echoed 813
exchanges 813
exploration 813
swift 813
Corporation 812
Kel@@ 812
Med@@ 812
Pep 812
birdies 812
da@@ 812
exception 812
explosions 812
inf@@ 812
narrative 812
ports 812
rallies 812
chiefs 811
thus 811
Control 810
acid 810
contacts 810
fouled 810
sadness 810
transplant 810
tyre 810
wire 810
Raikkonen 809
Sturridge 809
angered 809
authorised 809
blaming 809
first-@@ 809
long-range 809
memorable 809
safeguard 809
1.2 808
Churchill 808
Clive 808
equity 808
ll@@ 808
loc@@ 808
oxygen 808
slim 808
Previous 807
acquitted 807
applicants 807
desert 807
inspections 807
militias 807
sheer 807
Election 806
Estate 806
Library 806
Tanzania 806
co-operate 806
sculpture 806
Helens 805
Morsi 805
Shetland 805
Verstappen 805
administrative 805
beef 805
burns 805
claimants 805
crop 805
fares 805
helpful 805
suits 805
transformation 805
Assange 804
Ty@@ 804
Victory 804
ali 804
beaches 804
lows 804
predictions 804
strengthened 804
supplier 804
Brooks 803
Donnelly 803
EA 803
FÃ 803
Together 803
back-to-back 803
chocolate 803
elle 803
envoy 803
fied 803
panels 803
permit 803
pricing 803
prosecute 803
80,000 802
endured 802
mi 802
raided 802
script 802
Windows 801
boosting 801
finishes 801
fore@@ 801
managerial 801
paintings 801
Gas 800
prosecutions 800
Armed 799
Boys 799
Holt 799
flawed 799
lucrative 799
ought 799
stupid 799
surveyed 799
Tyler 798
advances 798
aeth 798
punch 798
stating 798
10-year 797
Bow@@ 797
highs 797
lighting 797
slot 797
trends 797
Dan@@ 796
Hussein 796
Pin@@ 796
ag 796
autonomy 796
castle 796
printed 796
unchanged 796
Bak@@ 795
Farron 795
Fiji 795
Jerome 795
Swinney 795
deadlock 795
intelligent 795
lb 795
whenever 795
Rennie 794
Villiers 794
Walter 794
critically 794
down@@ 794
famously 794
interference 794
nonsense 794
permanently 794
Buhari 793
Grace 793
Indonesian 793
MS 793
clearing 793
dynamic 793
eman 793
establishing 793
nearest 793
peninsula 793
sponsors 793
Alli 792
Extra 792
Fiona 792
Gardner 792
XI 792
bridges 792
neutral 792
patrols 792
Barbara 791
Devils 791
Kirsty 791
classroom 791
freely 791
ida 791
ric@@ 791
undergo 791
wise 791
Alice 790
BA 790
boundary 790
ished 790
safeguarding 790
Hawkins 789
Howe 789
Off 789
Retail 789
TfL 789
denying 789
nell 789
ura 789
Autumn 788
Cahill 788
Grenfell 788
Indians 788
Page 788
consultancy 788
emotion 788
lethal 788
shareholder 788
whales 788
19-@@ 787
PA 787
Tol@@ 787
drilling 787
ea 787
eless 787
second-placed 787
setback 787
tributes 787
undergoing 787
Wh@@ 786
fragile 786
friendship 786
lorries 786
tin@@ 786
AS@@ 785
Pentagon 785
Professional 785
acre 785
bel@@ 785
exploring 785
marry 785
swiftly 785
16.@@ 784
60m 784
Barker 784
Benitez 784
Garry 784
Rad@@ 784
Ricciardo 784
Serie 784
consultants 784
item 784
navy 784
partnerships 784
pursued 784
14-year-old 783
1977 783
70,000 783
Ir@@ 783
adventure 783
attributed 783
federation 783
fingers 783
hostage 783
presidents 783
tablet 783
ye 783
Abe 782
Carson 782
borne 782
economists 782
mentality 782
sterling 782
Revenue 781
Tam@@ 781
amendments 781
compatriot 781
compromised 781
confronted 781
eventual 781
laboratory 781
m-@@ 781
ock 781
-up 780
1973 780
Cat@@ 780
Kur@@ 780
Rem@@ 780
dar@@ 780
replay 780
tap 780
Ky@@ 779
Tennis 779
Yahoo 779
adapted 779
greeted 779
redevelopment 779
self 779
Brent 778
bees 778
guarantees 778
landlords 778
occasionally 778
urgency 778
Aberystwyth 777
Does 777
Lindsay 777
electorate 777
mud 777
north-eastern 777
McCann 776
allowance 776
autism 776
ez 776
sacking 776
snap 776
stunned 776
valid 776
veto 776
weighed 776
wrongly 776
zer 776
Conwy 775
Netflix 775
Yard 775
districts 775
persistent 775
tactical 775
Conway 774
cathedral 774
liver 774
presenting 774
ron 774
settlements 774
Buckingham 773
Rather 773
arrivals 773
audio 773
cliff 773
ole 773
ref@@ 773
Dam@@ 772
Ok@@ 772
influx 772
tables 772
Aber@@ 771
Spring 771
Troubles 771
instruments 771
throat 771
turnover 771
Dhabi 770
Gallery 770
NFL 770
benefited 770
constructive 770
gor@@ 770
margins 770
negotiation 770
nursery 770
sted 770
,@@ 769
Eagles 769
Number 769
Salman 769
mounting 769
Book 768
Brett 768
Bundesliga 768
Cash 768
Ku@@ 768
Long@@ 768
Race 768
contrary 768
download 768
pink 768
sur@@ 768
Dec@@ 767
Martyn 767
Parkinson 767
RC 767
Rhondda 767
Rowe 767
Whitehall 767
cared 767
courtesy 767
cro@@ 767
routinely 767
satellites 767
tale 767
work@@ 767
1st 766
ODI 766
embrace 766
foster 766
gaming 766
heroes 766
large-scale 766
Cla@@ 765
Dembele 765
aggression 765
applies 765
artistic 765
demolished 765
eliminated 765
licensing 765
plate 765
purely 765
reserved 765
180 764
Jeffrey 764
Kenneth 764
Trent 764
ake 764
boycott 764
contender 764
easing 764
vet 764
youngster 764
Clarkson 763
Dixon 763
Never 763
cardiac 763
debated 763
l-@@ 763
pur@@ 763
sponsorship 763
televised 763
wn 763
0m 762
Lar@@ 762
academics 762
acquisition 762
borrow 762
criticising 762
lobby 762
specialists 762
12m 761
but@@ 761
heating 761
notable 761
sank 761
slavery 761
weekends 761
24-hour 760
Previously 760
bikes 760
chains 760
curb 760
levy 760
recruits 760
stark 760
Constabulary 759
Had@@ 759
Hampden 759
Leanne 759
Ohio 759
Toulon 759
Tw@@ 759
aces 759
brilliantly 759
contemporary 759
enquiries 759
prosecuting 759
tours 759
two-time 759
1970 758
Early 758
imminent 758
ott 758
qualities 758
rem@@ 758
shake 758
shell 758
HS2 757
Interior 757
Laurent 757
Parents 757
nes 757
ther 757
Karl 756
Lau@@ 756
Miami 756
Vol@@ 756
Walters 756
boarding 756
detainees 756
existed 756
paramilitary 756
particles 756
turmoil 756
Azerbaijan 755
Sil@@ 755
Vienna 755
af 755
gesture 755
minorities 755
re-elected 755
washing 755
calf 754
dri@@ 754
motive 754
oli 754
sticking 754
tee 754
wooden 754
Dutchman 753
Es@@ 753
Hun@@ 753
Trans@@ 753
ben@@ 753
enabling 753
protesting 753
Bitcoin 752
Had 752
min 752
near-@@ 752
tissue 752
Aguero 751
Audit 751
Ceredigion 751
Leonardo 751
harbour 751
imposing 751
lenders 751
performers 751
riots 751
tent 751
Forum 750
Marathon 750
Sharif 750
UK-based 750
ch-@@ 750
endangered 750
forum 750
gig 750
hom@@ 750
lam@@ 750
Economics 749
Panama 749
Spieth 749
counties 749
por@@ 749
sweeping 749
Bernie 748
Fabio 748
Juncker 748
Kir@@ 748
Prior 748
articles 748
cruel 748
disastrous 748
fascinating 748
ids 748
mil@@ 748
nationally 748
signature 748
solely 748
sweet 748
willingness 748
Woodward 747
alleges 747
confrontation 747
nod 747
reunited 747
ter-@@ 747
Harper 746
Nicholson 746
incentive 746
no-@@ 746
philosophy 746
tering 746
Aviation 745
Ja@@ 745
Kris 745
RE@@ 745
Ted 745
Wilkinson 745
abandon 745
lab 745
pen 745
quotes 745
restrict 745
sn@@ 745
truce 745
1.5m 744
Come 744
Focus 744
Gro@@ 744
Koeman 744
Op@@ 744
cross-party 744
esti@@ 744
facial 744
fold 744
maiden 744
organs 744
precisely 744
yuan 744
Aid 743
Giles 743
Niger 743
batteries 743
coached 743
invitation 743
sheets 743
Atlético 742
Barnett 742
Bureau 742
Napoli 742
ast 742
bunch 742
demolition 742
entries 742
persuaded 742
quest 742
sensors 742
din@@ 741
directions 741
inger 741
ites 741
oy@@ 741
partial 741
reversed 741
root 741
va 741
Commerce 740
Johannesburg 740
consolation 740
ills 740
trans@@ 740
Bridgend 739
Cunningham 739
Not@@ 739
Schmidt 739
ati 739
clearer 739
commonly 739
convoy 739
dissident 739
speeches 739
underneath 739
whatsoever 739
80s 738
Fallon 738
Wi@@ 738
absent 738
compliance 738
ordeal 738
tail 738
tortured 738
Bun@@ 737
CO2 737
Digital 737
bizarre 737
constructed 737
hostages 737
nerves 737
Angel 736
CBI 736
Gear 736
antibiotics 736
ater 736
battled 736
grief 736
quake 736
Broad@@ 735
Cer@@ 735
Cold 735
Low 735
Raheem 735
Sochi 735
assessing 735
bravery 735
crashing 735
donate 735
fare 735
rev@@ 735
stri@@ 735
wr@@ 735
4-2 734
Kensington 734
Lebanese 734
charter 734
disturbing 734
inclusive 734
ke@@ 734
rear 734
wyn 734
OECD 733
Ry@@ 733
elephants 733
exploit 733
founding 733
mount 733
obligation 733
show@@ 733
undermined 733
,0@@ 732
Boro 732
day-to-day 732
el-@@ 732
purchased 732
Could 731
Fort 731
Inquiry 731
Military 731
analyses 731
decides 731
fundamentally 731
heated 731
resource 731
visual 731
-off 730
25-@@ 730
Lopez 730
consulting 730
reductions 730
smooth 730
ula 730
Liu 729
bite 729
considers 729
counting 729
mad 729
st-@@ 729
wan 729
19.@@ 728
Ballymena 728
Pochettino 728
beside 728
bug 728
distant 728
habitat 728
purchases 728
tolerance 728
Anti-@@ 727
Ecuador 727
Jackie 727
Sexton 727
adi 727
broadcasters 727
fac@@ 727
ink 727
offending 727
vers 727
widow 727
Again 726
ID 726
Laidlaw 726
Lov@@ 726
McGrath 726
Raqqa 726
bun@@ 726
complications 726
evident 726
functions 726
sters 726
youths 726
Geoffrey 725
Wight 725
accommodate 725
bol@@ 725
dated 725
drought 725
intentions 725
kicks 725
kin@@ 725
processed 725
shorter 725
syndrome 725
-led 724
Gra@@ 724
Hungarian 724
Kumar 724
Nairobi 724
Pete 724
Vauxhall 724
fiction 724
full-@@ 724
oon 724
remembers 724
spectrum 724
whale 724
AI 723
Crusaders 723
Isaac 723
Joey 723
accuracy 723
bribes 723
default 723
generating 723
provincial 723
Biggar 722
Cavendish 722
Class 722
Fair 722
Klitschko 722
Strictly 722
stint 722
Higher 721
Kurds 721
Zoo 721
bre@@ 721
glory 721
loaded 721
outgoing 721
reiterated 721
sceptical 721
Across 720
Nag@@ 720
aka 720
firearm 720
import 720
sun@@ 720
triggering 720
voter 720
Fernandez 719
Marsh 719
appetite 719
dly 719
experiments 719
pure 719
scrum 719
Adele 718
IS@@ 718
Pet@@ 718
System 718
bul@@ 718
cigarettes 718
enforced 718
rank 718
Empire 717
Gabon 717
Lawyers 717
Serena 717
alternatives 717
boots 717
tips 717
basketball 716
complaining 716
correctly 716
decision-making 716
foundations 716
ila 716
oversight 716
posters 716
scare 716
anti-government 715
batsmen 715
capitalise 715
concussion 715
deported 715
mp@@ 715
psychiatric 715
Select 714
Watt 714
belonged 714
don@@ 714
dro@@ 714
li 714
libraries 714
regards 714
subsidy 714
val@@ 714
24-@@ 713
Caledonian 713
Ultimately 713
aerial 713
band@@ 713
collections 713
components 713
corners 713
pockets 713
profitable 713
rice 713
shy 713
ture 713
zz@@ 713
Dallas 712
len@@ 712
wrth 712
Coastguard 711
Dur@@ 711
Fleming 711
Pulis 711
accepts 711
cer@@ 711
dive 711
imported 711
wings 711
RS 710
charts 710
finalists 710
toward 710
Fo@@ 709
Marvin 709
associations 709
att 709
crowned 709
ddim 709
drives 709
prolonged 709
spends 709
Bedfordshire 708
GM 708
Girls 708
Li 708
Strauss 708
advisory 708
consult 708
favoured 708
inspiring 708
ome 708
reigning 708
renowned 708
shoulders 708
trademark 708
3rd 707
Father 707
Jar@@ 707
Kha@@ 707
Pte 707
Representatives 707
The@@ 707
accordance 707
cat@@ 707
declining 707
ologists 707
ton@@ 707
triple 707
Donetsk 706
magnitude 706
predominantly 706
ym 706
HMS 705
Westwood 705
autonomous 705
booking 705
bread 705
consistency 705
creator 705
divisive 705
tenure 705
ANC 704
Correspondents 704
Marie 704
audit 704
lining 704
shaken 704
sions 704
then-@@ 704
17-@@ 703
Bird 703
Bulgaria 703
Geoff 703
Pellegrini 703
Will@@ 703
conceding 703
criticise 703
dairy 703
gael 703
progressing 703
1964 702
5-1 702
Short 702
Shortly 702
delegation 702
gardens 702
illa 702
maintains 702
neglect 702
oversee 702
referees 702
substantially 702
sy@@ 702
5-0 701
Andreas 701
Clough 701
Immigration 701
Irvine 701
Toyota 701
Wa@@ 701
Wyn 701
breed 701
cleric 701
floating 701
turnaround 701
woke 701
50s 700
Bea@@ 700
Environmental 700
Yn 700
analyse 700
asleep 700
condemn 700
consortium 700
demonstrates 700
deter 700
meddai 700
pa 700
prohibited 700
successes 700
tweeting 700
0.3 699
Ball@@ 699
McGuigan 699
Recent 699
Witnesses 699
amounted 699
edd 699
outdoor 699
Declan 698
Enrique 698
Investigators 698
Sm@@ 698
TB 698
ard@@ 698
deb@@ 698
tune 698
ung 698
Barkley 697
Be 697
Nama 697
Reverend 697
Theo 697
anthem 697
bn. 697
ency 697
overwhelmingly 697
risky 697
shaking 697
Border 696
North@@ 696
PSG 696
Toure 696
bleeding 696
caretaker 696
eley 696
fortnight 696
freestyle 696
instability 696
supplying 696
ved 696
Bab@@ 695
CNN 695
Coleraine 695
Frampton 695
Logan 695
archive 695
awa 695
backlash 695
cap@@ 695
frankly 695
pm 695
regulated 695
repay 695
touching 695
wy 695
Huw 694
Ran@@ 694
Toby 694
addiction 694
biological 694
destroying 694
injuring 694
Independence 693
cemetery 693
computing 693
judgment 693
ovic 693
wholly 693
-related 692
Moray 692
embarrassed 692
fairer 692
feat 692
ip@@ 692
quarterly 692
sworn 692
traced 692
2nd 691
Connolly 691
Jennings 691
coin 691
coma 691
ew 691
poet 691
regrets 691
Castleford 690
Gol@@ 690
Hitler 690
Holocaust 690
Jurgen 690
ades 690
copyright 690
expressing 690
keepers 690
mature 690
phenomenal 690
refers 690
satisfaction 690
seize 690
tram 690
Current 689
Guiseley 689
Houthis 689
Ny@@ 689
Out@@ 689
bath 689
inv@@ 689
knives 689
ll 689
sang 689
A-@@ 688
Floyd 688
Les 688
hefyd 688
laughing 688
sounded 688
strikers 688
Dy@@ 687
Giving 687
NSA 687
Nevertheless 687
Panorama 687
Solar 687
Webster 687
interpretation 687
much-@@ 687
planted 687
Ali@@ 686
Ankara 686
Coe 686
Freeman 686
Mid@@ 686
Quality 686
Seoul 686
VR 686
clinched 686
delivers 686
disagree 686
dumped 686
ed-@@ 686
fication 686
install 686
instant 686
kov 686
resilient 686
right-back 686
una 686
Leonard 685
artwork 685
ational 685
banner 685
chaotic 685
cruise 685
nan 685
opt 685
perpetrators 685
Bottas 684
CC@@ 684
Defending 684
Luiz 684
Ombudsman 684
Serb 684
Stage 684
enforce 684
fatally 684
hockey 684
journalism 684
mode 684
policemen 684
prey 684
stronghold 684
undertake 684
1,0@@ 683
Customs 683
Factor 683
McK@@ 683
Universal 683
acc@@ 683
aj 683
committees 683
low@@ 683
single-@@ 683
six-month 683
unanimous 683
1.3 682
Baxter 682
Bears 682
Horse 682
Tsipras 682
Wellington 682
brook 682
chairwoman 682
esh 682
forests 682
grievous 682
hun@@ 682
messaging 682
not@@ 682
1966 681
Nu@@ 681
Oval 681
Rashford 681
St-Germain 681
Zambia 681
deposit 681
eager 681
grand@@ 681
outright 681
ridge 681
snooker 681
traumatic 681
tre@@ 681
tur@@ 681
wondering 681
22-@@ 680
Cooke 680
Halfpenny 680
Sao 680
filling 680
literature 680
op 680
wr 680
Bos@@ 679
Burkina 679
Joint 679
Lisbon 679
browser 679
gro@@ 679
pubs 679
reaches 679
reminded 679
Buchanan 678
alter 678
attainment 678
effectiveness 678
gene 678
hurdles 678
passports 678
remind 678
stormed 678
swimmer 678
visas 678
Consumer 677
Islamists 677
allied 677
burnt 677
centre-right 677
strengthening 677
tan 677
70s 676
Galaxy 676
Reed 676
Sto@@ 676
clarify 676
comic 676
lan@@ 676
offset 676
rowing 676
und@@ 676
Ahmad 675
Firefighters 675
exile 675
habits 675
lottery 675
malware 675
midway 675
projected 675
toughest 675
treble 675
unite 675
BMA 674
Statement 674
Z 674
atory 674
cruelty 674
gun@@ 674
kidney 674
legendary 674
likelihood 674
out-of-@@ 674
soap 674
territorial 674
vin 674
DS 673
Girl 673
Marr 673
Peterhead 673
Sadiq 673
Working 673
accuses 673
ees 673
mixture 673
1.4 672
300m 672
Ban 672
Deila 672
Fred 672
WBA 672
adverse 672
elled 672
implementing 672
jo@@ 672
jointly 672
whereabouts 672
1945 671
6-0 671
Chapman 671
Future 671
Gl@@ 671
contents 671
curled 671
drag 671
frightened 671
horrendous 671
mid 671
preference 671
robbed 671
stro@@ 671
Crawford 670
Foley 670
ScotRail 670
certificate 670
disqualified 670
random 670
Councils 669
Faso 669
binding 669
disturbance 669
ecting 669
yan 669
Bosnia 668
Wade 668
accidental 668
accidentally 668
economically 668
ements 668
gifted 668
newly-@@ 668
plaque 668
pre-tax 668
symbolic 668
transitional 668
50th 667
che@@ 667
contaminated 667
crowded 667
expenditure 667
flagship 667
gyn@@ 667
hon@@ 667
marched 667
protested 667
Carey 666
Cotter 666
Jinping 666
Muir 666
S4C 666
Seamus 666
Video 666
abilities 666
ambulances 666
aro 666
button 666
clip 666
co-ordinated 666
housed 666
hur@@ 666
hynny 666
pensioners 666
rounded 666
ton-@@ 666
ultra-@@ 666
Atkinson 665
Glastonbury 665
RSPB 665
anne 665
cancers 665
column 665
deleted 665
queue 665
shortfall 665
two-day 665
ws 665
18.@@ 664
Alloa 664
Common 664
Medicine 664
Sharapova 664
Was 664
Zlatan 664
backdrop 664
colourful 664
creatures 664
fits 664
rebound 664
ripped 664
sts 664
vacant 664
Eoin 663
Tesla 663
Thanks 663
Trinity 663
allegiance 663
bloody 663
landslide 663
rap@@ 663
star@@ 663
Hom@@ 662
Hugo 662
Resources 662
ck@@ 662
historian 662
knocking 662
organiser 662
shaw 662
shirts 662
Arabic 661
Industrial 661
Rob@@ 661
Wang 661
first-time 661
micro@@ 661
oa 661
olo 661
Building 660
Movement 660
anti-corruption 660
define 660
disrupt 660
ev 660
installation 660
maritime 660
non-league 660
premature 660
privileged 660
staging 660
unemployed 660
1.6 659
1968 659
Ellie 659
Healy 659
ank@@ 659
disclose 659
exercises 659
pedestrians 659
portrait 659
Mauricio 658
WhatsApp 658
click 658
close-range 658
crosses 658
jokes 658
rows 658
Amsterdam 657
Boreham 657
Cummings 657
Details 657
Europeans 657
Natalie 657
Stanford 657
advisor 657
ances 657
documented 657
protective 657
reasonably 657
unionist 657
Gam@@ 656
Grayling 656
Internet 656
US-based 656
evacuation 656
highlighting 656
inaugural 656
irresponsible 656
sie 656
state-run 656
600,000 655
Broadway 655
concerts 655
desk 655
ela 655
holy 655
sustain 655
thieves 655
-year-old 654
Companies 654
Cy@@ 654
Gael 654
behave 654
correspondents 654
launches 654
mines 654
reconciliation 654
Edmund 653
Sy@@ 653
concede 653
wiped 653
workload 653
Browne 652
Daley 652
Play 652
bi 652
bra@@ 652
fours 652
instrument 652
turbines 652
0km 651
Along 651
BJP 651
Mol@@ 651
U21 651
Would 651
adoption 651
furious 651
kidnapping 651
leaks 651
lecturer 651
maps 651
unc@@ 651
Dev@@ 650
Imperial 650
Maritime 650
Trains 650
Tusk 650
alising 650
coffin 650
deploy 650
gli@@ 650
instructed 650
nationalists 650
toys 650
0.2 649
1.8 649
Cul@@ 649
Ecclestone 649
Iron 649
bling 649
flash 649
recordings 649
sponsor 649
toddler 649
160 648
Blast 648
Cleveland 648
Fe 648
Julia 648
Merthyr 648
inches 648
monetary 648
ous@@ 648
performer 648
pers 648
ple 648
ris@@ 648
warehouse 648
Bay@@ 647
Kazakhstan 647
Miles 647
Sutherland 647
acceptance 647
elect 647
entrepreneur 647
icon 647
judiciary 647
licensed 647
relied 647
tal 647
Bot@@ 646
Water@@ 646
anna 646
eri 646
expectancy 646
fire@@ 646
house@@ 646
massively 646
monitors 646
retaining 646
rubble 646
Din@@ 645
Isis 645
Nesbitt 645
PR 645
Rahman 645
centred 645
cheating 645
eable 645
lease 645
sued 645
37-year-old 644
Bed@@ 644
Hadi 644
Jong-un 644
Pictures 644
factions 644
hyn 644
ost 644
pon@@ 644
pro 644
pu@@ 644
read@@ 644
separately 644
three-day 644
Amber 643
Beatles 643
Hales 643
M4 643
Pas@@ 643
aired 643
az 643
chicken 643
constituents 643
flowing 643
foods 643
hardware 643
intellectual 643
laying 643
pat@@ 643
quietly 643
squeeze 643
traded 643
11,000 642
Asda 642
Gibraltar 642
Matty 642
Rural 642
Tamil 642
dedication 642
lo 642
my@@ 642
oms 642
passwords 642
preserved 642
resistant 642
rewards 642
Big@@ 641
Brennan 641
Freddie 641
Hammers 641
IBF 641
Nissan 641
Noble 641
airlifted 641
four-day 641
freezing 641
inherited 641
play@@ 641
rented 641
supervision 641
40s 640
Forfar 640
Jamaica 640
Liberation 640
Samoa 640
embarrassment 640
lightweight 640
physics 640
punish 640
sacrifice 640
smugglers 640
toy 640
Clwyd 639
Felipe 639
Index 639
Loch 639
Wage 639
hills 639
ik 639
lett 639
objectives 639
persons 639
premiere 639
trap 639
unanimously 639
2030 638
Moses 638
ca 638
eth@@ 638
imp@@ 638
Conservation 637
Kam@@ 637
Reform 637
Rh@@ 637
cables 637
chi@@ 637
furniture 637
instances 637
overthrow 637
participating 637
salt 637
scans 637
ul 637
Administration 636
Euro@@ 636
Eurovision 636
Gandhi 636
Mental 636
egg 636
iness 636
pitches 636
prayer 636
whisky 636
0.4 635
40-@@ 635
Eastwood 635
Houthi 635
Laden 635
McLean 635
Tal@@ 635
Winston 635
belongs 635
bullets 635
golds 635
ind@@ 635
pot@@ 635
sickness 635
weakened 635
111 634
Matteo 634
Pu@@ 634
blows 634
bow 634
devoted 634
emphasised 634
issuing 634
lanes 634
ora 634
overturn 634
pensioner 634
wary 634
1969 633
Jorge 633
arson 633
fairness 633
grassroots 633
listing 633
poses 633
productive 633
revive 633
volumes 633
Casey 632
Poole 632
Roedd 632
Rover 632
Tak@@ 632
aking 632
altered 632
poisoning 632
risked 632
utter 632
IN@@ 631
Pennsylvania 631
Reece 631
break@@ 631
genes 631
hampered 631
incentives 631
ine@@ 631
objections 631
respective 631
Coalition 630
Confederation 630
Has@@ 630
Sarkozy 630
cooking 630
ein 630
eller 630
ester 630
ideology 630
mirror 630
presentation 630
refuge 630
scary 630
speeding 630
start-up 630
ud 630
volatile 630
00-@@ 629
Herald 629
Newsbeat 629
Pearce 629
Shepherd 629
alike 629
backwards 629
counselling 629
high-speed 629
oo 629
standings 629
ums 629
unwell 629
Erik 628
NSPCC 628
Toni 628
Toulouse 628
diplomat 628
drafted 628
evolved 628
garage 628
limiting 628
rainfall 628
servers 628
streams 628
trucks 628
wor@@ 628
zed 628
CS@@ 627
Chad 627
MS@@ 627
Patients 627
agh 627
ail 627
back-@@ 627
disappear 627
fever 627
malicious 627
ren 627
texts 627
unsuccessful 627
Television 626
empire 626
ert 626
follow-up 626
fuels 626
graphic 626
vary 626
yna 626
DA 625
architect 625
executions 625
insurgents 625
pedestrian 625
Labor 624
Tayyip 624
amended 624
bus@@ 624
bypass 624
classed 624
financing 624
homeland 624
impl@@ 624
ishing 624
lyrics 624
mill 624
&apos;Connell 623
3.5 623
60s 623
Bangkok 623
Cri@@ 623
Hernandez 623
Profile 623
Rashid 623
Vel@@ 623
creativity 623
cure 623
imagination 623
pictured 623
proposing 623
rac@@ 623
ruthless 623
servant 623
Damien 622
Getting 622
Industry 622
Sporting 622
Tiger 622
bathroom 622
cream 622
endorsed 622
gifts 622
iv@@ 622
reflecting 622
spark 622
technically 622
Keynes 621
Todd 621
Willis 621
affiliated 621
layer 621
misuse 621
nasty 621
ological 621
steam 621
tonne 621
CO@@ 620
Cast@@ 620
Gayle 620
McG@@ 620
Parry 620
communist 620
eh 620
finest 620
focuses 620
noting 620
ransom 620
sells 620
separatists 620
sorted 620
whip 620
,500 619
Cuthbert 619
Ita 619
Jacques 619
Recep 619
Rus@@ 619
Sum@@ 619
Tan@@ 619
bishops 619
habit 619
prepares 619
rh@@ 619
unlucky 619
0.1 618
By@@ 618
Cu@@ 618
Plan 618
Reality 618
Sergei 618
awkward 618
cladding 618
disciplined 618
ied 618
ink@@ 618
ory 618
snow@@ 618
&apos;Shea 617
Esa 617
Millar 617
Star@@ 617
TT 617
Tripoli 617
bay 617
blowing 617
disclosure 617
flo@@ 617
overseeing 617
programming 617
ram@@ 617
rifle 617
secrets 617
sh 617
smiling 617
CA 616
Cop@@ 616
Euros 616
Markets 616
Tax 616
Temer 616
asthma 616
astonishing 616
bor@@ 616
competitor 616
dissent 616
elephant 616
naming 616
nicknamed 616
provinces 616
trick 616
Auckland 615
Branch 615
Dawn 615
Goldsmith 615
Mubarak 615
Nov@@ 615
Xinhua 615
distressing 615
equ@@ 615
explicit 615
pal@@ 615
photographed 615
proceeds 615
provisions 615
ries 615
temple 615
unauthorised 615
underwent 615
Severn 614
allege 614
ase 614
discount 614
fil@@ 614
free-@@ 614
ingham 614
off@@ 614
rig 614
torn 614
trousers 614
Ferdinand 613
Wat@@ 613
dioxide 613
ika 613
impeachment 613
imprisoned 613
isa 613
lied 613
nominees 613
rigorous 613
woodland 613
Daryl 612
Karim 612
Regional 612
dia 612
drilled 612
locate 612
mask 612
owe 612
sticks 612
50-@@ 611
Arizona 611
Flintshire 611
Fur@@ 611
Jermaine 611
Main 611
Sadly 611
Tro@@ 611
confessed 611
dug 611
insulting 611
lim@@ 611
poster 611
radiation 611
railways 611
ua 611
100@@ 610
Becky 610
Cab@@ 610
Champion 610
Platini 610
Separately 610
Too 610
Vunipola 610
add@@ 610
atrocities 610
carded 610
commodity 610
cour@@ 610
deceased 610
eth 610
lone 610
motorbike 610
pundit 610
scam 610
scandals 610
35,000 609
Car 609
Mit@@ 609
ailing 609
ballistic 609
charitable 609
ef 609
enthusiastic 609
fantasy 609
lam 609
nad 609
suppose 609
tan@@ 609
tel@@ 609
tends 609
AD 608
Je@@ 608
Maj@@ 608
Maxwell 608
Sinai 608
challenger 608
expelled 608
fraction 608
hurst 608
inconvenience 608
wal@@ 608
2017-18 607
Kor@@ 607
Martial 607
aggravated 607
applause 607
secretly 607
stakes 607
treasure 607
tribal 607
twins 607
wide-ranging 607
7th 606
Aden 606
Advice 606
Brisbane 606
Crescent 606
beneficial 606
circulation 606
compensate 606
deer 606
deportation 606
excellence 606
forth 606
killers 606
persecution 606
podcast 606
relying 606
submarine 606
Initially 605
Mahrez 605
Modern 605
airspace 605
chef 605
outline 605
touring 605
Bevan 604
Carmichael 604
chips 604
credentials 604
crushed 604
distressed 604
governed 604
prescribed 604
respondents 604
Death 603
Frankfurt 603
Mill@@ 603
PS 603
age-@@ 603
clinch 603
ho 603
investigator 603
negligence 603
pause 603
queues 603
relies 603
steadily 603
storey 603
tidal 603
weighing 603
á@@ 603
Based 602
Bat@@ 602
Nathaniel 602
PMQs 602
aki 602
bilateral 602
brink 602
distinct 602
eliminate 602
hinted 602
obliged 602
rebellion 602
stairs 602
well-being 602
110 601
9th 601
Hogan 601
Res@@ 601
Sim@@ 601
Vis@@ 601
WRU 601
captained 601
cinemas 601
declaring 601
deterrent 601
disagreed 601
downturn 601
drops 601
eed 601
eng 601
iro 601
ners 601
short-@@ 601
trainers 601
40-year-old 600
Audi 600
Cpl 600
Fillon 600
Hereford 600
Insurance 600
Limited 600
Sav@@ 600
experimental 600
ger@@ 600
ign@@ 600
mild 600
multi@@ 600
p-@@ 600
regained 600
resist 600
AA 599
Caerphilly 599
Communications 599
Cynon 599
Hon@@ 599
Universities 599
Wikileaks 599
comparable 599
ences 599
mas@@ 599
medics 599
parish 599
pivotal 599
plunged 599
stretching 599
100th 598
Ayew 598
Cad@@ 598
Fac@@ 598
Fu@@ 598
Gur@@ 598
Reeves 598
She@@ 598
advising 598
announcements 598
commuters 598
ema 598
hometown 598
patch 598
reg@@ 598
sponsored 598
transported 598
uk 598
uni@@ 598
unpopular 598
water@@ 598
wrist 598
13-year-old 597
1965 597
45@@ 597
Burundi 597
Hastings 597
Inspector 597
Leo 597
Mah@@ 597
Mo 597
barrels 597
festive 597
fun@@ 597
lightning 597
m. 597
notified 597
pping 597
rey 597
rubber 597
thrive 597
Kad@@ 596
Private 596
Years 596
anonymity 596
bydd 596
curling 596
deposits 596
exhausted 596
long-time 596
masked 596
pin@@ 596
tackles 596
Coutinho 595
Pad@@ 595
Records 595
brains 595
exchanged 595
greenhouse 595
inspirational 595
spiritual 595
4-3 594
AB 594
Boyce 594
Estonia 594
GCSEs 594
McCall 594
Mugabe 594
TA 594
bert 594
confirms 594
defining 594
double-@@ 594
fies 594
gan@@ 594
grandchildren 594
gutted 594
honorary 594
mere 594
slotted 594
Baird 593
JP 593
Ramos 593
Romanian 593
SSE 593
Sandy 593
acres 593
evolution 593
oning 593
sufficiently 593
voluntarily 593
walks 593
Air@@ 592
Sweeney 592
notion 592
outrageous 592
precaution 592
trainee 592
Better 591
Ou@@ 591
Tru@@ 591
ashamed 591
converting 591
ech@@ 591
first-round 591
gin 591
grandson 591
historically 591
med@@ 591
transmission 591
uring 591
Diana 590
Edgbaston 590
Fiscal 590
Javier 590
Lauren 590
Oscars 590
Sou@@ 590
Wolff 590
bonuses 590
medieval 590
mice 590
sixes 590
thr@@ 590
Amanda 589
Carol 589
Co-op 589
Widnes 589
artefacts 589
barracks 589
dawn 589
ken 589
last-minute 589
monarch 589
rie 589
separatist 589
sting 589
wee 589
-and-@@ 588
Lou@@ 588
Nation 588
Shearer 588
Wool@@ 588
ado 588
composed 588
decider 588
dip 588
dismiss 588
gri@@ 588
museums 588
ny@@ 588
overhead 588
prescription 588
survivor 588
Crabb 587
Forth 587
Goals 587
NBC 587
ethical 587
functioning 587
grooming 587
ker@@ 587
laser 587
sake 587
showcase 587
villagers 587
Cow@@ 586
Hutchinson 586
Narendra 586
Tha@@ 586
Unison 586
ami 586
fi 586
flu@@ 586
packaging 586
revival 586
Finally 585
How@@ 585
Kings 585
Pradesh 585
Tierney 585
aide 585
hiring 585
ordering 585
Lallana 584
Noel 584
aspirations 584
centenary 584
concludes 584
exceeded 584
ille 584
impacted 584
iously 584
loses 584
make-up 584
program 584
titled 584
.... 583
20.@@ 583
Cle@@ 583
Treaty 583
aging 583
arrange 583
dan 583
dreadful 583
honestly 583
intervened 583
mourning 583
ote 583
post-Brexit 583
pres@@ 583
sequence 583
strategies 583
vegetables 583
versus 583
Citizens 582
Nar@@ 582
Romain 582
Ron 582
encountered 582
fishermen 582
outing 582
plotting 582
provoked 582
remorse 582
spirits 582
steep 582
surprisingly 582
tapped 582
timely 582
vibrant 582
Balls 581
Clifford 581
Griffin 581
Kyi 581
Milner 581
Peake 581
Pic@@ 581
Rossi 581
Wawrinka 581
alarming 581
carpet 581
decrease 581
instantly 581
liability 581
streak 581
third-@@ 581
Bairstow 580
Hand@@ 580
Lampard 580
McDermott 580
Murrayfield 580
Rab@@ 580
Section 580
clinics 580
dam 580
descent 580
dweud 580
forefront 580
ination 580
intake 580
mortality 580
talents 580
vol@@ 580
IA@@ 579
McCormack 579
Through 579
UUP 579
administrators 579
composure 579
inflicted 579
intimidation 579
of-@@ 579
secular 579
tended 579
tolerate 579
transaction 579
Farmers 578
Fra 578
Linda 578
Sullivan 578
Suu 578
concentrated 578
republic 578
territories 578
Light 577
Midfielder 577
Rol@@ 577
Slater 577
confirming 577
det@@ 577
entertaining 577
epic 577
finale 577
ivory 577
screened 577
shootout 577
Enda 576
III 576
Kearney 576
Someone 576
Throughout 576
Trott 576
cow 576
destinations 576
deteriorated 576
dod 576
ect 576
ex 576
season-long 576
sem@@ 576
semi-@@ 576
signalled 576
Bar 575
Portadown 575
Rising 575
South@@ 575
disgrace 575
innocence 575
prizes 575
scrapping 575
sil@@ 575
submarines 575
unlawfully 575
1.1 574
1916 574
arise 574
crush 574
illnesses 574
lander 574
nephew 574
ven 574
Benteke 573
Hos@@ 573
ack@@ 573
downs 573
heightened 573
prot@@ 573
stalled 573
strokes 573
800,000 572
Brechin 572
CN@@ 572
Croydon 572
Cru@@ 572
Hopkins 572
MI5 572
baseball 572
codes 572
ero 572
ic-@@ 572
males 572
oe 572
plight 572
positively 572
rebuilding 572
relentless 572
strengths 572
Bayer 571
Boy@@ 571
Clayton 571
Fel@@ 571
Fitzpatrick 571
Lula 571
Rouhani 571
chers 571
commissioners 571
connecting 571
deepest 571
gloves 571
misery 571
sman 571
var@@ 571
-out 570
0.7 570
1958 570
Agnew 570
Deutsche 570
Ground 570
MLAs 570
Raj@@ 570
Ur@@ 570
aly@@ 570
bull 570
cleaner 570
detection 570
electronics 570
extinction 570
happiness 570
listeners 570
sights 570
tion@@ 570
3,500 569
Var@@ 569
adau 569
cross-border 569
evasion 569
iser 569
oral 569
sin 569
tactic 569
Defender 568
Kirk@@ 568
Mid 568
Newsround 568
Rev 568
ap 568
concessions 568
helm 568
midweek 568
sustainability 568
Ell@@ 567
Hav@@ 567
Ob@@ 567
PP 567
Stre@@ 567
Torres 567
Unesco 567
festivals 567
flows 567
high-quality 567
input 567
similarly 567
sweep 567
1.5@@ 566
High@@ 566
Janeiro 566
Macedonia 566
Metro 566
Millennium 566
alight 566
arian 566
blo@@ 566
decorated 566
jurisdiction 566
mi@@ 566
shortlisted 566
three-time 566
wen 566
450 565
Kas@@ 565
Massachusetts 565
Skye 565
Stockholm 565
acknowledges 565
alists 565
assassination 565
enduring 565
fri@@ 565
highly-@@ 565
iss 565
oping 565
reactions 565
squads 565
underwater 565
winless 565
0.6 564
1,400 564
1963 564
4th 564
Brokenshire 564
Cel@@ 564
Tate 564
arm@@ 564
canal 564
denial 564
embargo 564
ich@@ 564
immunity 564
log 564
recommends 564
redundancies 564
rivalry 564
shook 564
socialist 564
squeezed 564
telecoms 564
vigil 564
Buckley 563
Chelmsford 563
Giroud 563
Investors 563
Jon@@ 563
Lor@@ 563
Orlando 563
Venus 563
cul@@ 563
lesbian 563
mes 563
ort 563
rhythm 563
stakeholders 563
state-owned 563
sue 563
tab@@ 563
til@@ 563
wel@@ 563
PCC 562
Popular 562
Sources 562
Warsaw 562
accord 562
anga 562
comm@@ 562
contentious 562
exceptionally 562
gers 562
lowered 562
prolific 562
safeguards 562
shifts 562
weekday 562
28-@@ 561
Annan 561
Brigade 561
Construction 561
Flint 561
Pro 561
and-a-half 561
cal@@ 561
casting 561
epidemic 561
fal@@ 561
gy 561
informal 561
ities 561
pavement 561
prioritise 561
tunnels 561
Lazio 560
Mari@@ 560
apprenticeships 560
blanket 560
favourable 560
ombudsman 560
portrayed 560
scratch 560
seller 560
unwanted 560
GPS 559
Going 559
Jesse 559
Terrorism 559
ales 559
anti-social 559
diminished 559
glasses 559
ices 559
verbal 559
Kendall 558
Sales 558
Tillerson 558
bud@@ 558
monument 558
oud 558
pier 558
polar 558
rallied 558
reliability 558
server 558
shark 558
wholesale 558
&apos;Donnell 557
Astana 557
Certainly 557
Chavez 557
Drivers 557
Harvard 557
Leaders 557
RHI 557
Walk 557
ails 557
bishop 557
ental 557
lightly 557
peacefully 557
spying 557
tt@@ 557
.. 556
Blackman 556
Eagle 556
Jade 556
Jess 556
Marcos 556
O2 556
Riley 556
Wel@@ 556
architecture 556
dealers 556
delight 556
disorders 556
eff@@ 556
intercepted 556
machinery 556
oes 556
overweight 556
sparking 556
Abbas 555
Cohen 555
Gemma 555
acti@@ 555
bounced 555
renewal 555
rode 555
shifted 555
sinking 555
Bally@@ 554
Dick 554
Fr 554
Giggs 554
Mic@@ 554
accessed 554
blogger 554
breathe 554
cows 554
entrepreneurs 554
gam@@ 554
incumbent 554
nationality 554
revolutionary 554
specially 554
22.@@ 553
Hum@@ 553
Islamabad 553
Kingston 553
Ma 553
Outside 553
Sharks 553
Tunisian 553
bullied 553
crashes 553
drill 553
laptop 553
lawful 553
mus@@ 553
newydd 553
sexuality 553
ste@@ 553
weird 553
wicketkeeper 553
wreckage 553
Albania 552
Aleksandar 552
Animal 552
CC 552
Hardy 552
Newry 552
Pardew 552
Song 552
Taking 552
enables 552
fibre 552
folk 552
hum@@ 552
law@@ 552
sidelines 552
smallest 552
tically 552
Cardinal 551
Gul@@ 551
Sigurdsson 551
Third 551
accessing 551
bombed 551
colonial 551
freedoms 551
ith@@ 551
malaria 551
nock 551
owing 551
restoring 551
vulnerability 551
170 550
Firth 550
London-based 550
Naismith 550
Smyth 550
Telford 550
avoidance 550
bee 550
brace 550
cu@@ 550
flies 550
priced 550
slogan 550
verified 550
1960 549
CS 549
GCHQ 549
Guzman 549
Ice 549
Marks 549
Morrisons 549
Neath 549
administrations 549
bie 549
earmarked 549
eel 549
homelessness 549
inciting 549
insects 549
lobbying 549
oh 549
rang 549
seizure 549
sworth 549
Buttler 548
Everest 548
Geraint 548
Hi@@ 548
Mes@@ 548
Petrobras 548
Pot@@ 548
Speech 548
closes 548
fancy 548
gravity 548
ignoring 548
leap 548
mail 548
portion 548
prof@@ 548
self-employed 548
swung 548
unarmed 548
Dele 547
Gea 547
Grainger 547
Stafford 547
chy 547
cockpit 547
gra@@ 547
itt 547
opera 547
pray 547
stranger 547
studios 547
vis@@ 547
Kay 546
Raymond 546
Relations 546
Stranraer 546
Walcott 546
aine 546
commanding 546
homosexuality 546
indoor 546
ligament 546
relates 546
uck@@ 546
valley 546
90,000 545
Bruyne 545
Command 545
FIA 545
Families 545
Mansour 545
Mont@@ 545
Senedd 545
Viktor 545
cheapest 545
component 545
domain 545
injection 545
loyalist 545
modified 545
recognising 545
references 545
right-footed 545
topics 545
16,000 544
34@@ 544
Charity 544
Cullen 544
Dow@@ 544
Legal 544
Regiment 544
Sharon 544
UK-wide 544
Wolfsburg 544
Yu@@ 544
confront 544
inauguration 544
indicating 544
measuring 544
obstacles 544
priests 544
publishers 544
sand@@ 544
vicious 544
vigilant 544
12-year-old 543
1930s 543
Breakfast 543
Eventually 543
Funding 543
Guard 543
Hinkley 543
Large 543
Nuttall 543
Parade 543
Sara 543
Skates 543
Waters 543
finalised 543
fydd 543
goalscorer 543
oed 543
out-@@ 543
18,000 542
Daw@@ 542
Dunlop 542
Fri@@ 542
Hatton 542
Knox 542
Lewandowski 542
Richmond 542
Tyson 542
beloved 542
catalogue 542
discharge 542
exclusively 542
flagged 542
kil@@ 542
matching 542
netting 542
pact 542
siblings 542
silly 542
son@@ 542
undermining 542
4.5 541
Wild 541
ander 541
ble@@ 541
dic@@ 541
exclusion 541
expired 541
females 541
iz 541
nets 541
observation 541
suited 541
tariff 541
underway 541
Barr 540
Duggan 540
Hamburg 540
Israelis 540
Jos@@ 540
Llanelli 540
Rodney 540
carriers 540
elly 540
fer 540
humble 540
iri@@ 540
parallel 540
positives 540
probation 540
rings 540
sel 540
tender 540
Inspectorate 539
Rhinos 539
Rubio 539
Voice 539
coat 539
complexity 539
disturbed 539
gamble 539
occasional 539
oul@@ 539
overcame 539
packages 539
skies 539
superbly 539
upsetting 539
wash 539
Cable 538
Damian 538
Mill 538
Pop@@ 538
Stephanie 538
ains 538
bankruptcy 538
graves 538
lbw 538
precedent 538
publisher 538
surrender 538
traffickers 538
Fab@@ 537
Kezia 537
McClaren 537
Wilfried 537
Wol@@ 537
array 537
overlooked 537
tasked 537
ugly 537
Livingstone 536
Neilson 536
Samantha 536
Sl@@ 536
Stor@@ 536
aboard 536
expose 536
facilitate 536
frightening 536
guitar 536
nel 536
olds 536
pan 536
ris 536
sovereign 536
verdicts 536
6th 535
Bryant 535
Mayo 535
Policing 535
denounced 535
ete 535
jeans 535
ji@@ 535
lesser 535
predicting 535
renewables 535
ridden 535
spinal 535
2.3 534
750 534
Antarctic 534
Garda 534
Healthcare 534
Kenyatta 534
LE@@ 534
One-Day 534
ams 534
aying 534
book@@ 534
cult 534
infant 534
mid@@ 534
paedophile 534
paralysed 534
seas 534
1.7 533
13,000 533
Forrest 533
Lev@@ 533
Londoners 533
Pride 533
distraction 533
dywedodd 533
outspoken 533
planets 533
radicalisation 533
third-placed 533
unpredictable 533
150m 532
Baldwin 532
Band 532
Cats 532
Fol@@ 532
Historic 532
Kirby 532
NCA 532
adaptation 532
combine 532
eu@@ 532
fluid 532
frames 532
indications 532
inter-@@ 532
leaking 532
objected 532
resisted 532
sanction 532
unsustainable 532
Holy 531
Kab@@ 531
Saudis 531
Sti@@ 531
brick 531
cabin 531
chemistry 531
cricketer 531
dros 531
encryption 531
extradited 531
lender 531
marriages 531
memo 531
printing 531
rains 531
rockets 531
rupees 531
seriousness 531
sham 531
suffers 531
taxation 531
AT 530
Cambodia 530
Lille 530
Porto 530
Sentencing 530
TS 530
bribery 530
dire 530
homework 530
identities 530
pairs 530
ratio 530
rides 530
stall 530
650 529
Broadcasting 529
Dudley 529
Duterte 529
Garner 529
Havana 529
Lineups 529
Walton 529
amb@@ 529
ancy 529
outcry 529
republicans 529
row@@ 529
smokers 529
unavailable 529
wounding 529
Catalans 528
Cher@@ 528
MO@@ 528
Personality 528
Protesters 528
appropriately 528
biting 528
cautioned 528
cos@@ 528
fan@@ 528
ier@@ 528
mechanical 528
overseen 528
uck 528
undertaking 528
yma 528
Bod@@ 527
Capt 527
Gate 527
Leverkusen 527
Panel 527
UK@@ 527
accurately 527
contacting 527
detonated 527
men@@ 527
postal 527
systematic 527
throne 527
tube 527
zo 527
Belarus 526
Late 526
classification 526
disgusting 526
metro 526
quantity 526
rejects 526
tis 526
top@@ 526
withdrawing 526
10bn 525
AT@@ 525
Blood 525
Muller 525
Planning 525
Snapchat 525
Spence 525
Storey 525
ima 525
ingredients 525
obese 525
separation 525
spl@@ 525
spot-kick 525
wondered 525
Amir 524
Boy 524
Cosby 524
Evening 524
IR@@ 524
Mea@@ 524
Rupert 524
Thornton 524
Total 524
acquire 524
adequately 524
ares 524
boarded 524
erected 524
expires 524
gh 524
ited 524
president-elect 524
shower 524
three-year-old 524
trailed 524
Curran 523
Elgin 523
Manor 523
Mass 523
Passengers 523
President-elect 523
Py@@ 523
Rel@@ 523
Youngs 523
interventions 523
morale 523
onwards 523
rental 523
shout 523
stu@@ 523
terrifying 523
1961 522
Hearn 522
Luc@@ 522
alling 522
appreciated 522
dealer 522
monarchy 522
onic 522
predicts 522
presenters 522
remit 522
shi@@ 522
stadiums 522
ush 522
wheels 522
22@@ 521
Co 521
Harbour 521
UN@@ 521
backers 521
departed 521
provisional 521
record-breaking 521
relocate 521
three-month 521
Dani 520
arrives 520
colony 520
container 520
fixing 520
phoned 520
trailing 520
1962 519
Bet@@ 519
Etihad 519
Ryanair 519
Traffic 519
at-@@ 519
aunt 519
diplomacy 519
imagined 519
observations 519
selective 519
Businesses 518
Carr 518
Ellen 518
Gran@@ 518
bal@@ 518
circles 518
commanders 518
connectivity 518
duck 518
intact 518
minimal 518
pleasing 518
possibilities 518
prominence 518
Aslef 517
CMA 517
Columbia 517
Diane 517
Far 517
Kos@@ 517
Low@@ 517
Northants 517
Stan 517
Woakes 517
adjust 517
aides 517
bins 517
cheese 517
comparing 517
enn@@ 517
ja@@ 517
oph@@ 517
pro-government 517
prone 517
recipients 517
traditions 517
weaknesses 517
Equality 516
Houghton 516
Tracey 516
altitude 516
assurance 516
dose 516
replacements 516
skeleton 516
socially 516
traces 516
zy 516
Doha 515
Magpies 515
Rap@@ 515
Salvador 515
Vice-President 515
gunfire 515
gyfer 515
hybrid 515
nest 515
pay@@ 515
reformed 515
shine 515
sperm 515
33@@ 514
Brandon 514
Carlo 514
Hours 514
Jonathan.Amos-INTERNET 514
Make 514
McGovern 514
Monk 514
Ond 514
Pay 514
Rohingya 514
Sheeran 514
abi 514
attractions 514
congress 514
extract 514
four-time 514
hydro@@ 514
origins 514
sellers 514
sizes 514
stigma 514
Competition 513
Foyle 513
Kay@@ 513
Kids 513
Michigan 513
Mother 513
NI@@ 513
Pokemon 513
Soon 513
Willett 513
hand-@@ 513
incoming 513
insult 513
literacy 513
nick 513
pro-Russian 513
profiles 513
purchasing 513
rit@@ 513
stand-off 513
unexplained 513
Bluebirds 512
Bowl 512
Greig 512
Lamont 512
Phillip 512
aming 512
captaincy 512
ceiling 512
continuous 512
environments 512
if@@ 512
inability 512
kilometres 512
lively 512
paperwork 512
photography 512
pile 512
releases 512
sle@@ 512
slept 512
upgraded 512
Aidan 511
Booth 511
Brook 511
Ethiopian 511
Lan@@ 511
Loc@@ 511
McCartney 511
Nike 511
Shel@@ 511
Stephens 511
Ven@@ 511
Weibo 511
bare 511
carriage 511
ential 511
graffiti 511
hurting 511
leg@@ 511
pornography 511
trillion 511
0-1 510
Abraham 510
Ciaran 510
Dark 510
Dickson 510
GAA 510
Redknapp 510
Story 510
Tens 510
Travel 510
advancing 510
clay 510
cracked 510
happier 510
ides 510
mayoral 510
mindset 510
penalised 510
plates 510
submission 510
two-and-a-half 510
17,000 509
AI@@ 509
Cowdenbeath 509
Dou@@ 509
Javid 509
Mel 509
Moss 509
Sus@@ 509
Tat@@ 509
accelerate 509
blasts 509
embraced 509
fol@@ 509
inspected 509
kingdom 509
premier 509
senators 509
shifting 509
GMB 508
Mand@@ 508
Nintendo 508
Over@@ 508
Pres@@ 508
Victims 508
birdie 508
dow@@ 508
ead 508
eds 508
fathers 508
reconstruction 508
stead 508
tolerated 508
Bulls 507
Classic 507
Gambia 507
Goldman 507
Nicole 507
Pap@@ 507
Revolution 507
Salah 507
al-Nusra 507
dering 507
employing 507
escalated 507
guilt 507
populated 507
slogans 507
suing 507
ult 507
web@@ 507
Archer 506
Brits 506
G20 506
IF@@ 506
Leighton 506
Malik 506
Nasdaq 506
Yaya 506
enjoys 506
fraudulent 506
gas@@ 506
lu@@ 506
or-@@ 506
testament 506
Bafta 505
ES@@ 505
Hewitt 505
King@@ 505
MBE 505
Norris 505
Ox@@ 505
Welbeck 505
abolished 505
accusation 505
bias 505
chemotherapy 505
compassion 505
ix 505
left-footed 505
mortgages 505
multi-million 505
relax 505
threatens 505
tracker 505
Ah@@ 504
Archibald 504
Middleton 504
Patterson 504
Stoke-on-Trent 504
Temple 504
Zuckerberg 504
by-line 504
coupled 504
defensively 504
doubling 504
earns 504
ruined 504
serial 504
staggering 504
39-year-old 503
Ferriby 503
Gregor 503
Lesley 503
Majesty 503
Nazis 503
Saddam 503
Sec@@ 503
Underground 503
cyber-@@ 503
erg@@ 503
fel@@ 503
mo 503
orange 503
radi@@ 503
sack 503
ve-@@ 503
1.5bn 502
Due 502
Hooper 502
Miguel 502
Mot@@ 502
Northumberland 502
PS@@ 502
SS@@ 502
Striker 502
Timothy 502
bolster 502
clues 502
coastline 502
continually 502
currencies 502
diamond 502
hed 502
parole 502
settings 502
sidelined 502
slump 502
unmarked 502
2.5m 501
BBC@@ 501
Caf 501
Millions 501
Pence 501
Seymour 501
Ton@@ 501
compares 501
duration 501
educate 501
goodbye 501
judging 501
merit 501
mosques 501
nit@@ 501
pul@@ 501
three-quarters 501
tz 501
wed@@ 501
yer 501
A-level 500
Eli@@ 500
Hil@@ 500
Jun@@ 500
Ligue 500
Mundell 500
Robben 500
Silicon 500
akes 500
bers 500
consumed 500
divers 500
edi@@ 500
examinations 500
immensely 500
reinstated 500
reliance 500
sing@@ 500
tropical 500
two-year-old 500
wives 500
14,000 499
Briggs 499
Calum 499
Eye 499
Fowler 499
Lamb 499
cra@@ 499
deadliest 499
eaten 499
entr@@ 499
five-year-old 499
highest-@@ 499
instrumental 499
invite 499
lar@@ 499
magnetic 499
oring 499
raft 499
reconsider 499
rethink 499
technological 499
travels 499
Balotelli 498
Dancing 498
Mann 498
McAllister 498
Sammy 498
Serbian 498
Tourism 498
alleging 498
directing 498
endorsement 498
gle 498
illing 498
poured 498
proves 498
reliant 498
shattered 498
shores 498
sink 498
tons 498
was@@ 498
38-year-old 497
49@@ 497
Dundalk 497
Johanna 497
Ten@@ 497
Universe 497
astronaut 497
contempt 497
identical 497
livestock 497
sor@@ 497
199@@ 496
200@@ 496
Jill 496
Petersburg 496
Sciences 496
injury-time 496
surreal 496
the-@@ 496
ures 496
2012-13 495
23.@@ 495
Cli@@ 495
Eng@@ 495
Zurich 495
animated 495
criticisms 495
ide@@ 495
inch 495
intensified 495
most-@@ 495
ples 495
retreat 495
sanctioned 495
stunt 495
tiger 495
unlock 495
vo@@ 495
23-@@ 494
Bag@@ 494
Blaenau 494
Buckinghamshire 494
EDF 494
Hansen 494
Sampson 494
Winchester 494
chanting 494
definitive 494
dol@@ 494
esa 494
marginal 494
shrine 494
totalling 494
1500m 493
500@@ 493
Bordeaux 493
Catalan 493
Croft 493
Dad 493
Dodds 493
Sherwood 493
archaeological 493
batted 493
cad@@ 493
illi@@ 493
ots 493
prompt 493
tors 493
wi-fi 493
1.9 492
Ann@@ 492
Dum@@ 492
Herrera 492
Romelu 492
Voters 492
brake 492
dev@@ 492
encourages 492
gged 492
illy 492
indefinitely 492
irs 492
kar 492
maximise 492
surgical 492
watches 492
AU 491
Ash 491
Daniels 491
Off@@ 491
Southwark 491
advertised 491
any@@ 491
dar 491
lengths 491
ops 491
ric 491
tempo 491
violating 491
IP 490
Philadelphia 490
Shields 490
Stubbs 490
Twenty-@@ 490
escaping 490
go-ahead 490
ie@@ 490
iled 490
lunchtime 490
motorcycle 490
uploaded 490
Bad 489
Barrett 489
FM 489
Faletau 489
Globe 489
Katherine 489
Main@@ 489
Mullah 489
Nghymru 489
Run@@ 489
Summer 489
Ye@@ 489
ballots 489
ented 489
foot@@ 489
groin 489
hedge 489
midday 489
pipes 489
quotas 489
repeal 489
ress 489
tra 489
75m 488
Aiden 488
Click 488
Eleven 488
Gillespie 488
Jubilee 488
McIntyre 488
Peninsula 488
Planet 488
Robins 488
aga 488
combe 488
invented 488
layers 488
makeshift 488
picks 488
reassurance 488
renew 488
ros@@ 488
unsure 488
Bingham 487
You@@ 487
burgh 487
dividend 487
draw@@ 487
je@@ 487
kills 487
lend 487
run-off 487
verge 487
80m 486
Benedict 486
Gomez 486
Hill@@ 486
Lak@@ 486
Olivia 486
Vas@@ 486
WM 486
besieged 486
darkness 486
doorstep 486
hu 486
human@@ 486
itz 486
len 486
los 486
neat 486
ota 486
spike 486
umbrella 486
Burma 485
Days 485
Dunn 485
Gab@@ 485
Haiti 485
Lynn 485
Pon@@ 485
RC@@ 485
Tech 485
Wy@@ 485
abduction 485
cont@@ 485
favours 485
oma 485
slid 485
thriving 485
warfare 485
Breivik 484
Bus@@ 484
Dyfed-Powys 484
Few 484
Homes 484
Warwick 484
analysing 484
climbers 484
consciousness 484
muscles 484
thriller 484
Colorado 483
Lyn@@ 483
aut@@ 483
bb@@ 483
confined 483
console 483
deferred 483
explored 483
injustice 483
integral 483
ium 483
lower-@@ 483
miracle 483
rot@@ 483
terrified 483
twist 483
1,300 482
Accounts 482
CE@@ 482
Commenting 482
Defoe 482
Hawaii 482
Len@@ 482
Markit 482
Nav@@ 482
Seattle 482
Secret 482
Woman 482
activated 482
dio 482
eck 482
formidable 482
frequency 482
hot@@ 482
menu 482
penny 482
rejection 482
rushing 482
schoolgirl 482
sheriff 482
undergone 482
Announcing 481
Hardie 481
Jammeh 481
Munro 481
Opera 481
defeating 481
flower 481
glorious 481
implants 481
institutional 481
pas@@ 481
refund 481
sex@@ 481
sightings 481
unusually 481
yacht 481
18m 480
Alibaba 480
Att@@ 480
Councillors 480
Highways 480
Ned 480
Shield 480
Spe@@ 480
Za@@ 480
aps 480
carmaker 480
delicate 480
govern 480
heartbreaking 480
martial 480
miserable 480
notices 480
ore@@ 480
pharmaceutical 480
Frances 479
Latest 479
Lawson 479
Renfrewshire 479
bogey 479
careless 479
cease 479
commemorate 479
continental 479
prejudice 479
pump 479
steering 479
weigh 479
Bosnian 478
Fine 478
Investigations 478
RFU 478
Sudanese 478
Tomkins 478
hood 478
iri 478
jan 478
red-@@ 478
redundant 478
stimulus 478
underlined 478
5th 477
700,000 477
Employment 477
Naomi 477
Rid@@ 477
Rutherford 477
Shannon 477
bea@@ 477
congressional 477
fourth-@@ 477
infl@@ 477
mistaken 477
planting 477
ray 477
spray 477
swee@@ 477
visibility 477
DP 476
Gaelic 476
IFS 476
Jonas 476
Ll@@ 476
Mam@@ 476
Parish 476
Thor@@ 476
YPG 476
assembled 476
crucially 476
dom 476
ections 476
nodded 476
password 476
propose 476
referral 476
ulation 476
ze@@ 476
Chan 475
Gilbert 475
NBA 475
Pit@@ 475
Son 475
breakaway 475
cyn@@ 475
ern 475
faulty 475
hygiene 475
labels 475
lee 475
liable 475
ox@@ 475
pioneering 475
quo 475
reactor 475
slumped 475
th-placed 475
tighter 475
touchline 475
unstable 475
Drakeford 474
Grande 474
IA 474
Kuwait 474
Swimming 474
Taunton 474
Tel@@ 474
Zebre 474
condemnation 474
ditch 474
escalation 474
glimpse 474
lec@@ 474
paths 474
six-year 474
societies 474
vaccination 474
125 473
41-year-old 473
Bru@@ 473
Kirk 473
Law@@ 473
Lis@@ 473
Playing 473
births 473
dered 473
disadvantage 473
grandparents 473
guiding 473
highway 473
impress 473
led@@ 473
logo 473
ru 473
salmon 473
superior 473
trailer 473
wan@@ 473
90s 472
Copa 472
Hodge 472
Howley 472
Joan 472
Kh@@ 472
Manning 472
Saf@@ 472
Schengen 472
Sheridan 472
Stop 472
Talks 472
Winner 472
anti-Semitism 472
await 472
battlefield 472
clips 472
cord 472
courtroom 472
fielding 472
iles 472
landfill 472
mentor 472
smash 472
sou@@ 472
themes 472
volatility 472
walkers 472
whis@@ 472
Jurors 471
McHugh 471
McKenzie 471
Oak@@ 471
Pun@@ 471
Trading 471
accent 471
apping 471
brokered 471
contests 471
crossings 471
ells 471
flaws 471
for-@@ 471
ough@@ 471
roedd 471
sincere 471
Coach 470
Marcel 470
Minnesota 470
Mobile 470
Movistar 470
Politicians 470
Sanaa 470
Swann 470
Twelve 470
a-based 470
absurd 470
bust 470
depressed 470
occupy 470
rage 470
seaside 470
snake 470
son-@@ 470
steer 470
sunshine 470
tia 470
8th 469
Bus 469
Celta 469
Ci@@ 469
Neal 469
Norton 469
Samson 469
Spotify 469
adjusted 469
bother 469
classical 469
clouds 469
eta 469
gal@@ 469
implicated 469
kins 469
mud@@ 469
pun@@ 469
roadside 469
sk 469
waving 469
2.2 468
Brecon 468
Canal 468
Updates 468
aj@@ 468
arising 468
backroom 468
formats 468
gentle 468
gentleman 468
gue 468
injunction 468
opposes 468
practise 468
strugglers 468
swimmers 468
verify 468
Engineering 467
OBE 467
Ramadan 467
Scheme 467
Therefore 467
collapsing 467
grasp 467
hazardous 467
indictment 467
light-@@ 467
nic@@ 467
nu@@ 467
owning 467
permits 467
tea@@ 467
usage 467
0-2 466
Bo 466
Brad@@ 466
EC 466
Galway 466
Haw@@ 466
Images 466
Inspectors 466
Leipzig 466
Making 466
Paula 466
altercation 466
arr@@ 466
automated 466
blunt 466
convenience 466
duc@@ 466
eagle 466
hospitality 466
poem 466
roundabout 466
scoreline 466
shield 466
stressful 466
sympathetic 466
timeline 466
umb@@ 466
Apart 465
Cavan 465
Hanson 465
bells 465
descended 465
hat@@ 465
infectious 465
liber@@ 465
six-year-old 465
slipping 465
worlds 465
Hat@@ 464
Plus 464
Salisbury 464
Uni@@ 464
Unless 464
artillery 464
axe 464
comparisons 464
deaf 464
diary 464
gases 464
halved 464
incorrect 464
infamous 464
moor 464
rejecting 464
solved 464
stein 464
&apos;o 463
120,000 463
35-@@ 463
Baby 463
Clermont 463
Fil@@ 463
Fitzgerald 463
Lem@@ 463
Phoenix 463
RA 463
Rice 463
Smart 463
Stock 463
countless 463
deck 463
destined 463
electr@@ 463
excuses 463
interfere 463
lions 463
mon 463
novels 463
post@@ 463
racially 463
shipped 463
theories 463
Beckham 462
FN 462
Help 462
Iowa 462
Mach@@ 462
amnesty 462
cheque 462
eding 462
heels 462
homicide 462
inviting 462
justification 462
kidnap 462
ladder 462
lifelong 462
overtime 462
unanswered 462
Bla@@ 461
Bolivia 461
Care@@ 461
Carmarthen 461
Cornish 461
Lafferty 461
Mesut 461
NICE 461
Ricardo 461
Tributes 461
Violence 461
attracts 461
bubble 461
conscience 461
cried 461
disagreement 461
elder 461
gunshot 461
hal 461
life-@@ 461
much-needed 461
streamed 461
war-torn 461
Argyll 460
Brothers 460
Customers 460
Ewing 460
McGowan 460
Orthodox 460
Rick 460
Rowling 460
Stakes 460
Troy 460
Vo@@ 460
bell 460
bookmakers 460
cave 460
cigarette 460
ever-@@ 460
induced 460
laughed 460
neighbourhoods 460
rested 460
restraint 460
revol@@ 460
sit@@ 460
Addressing 459
Aids 459
Alejandro 459
Benzema 459
Cech 459
Courtney 459
Dunne 459
Jay@@ 459
List 459
Rub@@ 459
Weston 459
abortions 459
aching 459
broadcasts 459
cheer 459
debutant 459
grows 459
istic 459
ito 459
litter 459
nickname 459
path@@ 459
punching 459
ruins 459
silverware 459
snatched 459
tures 459
urine 459
woodwork 459
1-2 458
13m 458
Bright 458
Caernarfon 458
Concerns 458
Hills 458
Kid@@ 458
Rankin 458
SFA 458
Stockport 458
Village 458
answering 458
best-@@ 458
bir@@ 458
calibre 458
containers 458
corridor 458
investigative 458
lighter 458
non 458
plug 458
vir@@ 458
Aj@@ 457
Anglia 457
Atlanta 457
Bedford 457
Beirut 457
Budapest 457
Franklin 457
Jarvis 457
McGhee 457
Mum@@ 457
RB 457
Solent 457
TUC 457
advises 457
bed@@ 457
dish 457
dogged 457
escorted 457
hn 457
losers 457
mit@@ 457
quickest 457
replicate 457
self-defence 457
soci@@ 457
thers 457
thy 457
vanished 457
yield 457
Coulson 456
Dickinson 456
Gold@@ 456
Lavrov 456
Llywodraeth 456
Moldova 456
Oregon 456
Paper 456
accelerated 456
cement 456
conservatives 456
cordoned 456
dangerously 456
eldest 456
fu@@ 456
fur@@ 456
irregularities 456
occurs 456
oth 456
poetry 456
promotions 456
rell 456
thigh 456
timed 456
46-year-old 455
Bashir 455
Desmond 455
Federico 455
Fuller 455
Gates 455
Granada 455
Horne 455
angen 455
bruising 455
cheering 455
gging 455
negotiator 455
oversaw 455
patent 455
pop@@ 455
populist 455
prospective 455
spate 455
understandable 455
vice-@@ 455
EC@@ 454
Fal@@ 454
Yemeni 454
ae 454
eem 454
encouragement 454
excluding 454
fle@@ 454
redundancy 454
tics 454
tightened 454
varied 454
35m 453
Accies 453
Af@@ 453
Bis@@ 453
Entertainment 453
Holly 453
IT@@ 453
Jean-@@ 453
Kurdistan 453
Something 453
Somme 453
Teesside 453
detrimental 453
hectares 453
interaction 453
left-@@ 453
misled 453
negotiators 453
trustees 453
uro@@ 453
43-year-old 452
45-year-old 452
Alfie 452
Danielle 452
Mahmoud 452
McNamara 452
Rolling 452
Soares 452
administered 452
ape 452
bourne 452
commissioning 452
helpline 452
igh@@ 452
integrate 452
open-@@ 452
photographers 452
rag@@ 452
remotely 452
surgeries 452
suspicions 452
1,5@@ 451
14m 451
2.4 451
26-@@ 451
BBCAmos 451
Dj@@ 451
Francesco 451
Goo@@ 451
Jerry 451
Kelvin 451
Mogadishu 451
Sig@@ 451
Tan 451
Torino 451
aked 451
appalled 451
bowel 451
dear 451
footsteps 451
hanged 451
homophobic 451
interpreted 451
osp@@ 451
productions 451
sliding 451
till 451
2025 450
Catalonia 450
Lyle 450
Palmyra 450
Payet 450
Sandra 450
Son@@ 450
WSL 450
beforehand 450
bos@@ 450
ces 450
cook 450
it-@@ 450
marijuana 450
obsessed 450
organic 450
pills 450
sail 450
sec@@ 450
Chartered 449
Copenhagen 449
Defra 449
Hutton 449
Lim@@ 449
Manx 449
Rev@@ 449
Stat@@ 449
assistants 449
banker 449
clocked 449
conf@@ 449
cow@@ 449
destructive 449
dinosaurs 449
four-year-old 449
grace 449
heal 449
helmet 449
inaccurate 449
inmate 449
institute 449
last-16 449
mansion 449
observe 449
rats 449
rents 449
retrial 449
sailors 449
vacuum 449
warrants 449
zi@@ 449
1948 448
Carswell 448
Dog 448
Jobs 448
McConnell 448
Tun@@ 448
Wisconsin 448
armoured 448
cartoon 448
face-to-face 448
great-@@ 448
hau 448
icy 448
ision 448
knees 448
ling@@ 448
refurbishment 448
stown 448
utility 448
-like 447
1.3bn 447
Back@@ 447
Benn 447
Eritrea 447
Frankie 447
McMahon 447
Paul@@ 447
ables 447
amp@@ 447
contingency 447
demise 447
emotionally 447
fog 447
heartbroken 447
impaired 447
lit@@ 447
loading 447
mad@@ 447
mitigate 447
prostate 447
radicalised 447
reader 447
sul@@ 447
teens 447
telescope 447
1,9@@ 446
225 446
24.@@ 446
Bilic 446
Charter 446
Chil@@ 446
Greenock 446
Kan@@ 446
Mathieu 446
Montreal 446
Od@@ 446
Sessions 446
Twenty 446
advocates 446
assure 446
builders 446
businessmen 446
chanted 446
encrypted 446
enters 446
forged 446
minded 446
rebuilt 446
restriction 446
sprinter 446
tel 446
urges 446
waved 446
zard 446
26.@@ 445
AL@@ 445
ATP 445
Access 445
Anton 445
Catholics 445
Chloe 445
Coronation 445
Democracy 445
Florence 445
Gw@@ 445
Lat@@ 445
Westley 445
calculations 445
cooperation 445
correspondence 445
exp@@ 445
fatigue 445
genius 445
lungs 445
mers 445
midfielders 445
oceans 445
oner 445
variations 445
2,0@@ 444
Chamber 444
DfE 444
advantages 444
dental 444
ell-@@ 444
fox 444
inconsistent 444
leaflets 444
mut@@ 444
ori@@ 444
plagued 444
severity 444
shameful 444
simultaneously 444
symbols 444
thi@@ 444
thrashed 444
viruses 444
0.8 443
3-3 443
47@@ 443
Islam@@ 443
Lego 443
Mack@@ 443
NRW 443
Rain@@ 443
Rica 443
Sepp 443
Thrones 443
Under@@ 443
alia 443
ato 443
census 443
gen 443
habitats 443
hid 443
ib 443
kh@@ 443
majors 443
mammals 443
restricting 443
revelation 443
scenarios 443
specialised 443
ull 443
25th 442
42-year-old 442
Beaumont 442
Bran@@ 442
Deb@@ 442
Dungannon 442
Fellaini 442
Gay 442
Guidolin 442
Hin@@ 442
Karachi 442
Lodge 442
Nash 442
Os@@ 442
Pacquiao 442
Port@@ 442
Rhyl 442
Sachs 442
Stacey 442
Vernon 442
alities 442
co-ordinator 442
ent-@@ 442
fulfilled 442
grounded 442
intimate 442
progression 442
rogue 442
settling 442
surgeons 442
syn@@ 442
1959 441
Alves 441
Drew 441
Eastbourne 441
Fry 441
Hockey 441
Lion 441
Megan 441
Nursing 441
Raonic 441
ST@@ 441
bach 441
competitiveness 441
costume 441
dim 441
eal@@ 441
fabric 441
hea@@ 441
interact 441
logical 441
mul@@ 441
poised 441
power-sharing 441
protections 441
satisfy 441
tents 441
une 441
worship 441
2.7 440
Hop@@ 440
Mitch 440
Montpellier 440
Phil@@ 440
Sor@@ 440
ann 440
basement 440
behaved 440
congratulated 440
elbow 440
emergence 440
unfolded 440
Arbroath 439
Hudson 439
Lon@@ 439
Steenkamp 439
Sul@@ 439
Titanic 439
broker 439
con 439
cultures 439
endanger 439
lifts 439
patches 439
putt 439
sequel 439
wreck 439
Ari@@ 438
Barclay 438
Engineers 438
Fire@@ 438
IHS 438
Lisburn 438
Marcelo 438
Mercury 438
Migration 438
Sherlock 438
bats 438
catches 438
civic 438
collectively 438
hai 438
hard-@@ 438
itch 438
long@@ 438
poaching 438
professionalism 438
prostitution 438
real@@ 438
unt 438
unwilling 438
án 438
Angola 437
Cav@@ 437
Ethan 437
Fein 437
Opec 437
Rae 437
Rea 437
Steele 437
Wilshere 437
billed 437
controller 437
ensures 437
hike 437
referrals 437
regretted 437
replica 437
seeded 437
unofficial 437
uranium 437
utmost 437
Ang@@ 436
Bain 436
Bake 436
Bil@@ 436
Hargreaves 436
Massa 436
Musk 436
Pav@@ 436
Ralph 436
Under-20 436
bicycle 436
co-operating 436
derelict 436
disproportionate 436
eland 436
endless 436
exceed 436
footing 436
gues 436
ideological 436
offline 436
repaired 436
scal@@ 436
stan@@ 436
stumps 436
swap 436
warmer 436
1.2bn 435
Average 435
Cologne 435
Commander 435
Dig@@ 435
Has 435
Leisure 435
Leslie 435
Nevada 435
Often 435
Xinjiang 435
antly 435
associates 435
bundled 435
flourish 435
hostility 435
midst 435
precautionary 435
realising 435
san@@ 435
solitary 435
tha 435
translated 435
whistleblower 435
25.@@ 434
Bob@@ 434
Constitutional 434
Hea@@ 434
Naz@@ 434
Ronan 434
Similar 434
builds 434
cull 434
gol@@ 434
healthier 434
hydrogen 434
installing 434
mar 434
oper@@ 434
perverting 434
plan@@ 434
port@@ 434
sation 434
wil@@ 434
,9@@ 433
Falcons 433
Inn 433
Kit@@ 433
Kol@@ 433
Lower 433
Spending 433
Tab@@ 433
anti-Semitic 433
candidacy 433
discriminatory 433
disruptive 433
dragging 433
eli 433
hint 433
interrupted 433
manufactured 433
mond 433
monster 433
pleading 433
problematic 433
protocol 433
snapped 433
yd 433
,6@@ 432
100-@@ 432
2.6 432
Bin@@ 432
Bollywood 432
Camp@@ 432
Footage 432
Saleh 432
agan 432
cartel 432
choir 432
crises 432
expedition 432
grabbing 432
hair@@ 432
knock-on 432
penultimate 432
protein 432
seamer 432
year-on-year 432
1,600 431
12-month 431
39@@ 431
Biden 431
Clinical 431
FGM 431
FSA 431
Gerald 431
Kou@@ 431
Lap@@ 431
Morales 431
Moy@@ 431
Obamacare 431
Punjab 431
Serious 431
Wagner 431
aker 431
assumption 431
cel@@ 431
cho@@ 431
confusing 431
counter-attack 431
disgraceful 431
fictional 431
fit@@ 431
kar@@ 431
lik@@ 431
nail 431
procurement 431
rat@@ 431
respiratory 431
shelling 431
steered 431
thering 431
von 431
wasting 431
Bron@@ 430
CP@@ 430
Clo@@ 430
Finals 430
HP 430
Hayden 430
IVF 430
Mikel 430
Missouri 430
Montrose 430
Perkins 430
Pul@@ 430
Row@@ 430
Thankfully 430
UCI 430
adamant 430
badge 430
brigade 430
care@@ 430
counter@@ 430
crowdfunding 430
downward 430
hop@@ 430
literary 430
lord 430
overcrowded 430
refuses 430
ska 430
tical 430
4,500 429
Adelaide 429
Didier 429
Haye 429
Inver@@ 429
Leading 429
Pritchard 429
Redmond 429
branding 429
carer 429
characteristics 429
hopefuls 429
itors 429
neglected 429
ool 429
pig 429
quitting 429
retains 429
sanctuary 429
sunk 429
tempted 429
understandably 429
Bridg@@ 428
Corps 428
Kohli 428
Pirates 428
Rams 428
Reg@@ 428
Riyad 428
SN@@ 428
Singer 428
Wheeler 428
accomplished 428
aria 428
boring 428
defects 428
drain 428
fragments 428
half-century 428
rapper 428
rer 428
ringing 428
set-piece 428
wneud 428
16m 427
1953 427
20bn 427
Banking 427
Boycott 427
Docherty 427
EU-@@ 427
Hyde 427
NO@@ 427
Oklahoma 427
Radcliffe 427
Rigby 427
Sat@@ 427
coincide 427
conver@@ 427
curfew 427
dra 427
elaborate 427
fertility 427
hen@@ 427
horn 427
individually 427
mot@@ 427
nitrogen 427
profoundly 427
sin@@ 427
stat@@ 427
surged 427
tycoon 427
unfit 427
Haz@@ 426
Jared 426
Monmouthshire 426
cab 426
earthquakes 426
ek@@ 426
filing 426
handball 426
oath 426
rat 426
wea@@ 426
wishing 426
11-year-old 425
AR@@ 425
Beyonce 425
Ivanovic 425
Persie 425
Pontypridd 425
big-@@ 425
cancellation 425
decree 425
ico 425
ining 425
lington 425
medi@@ 425
personalised 425
protects 425
rad@@ 425
respectful 425
soared 425
stationed 425
troubling 425
Benfica 424
Hir@@ 424
Kompany 424
Lance 424
Olympian 424
Rolls-Royce 424
SE@@ 424
Stand 424
Unicef 424
WBO 424
alarmed 424
ald 424
ari@@ 424
casualty 424
cookies 424
enting 424
foremost 424
harmed 424
itch@@ 424
life-changing 424
measurements 424
overshadowed 424
superstar 424
tional 424
touches 424
vandalism 424
,8@@ 423
Aviva 423
Bates 423
Buenos 423
Cannes 423
Flood 423
Goodison 423
Innovation 423
Jos 423
MA 423
MSF 423
Pienaar 423
Quintana 423
Record 423
Relatives 423
Rock@@ 423
Sands 423
Sian 423
bereaved 423
buzz 423
catalyst 423
hen 423
laughter 423
litre 423
oul 423
presiding 423
run@@ 423
uniforms 423
Aus 422
Berahino 422
Davey 422
Dyke 422
Forrester 422
Goddard 422
Guildford 422
Harding 422
Hebdo 422
Lukas 422
Saudi-led 422
astronauts 422
chin 422
farewell 422
floors 422
mechanisms 422
modelling 422
pled 422
quote 422
summoned 422
tick 422
ware 422
Aires 421
Aluko 421
Circuit 421
Franck 421
Harman 421
Less 421
Os 421
Samir 421
Training 421
Utd 421
back-up 421
carved 421
dell 421
devastation 421
dived 421
dra@@ 421
drum 421
fractures 421
interactive 421
midwives 421
neutr@@ 421
thirds 421
tings 421
&apos;u 420
1,8@@ 420
Abuse 420
Blind 420
Bloomberg 420
Christianity 420
Cou@@ 420
McNulty 420
Moffat 420
Nancy 420
Potts 420
boo@@ 420
curious 420
merits 420
mini-@@ 420
parental 420
promoter 420
renamed 420
school@@ 420
spinners 420
start-ups 420
woods 420
-free 419
Aw@@ 419
BS@@ 419
Belgrade 419
Fiorentina 419
Gun@@ 419
Prophet 419
Raw@@ 419
Taiwanese 419
Treviso 419
Vil@@ 419
Zoe 419
dominating 419
duchess 419
ec 419
savers 419
shelves 419
wells 419
,7@@ 418
ISS 418
Kuala 418
Trek 418
ately 418
awesome 418
bankers 418
cheat 418
deb 418
eau 418
mosquitoes 418
pits 418
time-@@ 418
transit 418
unidentified 418
5-2 417
All-Ireland 417
Fen@@ 417
Hook 417
Italians 417
Jacobs 417
Scot@@ 417
aggressively 417
ball@@ 417
banners 417
battered 417
ceremonies 417
cracking 417
illicit 417
line-out 417
ple@@ 417
powder 417
proportionate 417
relocated 417
slaughter 417
transmitted 417
,5@@ 416
Bowen 416
Def@@ 416
Ear@@ 416
Madeleine 416
Roland 416
Sharia 416
Yanukovych 416
assists 416
circulated 416
condemning 416
dancers 416
demonstrating 416
digging 416
ghts 416
hard-working 416
hemisphere 416
mol@@ 416
nuisance 416
occurring 416
paramount 416
practising 416
quota 416
reas@@ 416
solicitors 416
third-round 416
tops 416
tran@@ 416
van@@ 416
10-year-old 415
Advocate 415
Homs 415
Katy 415
McBride 415
Nikkei 415
Partners 415
Quite 415
Ramadi 415
Vit@@ 415
amazed 415
bel 415
dealings 415
engulfed 415
forehand 415
legitimacy 415
new@@ 415
ovation 415
ration 415
sli@@ 415
tro 415
wyd 415
105 414
Christ 414
Co-@@ 414
Coulter 414
Delta 414
Eng 414
Headingley 414
Larry 414
Lav@@ 414
black@@ 414
borrowed 414
bred 414
curator 414
emphasise 414
fences 414
marker 414
newborn 414
restarts 414
stretches 414
summary 414
BMC 413
Ballance 413
Compton 413
Dmitry 413
E. 413
Eurosceptic 413
Henri 413
MH370 413
Moor 413
Rea@@ 413
Smalling 413
Systems 413
Top@@ 413
caravan 413
concedes 413
conferences 413
earners 413
emphatic 413
enko 413
et-@@ 413
expire 413
jaw 413
lev@@ 413
longstanding 413
marketplace 413
rover 413
spilled 413
strained 413
subsidiary 413
thankful 413
transferring 413
-time 412
1944 412
1947 412
Actor 412
Agriculture 412
But@@ 412
Che@@ 412
Coming 412
Elite 412
Glenavon 412
Good@@ 412
Helmand 412
Manhattan 412
Northumbria 412
Zidane 412
administrator 412
balancing 412
behaving 412
designers 412
dump 412
e-cigarettes 412
eness 412
icking 412
iner 412
lean 412
ook 412
ori 412
pro-democracy 412
resting 412
side-@@ 412
spill 412
unexpectedly 412
ust 412
wisdom 412
year-long 412
Holloway 411
LGA 411
OS 411
Rod 411
Sak@@ 411
Sandro 411
Skills 411
Tydfil 411
Whelan 411
Yvette 411
erson 411
exploiting 411
finalist 411
gie 411
hook 411
lacks 411
masks 411
obtaining 411
ough 411
reduces 411
romantic 411
singled 411
slashed 411
terribly 411
troubles 411
Boo@@ 410
Fun@@ 410
Guinness 410
Kaz@@ 410
Lots 410
Upper 410
aded 410
adopting 410
blaid 410
bled 410
bot@@ 410
bricks 410
cannon 410
charismatic 410
emb@@ 410
escalating 410
exporters 410
falsely 410
imperative 410
litres 410
pools 410
porn 410
remembering 410
rin@@ 410
stra@@ 410
turbulent 410
uphold 410
vie 410
void 410
weaken 410
1.2m 409
Drum@@ 409
Humberside 409
ICO 409
Mueller 409
Opponents 409
Oslo 409
Taff 409
Ther@@ 409
Tynecastle 409
bugs 409
embedded 409
emp@@ 409
freight 409
gymnastics 409
middleweight 409
oid 409
pleas 409
pp@@ 409
ref 409
ring@@ 409
sensational 409
sewage 409
tie-break 409
tled 409
tooth 409
upwards 409
Arms 408
C. 408
Dom@@ 408
Gale 408
Kyrgios 408
Mik@@ 408
Santiago 408
Tait 408
Tra@@ 408
Zaha 408
bookings 408
clo@@ 408
efficiently 408
fiercely 408
hail 408
ication 408
kick@@ 408
landlord 408
reinforced 408
seven-year-old 408
terminated 408
Bees 407
Call@@ 407
Dilma 407
Hur@@ 407
Lumpur 407
Nauru 407
Tonight 407
Tren@@ 407
biology 407
brutality 407
comet 407
copper 407
dean 407
fallout 407
full-year 407
revoked 407
seasonal 407
trending 407
44-year-old 406
75@@ 406
Beth 406
Head@@ 406
Idlib 406
Jordanian 406
Kimi 406
Province 406
Revolutionary 406
UFC 406
ands 406
best-known 406
bobl 406
cock@@ 406
commercially 406
constitute 406
distracted 406
extra-time 406
grim 406
hurdle 406
irrelevant 406
ladies 406
mysterious 406
pick@@ 406
quantities 406
remark 406
reshuffle 406
toe 406
AP@@ 405
Afghans 405
Anything 405
Bes@@ 405
Box 405
Brunt 405
Chilean 405
Coun@@ 405
Fast 405
Gillian 405
Greenpeace 405
Nor 405
Pugh 405
Referring 405
Salazar 405
Sz@@ 405
avalanche 405
combining 405
contamination 405
dinosaur 405
hoax 405
hostilities 405
log@@ 405
mun@@ 405
outdated 405
rescuers 405
rest@@ 405
sevens 405
singers 405
thin@@ 405
tipping 405
unmanned 405
1,4@@ 404
198@@ 404
Arm@@ 404
Cliftonville 404
Elton 404
Harriet 404
IC 404
Marouane 404
Net 404
Sound 404
Vice 404
Vicky 404
Vigo 404
aided 404
belts 404
distributing 404
halls 404
intriguing 404
norm 404
pledging 404
post-war 404
stabilise 404
tighten 404
towers 404
tu 404
tumours 404
weakening 404
18-month 403
Cot@@ 403
Findlay 403
HQ 403
Koran 403
Marko 403
Note 403
Play@@ 403
Simone 403
apartheid 403
atively 403
blank 403
dumping 403
grabs 403
hated 403
ishes 403
nationalism 403
og 403
onboard 403
piano 403
sof@@ 403
vacancies 403
360 402
45-@@ 402
Cliff 402
Fran@@ 402
Guide 402
Indiana 402
Met@@ 402
Nat@@ 402
Riyadh 402
Schi@@ 402
U-turn 402
admired 402
awi 402
conspiring 402
deteriorating 402
discovering 402
fatalities 402
fearing 402
naive 402
navigation 402
positioned 402
retake 402
stellar 402
Dane 401
Dro@@ 401
Got 401
HM@@ 401
Hallam 401
Jungle 401
Madison 401
NA@@ 401
Scarborough 401
blames 401
corn 401
endure 401
gut 401
kiss 401
kowski 401
outer 401
pad 401
piracy 401
poison 401
provocative 401
ras 401
spite 401
tsunami 401
vastly 401
2.8 400
27-@@ 400
Abdeslam 400
Dogs 400
HS@@ 400
Maddison 400
McAuley 400
Medal 400
Patricia 400
Shirley 400
aim@@ 400
assuming 400
blockade 400
bore 400
dam@@ 400
disregard 400
distribute 400
footballing 400
networking 400
specialises 400
Antoine 399
Cesc 399
Chen 399
Cummins 399
Mac 399
Malawi 399
Ofgem 399
Osman 399
Sexual 399
Vin@@ 399
balcony 399
eight-year-old 399
enclosure 399
intr@@ 399
ions 399
magical 399
masters 399
okay 399
rematch 399
residency 399
selfie 399
tirelessly 399
would-be 399
12bn 398
Gir@@ 398
Jean-Claude 398
Jenson 398
Meh@@ 398
Poroshenko 398
Reilly 398
Tas@@ 398
Turks 398
Webber 398
allocation 398
avoidable 398
dian 398
ection 398
embarked 398
generosity 398
ggs 398
lover 398
400@@ 397
Algerian 397
DWP 397
Pro-@@ 397
Puerto 397
Sn@@ 397
amend 397
arch@@ 397
bat@@ 397
builder 397
collisions 397
concentrating 397
fracture 397
heights 397
ineffective 397
iya 397
lip 397
plots 397
sby 397
shells 397
smashing 397
ulating 397
22nd 396
Jodie 396
Jordi 396
McCluskey 396
McKenna 396
Region 396
Step@@ 396
Tul@@ 396
aches 396
apped 396
bureaucracy 396
cheered 396
chenko 396
deprivation 396
entity 396
explicitly 396
fronts 396
horizon 396
mac@@ 396
osa 396
outlet 396
overly 396
quar@@ 396
second-round 396
showers 396
third-party 396
triumphed 396
zing 396
Activists 395
Berlusconi 395
Bertrand 395
Cheryl 395
Doug 395
Forster 395
Ger 395
Greenwood 395
Kilbride 395
Kr@@ 395
Motors 395
aa 395
beam 395
characterised 395
embroiled 395
graduated 395
jails 395
locks 395
proposes 395
terrain 395
turf 395
upstairs 395
45,000 394
Bradshaw 394
CAA 394
Mind 394
Pel@@ 394
Picture 394
RIP 394
Run 394
Skype 394
Standing 394
Substitute 394
ager 394
camping 394
exempt 394
guides 394
honesty 394
hrs 394
mercy 394
reactors 394
reopening 394
scepticism 394
solving 394
tabled 394
um-@@ 394
ury 394
vent 394
30th 393
Baltimore 393
Chin@@ 393
Griezmann 393
Learning 393
Mall@@ 393
Motor 393
Ozil 393
Pena 393
Plan@@ 393
Scar@@ 393
Usain 393
Wallabies 393
Yann 393
cop@@ 393
creature 393
extinct 393
gg 393
hoo@@ 393
lia 393
partisan 393
pouring 393
recognisable 393
sacred 393
step@@ 393
ude 393
year-@@ 393
2050 392
250m 392
Eriksen 392
Fresh 392
Newman 392
Nicholls 392
Ow@@ 392
Robison 392
Sharma 392
Ste@@ 392
bride 392
brush 392
call-up 392
dividends 392
fusion 392
globalisation 392
guitarist 392
inho 392
likened 392
outbreaks 392
prosperous 392
supposedly 392
ticking 392
tn 392
,000km 391
103 391
Amos 391
Byron 391
Maj 391
Norwood 391
Wall@@ 391
bitten 391
gradual 391
ity-@@ 391
merged 391
n-@@ 391
outset 391
prevents 391
purse 391
secrecy 391
sensitivity 391
sore 391
testify 391
topping 391
two-week 391
uncapped 391
23rd 390
3-6 390
5-4 390
Baltic 390
Code 390
Drugs 390
Flower 390
GMP 390
IM@@ 390
Khalid 390
Made 390
Palestine 390
Ras@@ 390
Rey 390
Scotch 390
Vodafone 390
angrily 390
cleaned 390
corporations 390
dou@@ 390
endorse 390
fli@@ 390
line-@@ 390
promotes 390
pumped 390
regulate 390
rope 390
sion@@ 390
sympathies 390
trac@@ 390
wer@@ 390
115 389
300@@ 389
4-6 389
Abd@@ 389
Grid 389
Ince 389
Lam 389
Leroy 389
Model 389
Nigerians 389
PPI 389
Question 389
Start 389
badgers 389
bets 389
consultations 389
damning 389
distances 389
enquiry 389
evacuate 389
head-to-head 389
hurts 389
ols 389
procession 389
rooted 389
strictly 389
112 388
7.5 388
Already 388
B. 388
Bony 388
Dougie 388
Goodman 388
Heavy 388
Joanne 388
Mickelson 388
Prot@@ 388
Vern 388
Vill@@ 388
Welfare 388
Zealander 388
asp@@ 388
complacent 388
mos@@ 388
pigs 388
sharks 388
spectacle 388
tail@@ 388
AF@@ 387
Amid 387
Bec@@ 387
Dimitri 387
HE@@ 387
Isa 387
Led@@ 387
Mancini 387
Marquez 387
Minutes 387
Petr 387
Teaching 387
Tos@@ 387
Wig@@ 387
Yeah 387
Ze@@ 387
appliances 387
blackmail 387
cluster 387
dancer 387
disasters 387
erman 387
facto 387
get@@ 387
locking 387
longer-term 387
methane 387
orchestra 387
retaliation 387
sexist 387
sic 387
teen 387
tered 387
valuation 387
1,800 386
116 386
28.@@ 386
5,000m 386
60-@@ 386
Benson 386
Gos@@ 386
Growth 386
Kerber 386
MC 386
Memphis 386
PFA 386
RE 386
announces 386
beings 386
clue 386
delaying 386
edo 386
extensively 386
five-time 386
gwneud 386
intentionally 386
limbs 386
ope 386
quashed 386
sourced 386
supreme 386
surroundings 386
variation 386
2.1 385
Adil 385
CF 385
Da 385
Eduardo 385
Elvis 385
Ever@@ 385
Guards 385
Hed@@ 385
Montenegro 385
Moroccan 385
Nuclear 385
Portland 385
Raul 385
Tomlinson 385
accordingly 385
catering 385
cli@@ 385
creators 385
e-based 385
hacker 385
hyper@@ 385
poisoned 385
recapture 385
saga 385
sculptures 385
í@@ 385
50-year-old 384
Bravo 384
Conduct 384
Et@@ 384
F-@@ 384
Iz@@ 384
Libor 384
Probably 384
Stevie 384
Tipuric 384
Zhang 384
archaeologists 384
blasted 384
dent 384
iawn 384
internally 384
loaned 384
loch 384
manoeuvre 384
ode 384
pes 384
pounced 384
stor@@ 384
translate 384
wartime 384
51-year-old 383
Baggies 383
Canadians 383
Deal 383
IBM 383
Kathmandu 383
Penny 383
Quay 383
Wendy 383
Wis@@ 383
anticipate 383
aph@@ 383
commenting 383
dal 383
determining 383
fabulous 383
fencing 383
orientation 383
phased 383
sensor 383
spine 383
stretcher 383
under-par 383
wnaeth 383
Acc@@ 382
Choi 382
Flight 382
Lorenzo 382
Mackintosh 382
Natasha 382
PE 382
Pluto 382
Syriza 382
Zak@@ 382
caliphate 382
continuity 382
devil 382
edd@@ 382
edging 382
feld 382
gi 382
inate 382
iss@@ 382
lecture 382
luggage 382
nine-year-old 382
radioactive 382
scattered 382
timber 382
2km 381
4x100m 381
Abdul@@ 381
Dea@@ 381
Forsyth 381
Ki-moon 381
Mark@@ 381
Pauline 381
Prevention 381
Snow 381
Tribunal 381
annexation 381
bargain 381
censorship 381
cheers 381
comp@@ 381
criminality 381
floated 381
fresh@@ 381
illo 381
jam@@ 381
mourners 381
mynd 381
noon 381
overdue 381
part-@@ 381
poultry 381
presumably 381
submissions 381
waits 381
wed 381
Aled 380
Bieber 380
Hancock 380
Horner 380
Iranians 380
OBR 380
Watts 380
arose 380
bitterly 380
burg 380
calculation 380
compassionate 380
debating 380
develops 380
endeavour 380
eni 380
enthusiasts 380
guarded 380
hardship 380
isi 380
navigate 380
prototype 380
salvage 380
sitcom 380
&apos;Driscoll 379
&apos;Hara 379
Infantino 379
Kingsley 379
Rico 379
Set 379
Til@@ 379
Towers 379
WBC 379
appointing 379
award-winning 379
cio 379
discretion 379
goodwill 379
logging 379
manufacture 379
mistakenly 379
multinational 379
ores 379
reassured 379
receipts 379
remarkably 379
revived 379
ros 379
sequ@@ 379
sign@@ 379
som@@ 379
speedy 379
subscription 379
themed 379
trader 379
visibly 379
workshop 379
&apos;Reilly 378
1,6@@ 378
75,000 378
AN@@ 378
Advisory 378
Hard@@ 378
Harold 378
Hilary 378
Manu 378
Nieto 378
Relief 378
batch 378
carriages 378
cracks 378
custodial 378
eclipse 378
exclude 378
irony 378
logistics 378
mob 378
overtaken 378
pragmatic 378
ruler 378
shotgun 378
toss 378
17m 377
Brit@@ 377
Brother 377
Crouch 377
EIS 377
Etienne 377
Excellence 377
Greening 377
Grey 377
Grove 377
Ismail 377
Justine 377
Legion 377
Navas 377
Nixon 377
Sem@@ 377
Tran@@ 377
Truro 377
applauded 377
bies 377
bothered 377
despair 377
emergencies 377
ffy 377
gent 377
golfer 377
hin@@ 377
ien 377
indicted 377
nar@@ 377
oured 377
proximity 377
pt 377
span 377
stewards 377
suburbs 377
tis@@ 377
vomiting 377
AD@@ 376
Alongside 376
Annie 376
Bann@@ 376
Brit 376
Burmese 376
Desert 376
Hang 376
Lead 376
Marler 376
Prague 376
Rickie 376
Shot 376
Snodgrass 376
Speed 376
Turn 376
Wid@@ 376
aud 376
blade 376
booed 376
chipped 376
dictator 376
edges 376
hardline 376
lic 376
neutrality 376
nifer 376
oos 376
patron 376
quantum 376
sergeant 376
statues 376
termination 376
unearthed 376
unrhyw 376
valleys 376
Bercow 375
Halep 375
Known 375
Matheson 375
Nas@@ 375
Oman 375
Oxlade-Chamberlain 375
ags 375
aver@@ 375
cav@@ 375
coping 375
dig@@ 375
invasive 375
jumper 375
lic@@ 375
limitations 375
logic 375
lop 375
lump 375
reacting 375
ribs 375
strangled 375
torch 375
victorious 375
workshops 375
1,3@@ 374
1940 374
47-year-old 374
Antony 374
Betsi 374
Dep@@ 374
Direction 374
Furthermore 374
Magennis 374
Malala 374
Nile 374
Olly 374
Rowett 374
Same 374
Sid@@ 374
Sikh 374
Toro 374
UNHCR 374
Valls 374
ank 374
bly 374
cia 374
coincidence 374
congregation 374
consensual 374
detailing 374
encounters 374
hearted 374
ib@@ 374
initiated 374
jab 374
pains 374
potent 374
prix 374
pumping 374
pundits 374
red@@ 374
regrettable 374
right-hand 374
seals 374
strangers 374
unionists 374
0,000 373
10-man 373
A4@@ 373
Guantanamo 373
Hak@@ 373
Happy 373
Massey 373
Nokia 373
Nonetheless 373
aerospace 373
assa@@ 373
chapel 373
dea@@ 373
distinction 373
emulate 373
frontman 373
hunters 373
ires 373
mont 373
resigning 373
sid@@ 373
timescale 373
vintage 373
10km 372
Barn@@ 372
DF 372
Deloitte 372
Dyer 372
Either 372
Jer@@ 372
Joanna 372
Kim@@ 372
McConville 372
Motor@@ 372
Recently 372
Yang 372
anny 372
beth 372
bla@@ 372
corridors 372
energetic 372
enh@@ 372
ested 372
etc 372
invention 372
lon 372
lonely 372
shaping 372
strains 372
unaccompanied 372
unrelated 372
widened 372
year-old 372
&apos;Grady 371
Cemetery 371
Composite 371
Delaney 371
Dhaka 371
Melissa 371
Schumacher 371
Spicer 371
affection 371
apologies 371
arch 371
atives 371
baton 371
blessing 371
declines 371
discoveries 371
displaying 371
edy 371
evolve 371
granting 371
leather 371
signalling 371
slice 371
state-sponsored 371
unprovoked 371
48-year-old 370
7,500 370
Alaska 370
Fabian 370
Firmino 370
Harvie 370
Koreans 370
Nan@@ 370
Pisa 370
Prices 370
affiliate 370
animation 370
circulating 370
declares 370
hammered 370
limited-overs 370
lodge 370
nett 370
obstacle 370
packs 370
pick-up 370
sar 370
seeker 370
treats 370
yl 370
1.3m 369
BB@@ 369
Banksy 369
Igor 369
Lineker 369
McArthur 369
PwC 369
Shor@@ 369
Torfaen 369
Winning 369
awarding 369
behavioural 369
celebrates 369
daunting 369
faithful 369
lob@@ 369
marching 369
mes@@ 369
ounce 369
oversees 369
pioneer 369
reinforce 369
underestimated 369
55@@ 368
Ascot 368
CBS 368
Dee 368
HI@@ 368
Harte 368
Infrastructure 368
Mold 368
Penn@@ 368
PhD 368
RS@@ 368
Rou@@ 368
Schalke 368
Users 368
defiance 368
dipped 368
immigrant 368
isha 368
ket@@ 368
plac@@ 368
relocation 368
scrutinised 368
sexism 368
taxis 368
vacancy 368
warmth 368
Call 367
Drug 367
Finnish 367
Pop 367
Safe 367
Sho@@ 367
Up@@ 367
Waterloo 367
akin 367
broad@@ 367
complainant 367
composer 367
contestants 367
go-@@ 367
imagery 367
kindness 367
motorcyclist 367
otti 367
oun 367
predators 367
sar@@ 367
scrambled 367
servicemen 367
traumatised 367
ump@@ 367
urs 367
yne 367
102 366
Berg@@ 366
Corp 366
Deeney 366
Valtteri 366
accompanying 366
apartments 366
balloon 366
defied 366
ever@@ 366
fossils 366
orn 366
predecessors 366
recipient 366
summed 366
swathes 366
upbeat 366
André 365
Battalion 365
Behind 365
Dai 365
EastEnders 365
Georgian 365
Holdings 365
Hurricane 365
Kom@@ 365
MW 365
Responsibility 365
Tonga 365
Yamaha 365
captivity 365
casual 365
co-author 365
concealed 365
cordon 365
eBay 365
exploits 365
fearful 365
indicators 365
mill@@ 365
nicely 365
onshore 365
oy 365
portraits 365
renegotiation 365
right-@@ 365
shake-up 365
sni@@ 365
tom@@ 365
vaccines 365
Arjen 364
Cathro 364
Electric 364
Nad@@ 364
Starbucks 364
UK-@@ 364
ais 364
architects 364
ashing 364
bra 364
cheaply 364
congratulate 364
downloaded 364
eting 364
mesh 364
piled 364
polio 364
pretend 364
queuing 364
rin 364
sided 364
speculate 364
1,100 363
Flying 363
McCabe 363
Nick@@ 363
Pier 363
Rex 363
Robshaw 363
Vaz 363
Wilder 363
ation@@ 363
ayed 363
classrooms 363
complied 363
congratulations 363
enormously 363
extends 363
fair@@ 363
gos@@ 363
government-@@ 363
half-hour 363
looming 363
moratorium 363
murderer 363
ories 363
peacekeepers 363
predictable 363
reforming 363
rhino 363
shelters 363
sop 363
ush@@ 363
1,7@@ 362
21@@ 362
Alasdair 362
Fabregas 362
IPC 362
MI6 362
Master 362
McClean 362
Mission 362
Paddington 362
Qatari 362
Quins 362
Shinnie 362
Van@@ 362
ames 362
apprenticeship 362
capit@@ 362
dimension 362
ground@@ 362
marred 362
maturity 362
pie 362
precision 362
primaries 362
seven-year 362
shining 362
subtle 362
surpassed 362
volleyed 362
0.9 361
3.5m 361
Aintree 361
Americas 361
Anti@@ 361
Berg 361
Beyond 361
Currie 361
Fighting 361
Hem@@ 361
Liber@@ 361
McLoughlin 361
Moores 361
Mou@@ 361
Nik@@ 361
Renzi 361
Think 361
bbcrugbyunion 361
boxers 361
collusion 361
cyn 361
eradicate 361
fort 361
fulfilling 361
healing 361
invaluable 361
ounded 361
resolving 361
shor@@ 361
simpler 361
subscribers 361
thrust 361
tightly 361
Ambassador 360
Anya 360
Beat@@ 360
Belles 360
Buddhist 360
Falcao 360
Fraud 360
Groves 360
Kante 360
Kroos 360
Property 360
Rum@@ 360
Shan@@ 360
Zi@@ 360
appreciation 360
breastfeeding 360
cafes 360
constraints 360
cru@@ 360
dictatorship 360
ected 360
founders 360
indoors 360
manipulation 360
namely 360
neuro@@ 360
reluctance 360
richer 360
robotic 360
strategist 360
surfaces 360
wast@@ 360
Brown@@ 359
Colonel 359
KR 359
Llandudno 359
ME@@ 359
Midland 359
Orchestra 359
Strategy 359
Vic 359
Xbox 359
ained 359
aining 359
annoyed 359
bility 359
disrespectful 359
feud 359
goers 359
ive 359
pilgrims 359
ratified 359
rum@@ 359
shelf 359
sible 359
stats 359
vault 359
10,000m 358
240 358
Blackwell 358
Boateng 358
Ding 358
Drinkwater 358
Guatemala 358
Marino 358
Soccer 358
Toffees 358
Works 358
Ysgol 358
allowances 358
betrayed 358
botched 358
columnist 358
dilemma 358
faults 358
gu 358
ili 358
loop 358
mai 358
nier 358
occupants 358
on-loan 358
projections 358
reservations 358
ropes 358
sil 358
sizeable 358
tractor 358
warplanes 358
wri@@ 358
43@@ 357
45m 357
48.@@ 357
70m 357
Buy 357
Cros@@ 357
Dunbartonshire 357
Lees 357
Louisiana 357
Mau@@ 357
Mob@@ 357
Muammar 357
Ness 357
Nkurunziza 357
PMI 357
Student 357
Work@@ 357
abandoning 357
aci@@ 357
calmly 357
chunk 357
cups 357
cut@@ 357
duke 357
espionage 357
ins@@ 357
laptops 357
notoriously 357
overtake 357
recipe 357
renting 357
restrained 357
sailed 357
synthetic 357
tightening 357
tongue 357
universe 357
val 357
yo 357
104 356
1950 356
Absolutely 356
Ade@@ 356
Cairney 356
DU 356
Expl@@ 356
G4S 356
Ramsay 356
absorb 356
carnival 356
convener 356
drug-@@ 356
eer 356
faded 356
flurry 356
generates 356
insurers 356
lyn 356
microphone 356
myth 356
non-EU 356
poly@@ 356
questionable 356
shutting 356
smuggled 356
spat 356
state-@@ 356
stringent 356
taskforce 356
vice-chairman 356
1min 355
Alba 355
Ever 355
Fon@@ 355
Gulen 355
Harlow 355
Latvia 355
Moreno 355
Tracy 355
Train 355
brutally 355
commodities 355
divert 355
eb 355
faction 355
ful@@ 355
horrified 355
meningitis 355
proposition 355
spared 355
stimulate 355
suicidal 355
uma 355
unrealistic 355
Bangladeshi 354
Easyjet 354
Hood 354
Ingram 354
Link 354
Loughborough 354
Maynard 354
McCain 354
McGuire 354
Normally 354
Papua 354
Quick-Step 354
Reddit 354
Superbike 354
Yellen 354
abide 354
bis@@ 354
brighter 354
capsized 354
certificates 354
entertain 354
essence 354
fisheries 354
fuelling 354
guerrilla 354
je 354
liberty 354
opting 354
ouse 354
pped 354
registering 354
resolutions 354
spr@@ 354
succeeding 354
surname 354
toured 354
turbine 354
yan@@ 354
6-7 353
Antarctica 353
Benghazi 353
Hendry 353
Jud@@ 353
Lansdown 353
Litvinenko 353
Lufthansa 353
Mane 353
NRL 353
NS@@ 353
Phot@@ 353
Willian 353
bad@@ 353
bonfire 353
calculate 353
coincided 353
fore 353
grenades 353
itis 353
junctions 353
like-for-like 353
newest 353
oti@@ 353
palm 353
polled 353
sam 353
sm 353
whitewash 353
yp@@ 353
Aldi 352
Booking 352
Cherry 352
Christophe 352
Detroit 352
HSE 352
Lough 352
Malone 352
Nk@@ 352
Philippine 352
Poor 352
Pupils 352
Six@@ 352
TE@@ 352
Tees 352
Uzbekistan 352
aligned 352
checkpoint 352
distinguished 352
eh@@ 352
home@@ 352
leigh 352
outsider 352
petitions 352
polite 352
revamp 352
swinging 352
transforming 352
transportation 352
uncommon 352
vitamin 352
FSB 351
Felix 351
Lun@@ 351
Pitt 351
Quebec 351
Strathclyde 351
Vietnamese 351
boasts 351
calories 351
etti 351
eva 351
feeds 351
ider 351
inging 351
lowering 351
mayors 351
mis 351
nutrition 351
org@@ 351
pit@@ 351
shoot-out 351
smuggle 351
stresses 351
Allied 350
Caldwell 350
Ferry 350
Gonzalo 350
ISIS 350
Intel 350
Luhansk 350
Machar 350
Nel 350
Omagh 350
Rhodri 350
Royals 350
Stan@@ 350
Thiago 350
Were 350
blasphemy 350
blessed 350
capturing 350
g-@@ 350
infringement 350
lagoon 350
lau@@ 350
ment@@ 350
minus 350
rapes 350
satirical 350
south-eastern 350
theatres 350
worsening 350
11m 349
29.@@ 349
53-year-old 349
Cau@@ 349
Dobson 349
Gomes 349
Grammar 349
Hackney 349
Heat 349
RT@@ 349
Ray@@ 349
Tin@@ 349
Villarreal 349
abolish 349
brightly 349
dat@@ 349
depot 349
discarded 349
drowning 349
gies 349
hang@@ 349
lip@@ 349
north-western 349
playground 349
shrinking 349
sub 349
tricks 349
turing 349
widening 349
Anglo-@@ 348
Cadwaladr 348
Dyche 348
Franco 348
Gylfi 348
Howell 348
Kurt 348
LP 348
Osama 348
Sud@@ 348
Ve@@ 348
Wing 348
cooling 348
cover-up 348
diocese 348
dt 348
editors 348
esting 348
evaluate 348
headset 348
landowners 348
ove 348
probable 348
pros@@ 348
rap 348
sofa 348
subdued 348
vans 348
wind@@ 348
57@@ 347
AR 347
Arabian 347
Burn@@ 347
Corey 347
Del 347
Gaz@@ 347
Itoje 347
Kiss 347
Luca 347
Madagascar 347
Sisi 347
Som@@ 347
Whoever 347
authoritarian 347
big@@ 347
conjunction 347
dos 347
eg 347
fast-@@ 347
openness 347
religions 347
rolls 347
sustaining 347
tangible 347
theirs 347
thro@@ 347
triathlon 347
wrap 347
2011-12 346
Baines 346
Congolese 346
Courts 346
Devlin 346
Dre@@ 346
Nun@@ 346
Reporter 346
Savage 346
Shelvey 346
Talking 346
VI 346
Wit@@ 346
afield 346
angled 346
assigned 346
centre-half 346
conditioning 346
cynical 346
dictate 346
dis 346
estates 346
generals 346
ography 346
phases 346
practically 346
ques 346
rab@@ 346
road@@ 346
tak@@ 346
umpire 346
unpleasant 346
worthwhile 346
129 345
27.@@ 345
Fish 345
Hemmings 345
Rig@@ 345
airfield 345
ce@@ 345
confiscated 345
directive 345
instinct 345
may@@ 345
peoples 345
policymakers 345
unaffected 345
vey 345
25-yard 344
CCG 344
Du 344
Elaine 344
Fergus 344
Honours 344
Rajoy 344
Sevens 344
Simmons 344
Studios 344
Toner 344
anchor 344
attributes 344
bend 344
cage 344
cessation 344
cob@@ 344
compliant 344
crushing 344
eck@@ 344
grocery 344
humiliating 344
laughs 344
lbs 344
lifeline 344
mortar 344
perceptions 344
selectors 344
shocks 344
slave 344
stalemate 344
ues 344
1,700 343
A-levels 343
Arbitration 343
Blo@@ 343
Fra@@ 343
Jab@@ 343
NEC 343
ander@@ 343
bush 343
cha 343
consuming 343
decor@@ 343
endurance 343
focussed 343
hus@@ 343
incorrectly 343
privatisation 343
s-based 343
scorers 343
shoe 343
shone 343
skiing 343
sty 343
surfaced 343
un-@@ 343
x-@@ 343
&apos;w 342
24,000 342
CES 342
CPR 342
Hann@@ 342
McCoy 342
Mellor 342
Mozambique 342
Para-@@ 342
Robson-Kanu 342
Sorry 342
Terrace 342
Wick@@ 342
alien 342
axed 342
cents 342
coll@@ 342
curve 342
daylight 342
deploying 342
erosion 342
handset 342
holidaymakers 342
ice-@@ 342
lier 342
lis 342
mountain@@ 342
refurbished 342
repaid 342
rollercoaster 342
sighting 342
soaring 342
stock@@ 342
tun@@ 342
underestimate 342
yar@@ 342
yed 342
52-year-old 341
Alfred 341
Copeland 341
Correa 341
Croatian 341
Diack 341
Dunbar 341
Edge 341
GTR 341
Goode 341
Hindi 341
Mickey 341
Rosie 341
Sadio 341
Yar@@ 341
basics 341
clergy 341
deterioration 341
dismantled 341
emerges 341
glance 341
heaviest 341
iler 341
outraged 341
oz 341
peacekeeping 341
postcode 341
sad@@ 341
stalking 341
tti 341
&apos;Callaghan 340
0.0@@ 340
600m 340
And@@ 340
Dead 340
Flores 340
Forensic 340
Ful@@ 340
Ghani 340
Hab@@ 340
Herbert 340
Lindsey 340
Mercer 340
RFL 340
TalkTalk 340
Tayside 340
Wen@@ 340
admiration 340
betrayal 340
bian 340
bleak 340
borrowers 340
cab@@ 340
cam@@ 340
confidentiality 340
despicable 340
divorced 340
enjoyable 340
funerals 340
gig@@ 340
lem 340
oss 340
pave 340
pig@@ 340
pneumonia 340
psychologist 340
recaptured 340
repeating 340
rou@@ 340
sung 340
thumping 340
tigers 340
unilateral 340
unveiling 340
varying 340
vulnerabilities 340
,4@@ 339
Admiral 339
Ashworth 339
Cob@@ 339
Cock@@ 339
Eamonn 339
Glover 339
Iraqis 339
Kirkcaldy 339
Louth 339
Lurgan 339
Najib 339
Peaty 339
Relive 339
Rud@@ 339
Search 339
Shona 339
bogeys 339
catastrophe 339
complacency 339
croft 339
decommissioning 339
dense 339
diarrhoea 339
dil@@ 339
grenade 339
medallists 339
rocked 339
rug@@ 339
seafront 339
stea@@ 339
trad@@ 339
1940s 338
6.5 338
60-year-old 338
Anton@@ 338
Booker 338
Correspondent 338
Deborah 338
Doc@@ 338
Glass 338
Hey@@ 338
Jamal 338
Rav@@ 338
Scotsman 338
arrears 338
benches 338
bes 338
che 338
crane 338
exposing 338
extr@@ 338
famine 338
happily 338
in-form 338
ister 338
jum@@ 338
met@@ 338
ogo 338
oi 338
pardon 338
qui@@ 338
relieve 338
retention 338
schoolboy 338
sho@@ 338
tax@@ 338
[...]
