t h 7436762
i n 5184356
th e</w> 4293318
a n 4166391
e r 3460193
e d</w> 3308172
r e 2989825
a r 2759540
o t 2735391
e n 2606258
o u 2570713
e r</w> 2451594
o n 2446148
t i 2429447
q u 2414635
in g</w> 2407647
o r 2356887
t o</w> 2336178
o n</w> 2299104
qu ot 2150075
& quot 2144042
&quot ;</w> 2144042
an d</w> 2079786
i n</w> 2061073
o s 2054917
o f</w> 1925611
h a 1916712
a l 1788863
i t 1735729
s t 1664559
a p 1620901
e s</w> 1615497
i s</w> 1506496
a t 1346511
r o 1346229
i c 1335821
a t</w> 1292155
i l 1286187
h e</w> 1260033
ap os 1259565
& apos 1259350
a s</w> 1242122
a c 1232782
a n</w> 1213627
o r</w> 1149164
e l 1148033
&apos ; 1129181
e n</w> 1124966
i s 1060758
o m 1049571
a l</w> 1036290
e s 1003879
e c 993890
s a 992523
v e</w> 983645
o l 973319
e a 947764
u r 916021
r i 885277
p l 838726
w h 826048
&apos; s</w> 804373
s i 798140
i d</w> 774356
f or</w> 751128
b e 745635
a s 740757
en t</w> 735102
a m 732531
w as</w> 724965
a ti 690726
th at</w> 688793
u s 682416
l y</w> 681507
u n 678370
i t</w> 671380
T he</w> 663022
e m 628797
sa id</w> 611912
l i 602626
a d 600847
th e 593594
t s</w> 589596
c h 587850
er e</w> 579818
a y</w> 572698
a g 568942
n o 568918
i r 566109
er s</w> 564923
it h</w> 546347
e v 534610
a b 530425
l o 511177
w ith</w> 508097
g h 503430
ou n 492472
b y</w> 490764
s u 485065
c on 484652
d i 481963
c e</w> 480707
s h 464080
u t</w> 462438
b e</w> 460515
t r 456440
l d</w> 454897
o v 453989
ha ve</w> 449454
n e 437463
ro m</w> 436456
ar e</w> 436194
c om 435221
ha s</w> 433933
l e 431604
f or 429004
f rom</w> 428528
d e 426207
l e</w> 416212
p ro 409047
t er</w> 388487
e ar 388283
h is</w> 384603
t ed</w> 384462
o w 383522
s p 362699
ou t</w> 359923
ou ld</w> 359669
c l 357215
e x 354805
f f 348549
ati on</w> 345729
il l</w> 344365
ti on</w> 342768
o p 342712
u l 341369
a k 338210
s e 337563
i d 331545
it y</w> 330087
no t</w> 323622
on s</w> 322669
a y 321204
ha d</w> 316738
i r</w> 316352
be en</w> 315220
t h</w> 302577
p or 299775
s t</w> 299172
m e</w> 297784
p e 295894
w ill</w> 294166
i m 290568
o o 289994
gh t</w> 289990
th er</w> 288284
e d 285120
on e</w> 282886
a f 276607
b ut</w> 275246
a in 273672
t er 270700
c h</w> 270116
w or 267819
2 0 267649
s o</w> 266352
al l</w> 265471
w ere</w> 263348
ou r</w> 262896
i g 261079
p re 257463
e t</w> 257229
at e</w> 255770
p ar 252105
d s</w> 250103
wh o</w> 249999
ou r 247530
d ay</w> 246077
the y</w> 245487
ic e</w> 242550
th is</w> 241277
v er 239327
m ent</w> 237644
d ing</w> 235794
si d 234588
c i 233463
r u 230029
es t</w> 229499
ea r</w> 228583
w e</w> 227477
the ir</w> 226163
or e</w> 223978
T h 219550
t w 218592
pl e</w> 216910
ol d</w> 215398
r a 215019
h i 214726
ic h</w> 214563
in g 212602
as t</w> 210745
p er 209957
M r</w> 209622
u t 208710
e st 207622
g e</w> 207353
d er</w> 206659
re c 206609
l ea 206033
f ir 204741
I t</w> 203800
ov er 202903
om e</w> 201590
m an 199157
e e 198522
f i 196828
l and</w> 196764
d ed</w> 196311
wh ich</w> 194854
af ter</w> 194825
v i 194039
u p</w> 193014
w ould</w> 191785
t ing</w> 189258
g o 184320
a r</w> 183377
ac k</w> 181163
t y</w> 180821
g r 180193
al ly</w> 177195
o ple</w> 176519
m ore</w> 175718
it s</w> 174377
H e</w> 173139
ur e</w> 172922
20 1 172557
t o 171910
l ed</w> 170556
p os 170236
u m 170128
m in 169077
g u 166815
e y</w> 166359
pe ople</w> 166086
s on</w> 166020
an t</w> 165815
d u 165790
y ear 165450
b o 165151
es s</w> 163980
p r 163559
al so</w> 163281
f in 163215
en ce</w> 162172
ar y</w> 159954
i st 159367
k ing</w> 159102
ab out</w> 158006
s er 156172
a in</w> 155859
ow n</w> 155370
p ol 154884
k ed</w> 154755
b er</w> 153422
en t 153380
i ti 153090
us t</w> 152407
oun d</w> 151979
C h 151814
g h</w> 151567
en ts</w> 151113
c oun 150171
re e</w> 149541
cl u 149285
o u</w> 148984
s e</w> 148400
d is 147455
ha t</w> 146755
s ec 146217
k s</w> 146155
ak e</w> 145851
ar d</w> 145504
o ff 145274
ag e</w> 144408
h er</w> 143627
ov er</w> 143085
os t</w> 142581
k e</w> 141846
con t 141247
ac e</w> 140856
at ed</w> 140848
m on 138956
o ther</w> 138920
g i 138871
pl ay 137712
o c 137697
th ere</w> 137568
at t 136867
os e</w> 136251
a v 136045
ou gh</w> 135966
c an</w> 135960
us e</w> 135177
S t 134758
ti me</w> 133792
&apos; t</w> 133707
on al</w> 133693
y ear</w> 133431
ab le</w> 132188
l a 132178
m an</w> 132131
o w</w> 132010
el l</w> 131978
u b 130800
wh en</w> 130606
0 0</w> 130581
no w</w> 130516
th an</w> 130287
&apos ;</w> 130169
re n 130041
s c 129836
i es</w> 129287
m is 128700
n i 128679
e l</w> 127748
st r 127371
am e</w> 125762
el y</w> 125291
m e 125122
W e</w> 124302
b ec 124221
d er 123734
e p 123626
s he</w> 123340
A n 122460
over n 121683
fir st</w> 121499
in e</w> 121249
y ou</w> 120387
sid e</w> 120063
v ed</w> 119438
an s</w> 118670
B ut</w> 117945
a u 117655
ad e</w> 117377
an ce</w> 117151
s ti 116831
y s</w> 116487
tw o</w> 116382
f e 116144
on g</w> 115933
ha l 115739
re m 115736
lo w 115600
por t</w> 113738
S c 112745
il e</w> 112385
in v 112193
ne w</w> 112170
g overn 112091
o in 111877
u s</w> 111629
w ay</w> 111436
in to</w> 110850
al s</w> 110397
for m 110106
re s 109986
p en 109676
an y</w> 109539
l ast</w> 109538
n ed</w> 109077
ou s</w> 107630
u d 107521
com m 107445
t on</w> 107289
year s</w> 107270
ati ons</w> 107009
it e</w> 106546
s ed</w> 106345
h ea 106315
c ould</w> 106112
i on</w> 105968
v ing</w> 104043
I n 103644
t old</w> 103338
p a 103171
n ing</w> 102762
f o 102629
a d</w> 102436
h el 102163
oo d</w> 102094
I n</w> 101675
en d</w> 101661
ev er</w> 101273
b ack</w> 101102
i c</w> 100315
e i 100099
su p 99922
B B 99899
d ec 99245
the m</w> 99194
g et</w> 99049
be ing</w> 98555
d on</w> 98292
o f 98237
Sc ot 98140
em ent</w> 97672
c re 97639
ac c 97144
r is 97026
a re 96926
an g 96560
E n 96558
il l 96313
for e</w> 96291
an d 96259
in ter 95784
govern ment</w> 95635
s h</w> 95411
an c 95409
en c 95187
d o 94899
BB C</w> 94857
o b 94692
a il 94228
es ti 93930
e t 93626
w hat</w> 93612
b r 93155
l l</w> 92419
y ing</w> 92270
s ome</w> 92225
t ri 92041
re s</w> 92001
M ar 91691
al l 91511
m p 91243
t ur 90709
lo c 89785
m ar 89527
or s</w> 89376
w in 89303
en ti 89192
ing s</w> 89024
pre s 88879
hi m</w> 88814
v ic 88698
d o</w> 88698
U K</w> 88593
ver y</w> 88572
be fore</w> 88374
ap p 88331
j ust</w> 88218
sa ys</w> 87878
or y</w> 87475
lo o 87151
ec t</w> 86923
ti c 86851
f t</w> 86796
b u 86786
a use</w> 86692
p ri 85825
c ri 85644
i f</w> 85436
w ee 85332
m il 85182
1 9 85039
ev er 85006
n o</w> 84947
el i 84758
e w 84727
o t</w> 84646
v es</w> 83790
us ed</w> 83568
ain st</w> 83248
ati onal</w> 83238
ic k</w> 82718
it ed</w> 82505
ag ainst</w> 82259
ri ght</w> 82219
m ade</w> 82088
le g 81901
m y</w> 81215
th ing</w> 81167
sh i 80861
t ak 80702
os s</w> 80642
s el 80585
n er</w> 80509
al i 79929
c o 79660
ec ted</w> 79514
s o 79497
in ce</w> 78830
t u 78749
a st 78748
si on</w> 78745
in clu 78594
a m</w> 78545
ou t 78457
es s 78239
t ea 78197
d re 78193
w i 78116
d es 77957
m ost</w> 77676
e en</w> 77547
ay s</w> 77032
, 0 76871
m at 76866
En g 76757
ac h</w> 76299
tr y</w> 76068
e al 76006
ro w 75993
on ly</w> 75970
ti ons</w> 75880
du c 75411
U n 75273
e f 75014
wor k</w> 74955
th er 74929
on d</w> 74914
A l 74699
wh ere</w> 74221
es e</w> 73391
s ur 73042
man y</w> 72757
th ree</w> 72558
b le</w> 72546
d ev 72468
C on 72382
ir e</w> 72380
i l</w> 72092
bec ause</w> 72037
v is 71799
em ber</w> 71717
por t 71710
wh ile</w> 71124
el l 70757
st ar 70555
N or 70499
li ke</w> 70283
,0 00</w> 70273
si g 70255
c r 69573
at er</w> 69563
am il 69437
ad ded</w> 68676
f e</w> 68667
ch ar 68608
m s</w> 68566
U S</w> 68372
gu e</w> 68318
ti sh</w> 68307
lo w</w> 68175
ou s 68081
off ic 68071
com p 67972
p ub 67918
P ar 67888
t e 67851
s ch 67668
p h 67638
W h 67375
fo ot 67370
th r 67286
h ed</w> 67071
f ol 66916
c ha 66867
an n 66807
ac t</w> 66692
al es</w> 66667
of f</w> 66560
e - 66396
de f 66179
oo k</w> 66118
B ri 65895
n um 65849
f r 65840
u e</w> 65767
o g 65394
c er 65348
le ft</w> 65229
w ell</w> 65215
Th ey</w> 64990
m o 64950
m u 64908
di a</w> 64510
ha p 64270
r y</w> 64229
is t</w> 64204
in k</w> 64181
f l 64040
t ly</w> 64020
ac k 63713
d own</w> 63587
pol ice</w> 63570
g g 63569
L i 63440
at ing</w> 63418
en tr 63015
r e</w> 62997
& # 62675
g re 62669
&# 9 62649
em p 62619
w ar 62598
e w</w> 62548
h ow</w> 62541
Eng land</w> 62405
u ro 62331
re sp 62086
c ar 62028
am es</w> 61860
on g 61708
th en</w> 61633
b i 61607
b er 61583
ch il 61562
go ing</w> 60994
b ot 60974
u p 60950
t en 60947
shi p</w> 60931
f u 60842
ti ve</w> 60808
g e 60748
d y</w> 60643
m ake</w> 60629
hal f</w> 60612
A r 60599
w om 60532
b l 60473
is h</w> 60400
s ince</w> 60398
s ea 60358
oo l</w> 60342
at es</w> 60341
c our 59991
t ake</w> 59916
ev en</w> 59904
s en 59735
hea d</w> 59641
e b 59589
c or 59557
com e</w> 59385
ou th</w> 59321
n e</w> 59077
p oin 58904
sh ould</w> 58855
tea m</w> 58826
gr ou 58799
is ed</w> 58677
20 0 58428
di ff 58250
tw een</w> 58065
r an 57925
ur ing</w> 57917
J o 57914
as e</w> 57738
ha m</w> 57644
year - 57480
g o</w> 57387
f ound</w> 57191
h ome</w> 57127
T his</w> 57117
be tween</w> 57046
ser v 57042
th ose</w> 57022
M c 56497
f amil 56335
b all</w> 56233
wor ld</w> 56187
t or</w> 55882
wi th 55872
sa y</w> 55659
Th ere</w> 55620
pl ac 55569
u m</w> 55528
R o 55507
ec tion</w> 55291
E uro 55249
su l 54986
c am 54782
c al 54731
ou ght</w> 54630
pl ace</w> 54610
li c</w> 54596
se t</w> 54489
si ve</w> 54471
om e 54391
thr ough</w> 54364
n ational</w> 54343
year- old</w> 54326
par t</w> 54295
r it 54214
ic k 54174
i al</w> 53950
it al</w> 53948
A u 53929
c ap 53801
en er 53688
le y</w> 53615
fol low 53450
P ol 53136
m a 53123
pro v 53074
W ales</w> 53039
c ol 53033
d id</w> 52752
sti ll</w> 52666
ex p 52571
d e</w> 52547
sh ot</w> 52440
is e</w> 52430
- year-old</w> 52377
un der 52226
num ber</w> 52160
ig n</w> 52127
f ac 52082
ne w 52072
Scot land</w> 52063
ist er</w> 52030
id e</w> 52020
f ree</w> 52010
t t 52001
ci al</w> 51946
man ag 51921
L ea 51909
th ink</w> 51873
sid ent</w> 51810
o k 51785
Un ited</w> 51749
l ar 51745
C ar 51715
th s</w> 51699
s ure</w> 51547
sea son</w> 51455
st ed</w> 51430
sec ond</w> 51280
cont in 51076
s y 51038
iti es</w> 50907
l ine</w> 50588
f er 50516
ic al</w> 50472
c ur 50398
w in</w> 50055
L e 50007
i a</w> 49990
l in 49984
ne x 49847
c entr 49841
em b 49590
b eli 49557
j ur 49530
g ame</w> 49511
S he</w> 49503
S h 49455
an ds</w> 49301
se e</w> 49276
p s</w> 48941
g ood</w> 48912
C om 48843
nex t</w> 48728
v en</w> 48700
&apos; ve</w> 48596
b ur 48523
w an 48336
com pl 48307
ti es</w> 48111
h ear 48080
un der</w> 48035
re ad 47975
f our</w> 47936
ti c</w> 47932
re l 47821
coun try</w> 47725
p ed</w> 47716
a w 47697
s ome 47630
por ted</w> 47568
st ri 47523
v ot 47432
no w 47338
or t</w> 47301
su ch</w> 47280
st ru 47272
C ity</w> 47260
A s 46961
wee k</w> 46862
er ed</w> 46807
t al 46759
form er</w> 46733
L on 46717
m ak 46516
sp ec 46384
d uring</w> 46167
bu il 46065
u c 46052
ac h 45819
re g 45639
clu b</w> 45555
d ers</w> 45516
mu ch</w> 45515
cl a 45417
b re 45351
est er</w> 45001
dre n</w> 44963
f un 44924
d ri 44811
esti g 44731
g ed</w> 44620
b us 44389
f ul 44379
W or 44356
ad i 44356
w on</w> 44329
es day</w> 44262
w ant</w> 44246
st e 44200
resp on 44113
ne ed</w> 43941
m es</w> 43940
inclu ding</w> 43748
at h</w> 43672
grou p</w> 43660
ar ound</w> 43647
fi el 43612
Lea gue</w> 43574
re t 43468
hi gh 43460
C oun 43401
al e</w> 43272
pub lic</w> 43211
e f</w> 43199
ow ever</w> 43135
cal led</w> 42987
os p 42957
pr ot 42845
pl ay</w> 42822
s ing</w> 42812
st at 42755
eal th</w> 42754
Lon don</w> 42721
in cre 42720
p ut</w> 42703
ati ve</w> 42597
pol iti 42568
bo x</w> 42431
j o 42420
l ing</w> 42344
k ick</w> 42325
M s</w> 42288
sh ire</w> 42268
M an 42266
di rec 42242
b or 42237
ig h</w> 42192
inv estig 42175
n s</w> 42142
d r 42091
l en 42058
go t</w> 41989
is su 41675
ci l</w> 41637
chil dren</w> 41587
b ro 41561
s ol 41515
ou l</w> 41505
in d</w> 41328
on om 41263
T w 41253
An d</w> 41102
in c 41057
f a 41003
in jur 40853
t le</w> 40800
a ff 40792
h op 40727
famil y</w> 40644
emp t</w> 40620
fin al</w> 40560
Jo h 40540
R e 40370
bot h</w> 40334
m ed</w> 40276
v er</w> 40140
k ee 40138
m ay</w> 40129
hel p</w> 40012
enc y</w> 40012
t re 39943
d em 39843
is ion</w> 39823
&apos; re</w> 39765
S p 39713
th ese</w> 39691
re port</w> 39679
per i 39630
p as 39613
C or 39600
us si 39543
ed ed</w> 39505
m er 39488
tak en</w> 39431
M on 39427
fu l</w> 39345
ut e</w> 39317
ain ed</w> 39307
b as 39292
fi ve</w> 39060
m en</w> 39012
Pol ice</w> 38999
su b 38979
1 0</w> 38968
B ar 38833
o m</w> 38773
l es</w> 38757
read y</w> 38752
cam pa 38606
l y 38577
m er</w> 38547
tr an 38547
to p</w> 38488
I s 38454
ec onom 38418
re sul 38367
il ity</w> 38293
E U</w> 38259
N ew 38129
mp i 38104
i ght</w> 38033
re ally</w> 38018
il li 38000
at ur 37966
li fe</w> 37875
p ow 37824
t ook</w> 37811
t ter</w> 37800
bus in 37794
k now</w> 37775
sup port</w> 37597
op er 37595
for d</w> 37585
l ater</w> 37538
t a 37529
G re 37369
in a</w> 37327
2 0</w> 37263
de al</w> 37247
k now 37229
C ha 37182
i an</w> 37159
win s</w> 37038
f ic 37032
or d</w> 36982
c c 36903
b an 36877
P re 36848
follow ing</w> 36845
def en 36843
u al</w> 36838
play ers</w> 36798
ther n</w> 36773
cur ren 36695
cl os 36634
par t 36501
M e 36460
ver s 36446
I f</w> 36413
re land</w> 36348
sp ok 36287
ou se</w> 36258
I reland</w> 36257
b est</w> 36256
centr e</w> 36253
a ir 36238
o p</w> 36197
th or 36156
&apos; m</w> 36133
c ed</w> 36102
par ty</w> 36046
c u 36040
ch an 35982
cl ear</w> 35944
st s</w> 35937
F r 35917
s es</w> 35844
sti tu 35835
ab our</w> 35827
D av 35772
ch i 35768
an other</w> 35716
Bri tish</w> 35656
h ol 35616
c a 35608
to o</w> 35580
att ac 35538
b ed</w> 35433
mon ths</w> 35395
w ard</w> 35382
d ic 35270
am p 35223
or g 35202
i tion</w> 35146
l ev 35119
r oss</w> 35082
pl an 34978
si ble</w> 34965
th re 34956
H owever</w> 34949
un ity</w> 34941
c ame</w> 34937
s w 34928
em s</w> 34898
di ed</w> 34825
app ear 34807
e ff 34775
loc al</w> 34774
o y 34716
res s</w> 34648
con cer 34644
is hed</w> 34610
cont ro 34569
ol og 34566
p e</w> 34522
ec u 34487
H ar 34478
r un 34439
w ays</w> 34383
d n</w> 34365
e ve</w> 34340
ar ds</w> 34312
ar re 34283
t - 34265
l ess</w> 34223
cour t</w> 34214
y n</w> 34192
m ov 34178
el s</w> 34178
sh ow 34148
th ough</w> 34101
an y 34084
su cc 34049
diff er 34024
ar ly</w> 33935
gh ts</w> 33766
R ussi 33661
y oun 33631
k er</w> 33591
Wor ld</w> 33584
U ni 33578
v en 33511
l ong</w> 33411
ul t</w> 33408
u res</w> 33396
inv ol 33394
mon th</w> 33380
v e 33329
ous ly</w> 33304
G r 33301
re tur 33294
sa me</w> 33231
A tt 33183
ma j 33157
politi c 33151
comp any</w> 33124
a way</w> 33118
sel f</w> 33106
t ure</w> 33065
f ur 33062
s m 33031
cla im 33000
L abour</w> 32980
n or 32864
bo dy</w> 32858
S y 32802
p er</w> 32781
dev el 32708
g es</w> 32648
1 0 32634
f ri 32626
out side</w> 32604
ch ang 32552
foot ed</w> 32524
si x</w> 32499
Scot tish</w> 32499
T hat</w> 32461
our s</w> 32437
S outh</w> 32397
c ase</w> 32379
G er 32361
M in 32312
d ays</w> 32211
g ener 32207
h u 32169
on es</w> 32141
ac ross</w> 32138
d en 32077
se en</w> 32036
i m</w> 31956
st ud 31919
mar k 31802
w ent</w> 31704
P r 31701
as s 31625
ti mes</w> 31620
pro duc 31598
spok es 31567
ea d</w> 31566
lo t</w> 31544
ti l</w> 31536
il led</w> 31484
o re 31469
O ne</w> 31430
stru c 31418
1 ;</w> 31335
&#9 1;</w> 31335
3 ;</w> 31314
&#9 3;</w> 31314
y our</w> 31288
i ous</w> 31271
wom en</w> 31265
F oul</w> 31263
c ity</w> 31228
c an 31208
are a</w> 31184
Euro pe 31177
Att empt</w> 31156
s us 31093
C up</w> 31074
en d 31047
pro c 31018
w r 30996
est s</w> 30978
P e 30964
ru m 30963
vi ew</w> 30958
p ing</w> 30939
ic an</w> 30895
mon ey</w> 30882
c es</w> 30844
th ir 30694
be g 30656
chan ge</w> 30651
s ite</w> 30568
vic es</w> 30561
ann oun 30470
f ail 30457
gi ven</w> 30454
anc es</w> 30440
li er</w> 30405
new s</w> 30396
ain ing</w> 30380
op en 30374
p ic 30351
Europe an</w> 30319
is h 30317
k ey</w> 30229
in t 30217
id ent</w> 30153
us ing</w> 30151
h ar 30150
g a 30122
al ready</w> 30115
ec h 29997
dec ision</w> 29980
un til</w> 29934
h ere</w> 29919
por ts</w> 29886
id ence</w> 29842
pos ition</w> 29832
re plac 29787
so ci 29746
lea der</w> 29740
pro f 29575
su gg 29514
wor king</w> 29508
fiel d</w> 29484
M a 29449
ha ving</w> 29446
cl ose</w> 29443
t ain</w> 29435
t ar 29391
s k 29384
li k 29371
st ate</w> 29369
ain s</w> 29364
im port 29358
osp ital</w> 29349
ic a</w> 29322
ac tion</w> 29310
o d 29230
rec ei 29226
S un 29179
ut es</w> 29062
h igh</w> 29034
att ack</w> 29028
com pe 29024
for m</w> 29021
m ed 29020
C ol 28967
ever y 28959
m id 28931
ag re 28931
af f</w> 28863
h ard</w> 28824
gre at</w> 28811
M ay</w> 28778
ex pl 28711
s it 28617
pro b 28609
wom an</w> 28584
ch ester</w> 28576
ch ed</w> 28550
f f</w> 28520
n ess</w> 28504
ser vices</w> 28456
comm it 28433
ei ght</w> 28421
st ory</w> 28406
fur ther</w> 28372
ur ity</w> 28358
t en</w> 28350
go al</w> 28302
campa ign</w> 28277
star t</w> 28275
pre vi 28232
wh e 28207
n ever</w> 28201
i ed</w> 28100
en ds</w> 28079
play ed</w> 28058
sh ow</w> 28014
Dav id</w> 28012
J u 28008
ap pro 27984
al ity</w> 27962
se a</w> 27946
d eli 27938
tri es</w> 27917
mil li 27902
B l 27898
at s</w> 27868
re qu 27837
hal len 27830
A f 27819
mis sed</w> 27807
201 5</w> 27804
enti al</w> 27741
ear ly</w> 27737
b ri 27726
ed s</w> 27722
st er</w> 27678
m ot 27674
m it 27661
mil it 27626
T u 27618
de ath</w> 27568
sa ying</w> 27537
su m 27526
n am 27503
un i 27500
ac ti 27494
be tter</w> 27484
bi g</w> 27463
b loc 27459
h ealth</w> 27437
ste m</w> 27372
ag ain</w> 27348
ut ure</w> 27341
vers ity</w> 27290
r ed</w> 27268
ru n</w> 27261
e ts</w> 27254
ni ght</w> 27252
poin ts</w> 27243
el ection</w> 27212
mo ve</w> 27178
stat ement</w> 27120
3 0</w> 27086
f il 27084
S atur 27065
Au str 27062
f ace</w> 27043
Pre sident</w> 27037
l it 27030
devel op 27027
d ra 26961
Austr ali 26938
des cri 26841
g est</w> 26799
st aff</w> 26799
201 4</w> 26742
emb ers</w> 26697
g er</w> 26693
f uture</w> 26670
de pen 26659
W est</w> 26651
B rit 26635
r ul 26633
au thor 26631
manag er</w> 26609
loo k</w> 26604
Satur day</w> 26601
al leg 26553
C am 26534
g ames</w> 26532
m ents</w> 26493
hel d</w> 26483
g row 26454
l ost</w> 26400
Cha mpi 26396
F ri 26343
l ong 26338
is m</w> 26332
ear ch</w> 26320
gr am 26320
ec ts</w> 26317
p ast</w> 26316
A s</w> 26309
N ew</w> 26293
ever y</w> 26288
en s</w> 26286
W el 26284
mak ing</w> 26283
fe w</w> 26275
sch ool</w> 26250
A mer 26221
re fer 26212
min ister</w> 26207
st or 26175
du e</w> 26137
s ha 26111
ent ly</w> 26107
contin u 26094
chi ef</w> 26084
poin t</w> 26082
ag es</w> 26045
f ig 26031
mat ch</w> 26025
with out</w> 25975
o ol 25959
thir d</w> 25954
tak ing</w> 25953
busin ess</w> 25947
d ro 25937
re lea 25933
f ar</w> 25932
as h</w> 25880
youn g</w> 25878
c hallen 25866
J an 25866
me dia</w> 25858
con sid 25844
dis c 25808
li m 25788
in form 25763
for ward</w> 25762
A fr 25724
ag o</w> 25715
Sy ri 25702
know n</w> 25668
pr is 25662
cri tic 25637
beli ev 25613
i e</w> 25612
id ed</w> 25518
e qu 25482
whe ther</w> 25469
j ect</w> 25432
hap pen 25428
se e 25424
c are</w> 25412
as h 25410
B r 25406
sy stem</w> 25378
er ing</w> 25376
Man chester</w> 25363
pol ic 25308
col l 25252
d in 25242
t e</w> 25223
Sun day</w> 25223
a z 25179
rum p</w> 25165
ul ar</w> 25160
T rump</w> 25095
n ers</w> 25080
exp ected</w> 25031
inter national</w> 24991
O n</w> 24906
th ought</w> 24873
d - 24871
serv ice</w> 24858
import ant</w> 24835
sup ported</w> 24807
S ec 24785
pl y</w> 24766
un e</w> 24752
ex ecu 24749
A c 24735
k illed</w> 24733
a il</w> 24690
b n</w> 24680
in s</w> 24646
on ship</w> 24613
d ge</w> 24596
b en 24525
ro w</w> 24519
foot ball</w> 24501
C our 24498
gi ve</w> 24481
R ob 24474
con tr 24413
an ts</w> 24362
m embers</w> 24353
be h 24334
M ic 24321
th ers</w> 24275
min utes</w> 24203
ex c 24198
de t 24197
201 6</w> 24169
hap p 24139
enc es</w> 24122
c ar</w> 24108
lik ely</w> 24100
j oin 24082
sc or 24078
Y ou</w> 24063
as ked</w> 24062
politic al</w> 24055
org an 24035
on - 23994
lea d</w> 23989
su ff 23982
e ach</w> 23968
m ight</w> 23963
Nor thern</w> 23957
Joh n</w> 23936
19 9 23926
some thing</w> 23902
5 0</w> 23867
c ou 23859
pub l 23856
e g 23832
re as 23825
stitu tion</w> 23816
1 2</w> 23796
ag ed</w> 23789
o s</w> 23786
ee l</w> 23786
d am 23753
ad v 23732
beh ind</w> 23729
est ed</w> 23723
M o 23702
differ ent</w> 23678
a th 23662
st an 23611
Fri day</w> 23600
pro gram 23577
o d</w> 23570
el ec 23471
al ways</w> 23447
l an 23429
bas ed</w> 23400
p ay</w> 23387
dev ice</w> 23386
i er</w> 23366
ar ri 23347
Nor th</w> 23345
1 5</w> 23332
Ch ina</w> 23332
w at 23301
Q u 23293
sec urity</w> 23288
app oin 23264
0 ,000</w> 23245
bec ome</w> 23245
d oc 23239
F or 23234
diff ic 23205
W ed 23182
p op 23153
al low 23137
com ing</w> 23134
Wh en</w> 23133
p ool</w> 23129
ep t 23119
t ory</w> 23110
pl oy 23108
re gi 23079
min ist 23050
o l</w> 23039
de b 23033
d one</w> 23028
a k</w> 23023
D e 23019
d en</w> 23015
sa ved</w> 23004
P rem 22943
pos sible</w> 22934
Cour t</w> 22926
depen d 22912
G u 22904
mis sion</w> 22899
H is</w> 22864
j ud 22861
l at 22839
z e</w> 22826
Wed n 22819
ne y</w> 22750
fin d</w> 22721
le ar 22695
Wedn esday</w> 22690
ch es</w> 22677
a head</w> 22616
at a</w> 22608
m ust</w> 22596
v al 22566
k ers</w> 22556
us ti 22516
tran s 22503
la w 22496
n ear</w> 22472
t ors</w> 22390
Wel sh</w> 22359
ic s</w> 22321
t ers</w> 22304
Mon day</w> 22301
n ot 22244
G l 22244
it ing</w> 22236
hear d</w> 22225
row n</w> 22219
l s</w> 22195
coun cil</w> 22143
f el 22126
fi ed</w> 22116
i als</w> 22114
S ub 22112
A t</w> 22091
em ents</w> 22087
Brit ain</w> 22086
leg al</w> 22077
sp ort</w> 22062
si sted</w> 22053
li ght</w> 22052
contin ue</w> 22042
s ing 22040
vot e</w> 22032
th ings</w> 22025
h it</w> 22021
b ig 21998
pre sident</w> 21993
T r 21979
Min ister</w> 21958
S er 21948
O ff 21943
v ir 21882
b it</w> 21873
r is</w> 21852
ret ary</w> 21823
incre as 21817
do es</w> 21805
an t 21756
ever al</w> 21743
ri ed</w> 21719
ex peri 21703
with in</w> 21697
ab ly</w> 21696
p ite</w> 21689
c are 21652
en g 21648
sa w</w> 21648
rec ent</w> 21628
vic ti 21614
pl ans</w> 21598
N ational</w> 21592
D on 21575
ear lier</w> 21569
fr on 21561
i o</w> 21558
Tu esday</w> 21557
li am 21551
si ons</w> 21548
adi o</w> 21529
investig ation</w> 21529
te e</w> 21521
m ur 21511
pow er</w> 21510
pa ren 21495
mark et</w> 21381
n er 21348
a ir</w> 21344
so cial</w> 21317
play er</w> 21299
si st 21287
M at 21230
m or 21225
loo king</w> 21184
u r</w> 21153
c el 21130
milli on</w> 21126
inform ation</w> 21099
la w</w> 21090
en ough</w> 21038
d ou 21015
coun tries</w> 21007
m ee 20997
invol ved</w> 20982
h ospital</w> 20972
ist s</w> 20953
spokes man</w> 20911
Th ur 20900
direc tor</w> 20887
J une</w> 20836
w a 20832
ni fic 20831
h ours</w> 20784
re ported</w> 20762
tr av 20730
pos ed</w> 20718
Me dia</w> 20716
u ary</w> 20708
Y or 20700
fir e</w> 20688
T own</w> 20686
s day</w> 20599
il i 20596
g et 20595
im p 20584
wan ted</w> 20577
lev el</w> 20575
v al</w> 20563
resul t</w> 20559
ev idence</w> 20534
al y 20523
announ ced</w> 20514
D i 20463
li ve</w> 20460
1 . 20433
m ig 20430
A b 20429
as s</w> 20421
fir m</w> 20407
G e 20396
t or 20362
Thur sday</w> 20346
s ent</w> 20345
v ely</w> 20339
or ding</w> 20334
maj or</w> 20333
or ity</w> 20325
wee ks</w> 20319
en ded</w> 20304
lit tle</w> 20303
B el 20296
lea st</w> 20286
in du 20284
t ow 20275
execu tive</w> 20233
fo re 20218
cu st 20212
m ent 20198
Jan uary</w> 20197
ful l</w> 20150
rec ord</w> 20147
all s</w> 20147
di v 20146
h ouse</w> 20124
in qu 20101
star ted</w> 20100
inv est 20076
Mar ch</w> 20053
201 2</w> 20045
J ames</w> 19977
beli eve</w> 19972
kee p</w> 19950
S o</w> 19927
on ed</w> 19923
201 3</w> 19921
for ce</w> 19919
S u 19877
r ac 19856
P ri 19846
con f 19791
p ati 19786
F or</w> 19779
descri bed</w> 19760
t ech 19758
W illi 19746
y - 19744
im pro 19741
m om 19678
er n</w> 19673
T ur 19669
sch ool 19662
A le 19658
ex am 19640
play ing</w> 19629
p o 19576
sig nific 19557
replac es</w> 19548
st and</w> 19537
compe ti 19525
do ing</w> 19523
p ot 19522
C l 19489
ep t</w> 19482
om in 19477
s qu 19443
ab ility</w> 19428
B ur 19415
D r</w> 19407
F i 19359
con di 19339
T V</w> 19336
on y</w> 19330
h om 19314
pri l</w> 19298
A pril</w> 19296
Fr ance</w> 19296
Coun cil</w> 19278
vi ol 19275
Euro pe</w> 19274
Sub stitution</w> 19246
di dn</w> 19187
ing ham</w> 19175
wh y</w> 19119
la un 19108
ati c</w> 19096
y et</w> 19064
ru g 19058
ro le</w> 19048
diffic ult</w> 19034
play back</w> 19033
1 6</w> 19012
s everal</w> 18998
fi gh 18987
per son</w> 18959
o - 18931
program me</w> 18913
bloc ked</w> 18908
y m 18882
ne g 18881
r s</w> 18860
0 m</w> 18847
em ploy 18840
A d 18835
at ely</w> 18818
ev ent</w> 18811
str ong</w> 18808
sig ned</w> 18808
vi ew 18792
y n 18781
o ot 18766
lea ve</w> 18743
op port 18734
E l 18716
re pres 18706
s even</w> 18693
ne eded</w> 18672
ot i 18669
ess es</w> 18655
er g 18649
en ding</w> 18642
for man 18633
ac coun 18629
si c</w> 18605
1 1</w> 18582
re v 18563
p ay 18562
com es</w> 18541
jo b</w> 18535
t ain 18490
Tw o</w> 18490
issu e</w> 18487
E x 18482
or der</w> 18481
ris k</w> 18481
re et</w> 18463
w e 18418
it ter</w> 18411
D ec 18405
vic tory</w> 18405
milit ary</w> 18395
am ong</w> 18393
B re 18373
an ti 18362
. . 18326
al most</w> 18321
f our 18320
offic ers</w> 18312
p i 18307
ro ad</w> 18296
Af ter</w> 18295
ter m</w> 18291
olog y</w> 18285
ser ies</w> 18278
Con serv 18261
an k</w> 18239
be at</w> 18195
Coun ty</w> 18179
d ate</w> 18156
op en</w> 18150
ev en 18142
acc ording</w> 18141
b s</w> 18133
per forman 18110
M rs</w> 18083
O ly 18080
f re 18073
l ate</w> 18049
g ir 18027
c eded</w> 18026
N ov 18023
P s</w> 18007
tr ying</w> 18002
organ is 17997
qu ar 17993
ta x</w> 17962
o ve</w> 17959
O c 17943
all ing</w> 17929
cor ner</w> 17919
ar t</w> 17909
os ts</w> 17906
Uni versity</w> 17901
par tic 17899
i gh 17888
pri v 17888
ic es</w> 17879
are as</w> 17864
get ting</w> 17864
to ge 17847
proc ess</w> 17839
contro l</w> 17827
Ju ly</w> 17824
comm unity</w> 17781
c ast 17749
lo b 17745
Russi a</w> 17734
ha el</w> 17730
an cial</w> 17712
P ro 17699
re ports</w> 17694
gr ound</w> 17693
er y</w> 17682
toge ther</w> 17663
id enti 17652
retur n</w> 17648
ed uc 17626
j our 17618
c as 17578
f eel</w> 17554
per s 17548
ul l</w> 17523
w ater</w> 17521
in st 17498
in depend 17489
en ted</w> 17487
school s</w> 17446
1 8</w> 17435
H S</w> 17420
ex tr 17401
il s</w> 17392
w el 17387
S ept 17366
l am 17363
r ound</w> 17360
r an</w> 17341
Sept ember</w> 17340
offic ials</w> 17320
w rit 17315
de fe 17297
ou l 17287
W hat</w> 17278
&apos; ll</w> 17259
co ach</w> 17248
inc ident</w> 17241
h er 17232
i or</w> 17226
arre sted</w> 17201
f oc 17181
t ot 17180
r ation</w> 17174
sp e 17126
Oly mp 17123
buil ding</w> 17119
si b 17101
ap pe 17084
Australi a</w> 17060
h un 17058
acc used</w> 17044
d ata</w> 17040
an e</w> 17035
0 s</w> 17029
am a</w> 17013
happen ed</w> 16987
econom y</w> 16953
.. .</w> 16938
Prem ier</w> 16928
mee ting</w> 16909
S m 16878
at or</w> 16878
rel ati 16878
S ha 16876
i de 16859
il y</w> 16857
h um 16845
f ans</w> 16840
ou gh 16824
me ans</w> 16817
1 4</w> 16804
scor ed</w> 16797
p ut 16781
ir ed</w> 16758
f ast</w> 16751
relea sed</w> 16737
author ities</w> 16735
qu ali 16726
c ul 16706
curren t</w> 16696
ot s</w> 16685
pen al 16676
sh own</w> 16666
defen sive</w> 16650
D un 16632
A n</w> 16622
fig ures</w> 16619
ef for 16617
t able</w> 16615
Dec ember</w> 16611
am s</w> 16609
Mic hael</w> 16562
ben ef 16538
m ain 16533
ha n</w> 16528
pl an</w> 16511
u ally</w> 16498
tech n 16493
ap er</w> 16487
L ast</w> 16478
lat est</w> 16462
lea gue</w> 16439
au l</w> 16419
ad d 16414
ne t</w> 16408
comp an 16403
y al</w> 16341
Tw itter</w> 16327
re al</w> 16321
e e</w> 16309
cour se</w> 16305
bre ak</w> 16302
chil d</w> 16300
w ing</w> 16296
S ome</w> 16295
m ain</w> 16285
sum mer</w> 16279
p ped</w> 16266
sa fe 16266
qu esti 16264
injur y</w> 16257
F ren 16255
con fir 16255
Nov ember</w> 16249
o thers</w> 16238
b an</w> 16236
bo ard</w> 16231
on ce</w> 16227
st age</w> 16217
s ci 16193
r ace</w> 16192
recei ved</w> 16182
se x</w> 16178
g en 16172
fail ed</w> 16142
M or 16131
t ro 16116
P h 16107
M id 16090
ic t</w> 16086
c ost</w> 16079
c ent 16075
H ol 16073
le m</w> 16052
ing ton</w> 16052
1 8 16050
s ent 16035
pr os 16023
sp ea 16009
m es 16002
Ch ar 15978
liam ent</w> 15967
pa id</w> 15960
c ut</w> 15950
ti n</w> 15934
fin ancial</w> 15931
ch ance</w> 15928
ex t 15924
chang es</w> 15923
Ch el 15918
b and</w> 15913
gener al</w> 15904
J ones</w> 15896
t our 15865
Afr ica</w> 15864
ou th 15863
e y 15858
for ces</w> 15858
R adio</w> 15847
N HS</w> 15836
t y 15833
ol e</w> 15827
ser ious</w> 15827
Cor ner</w> 15813
ar r 15807
2 5</w> 15794
tri al</w> 15786
b ac 15784
en n 15784
In dia</w> 15768
bec ame</w> 15752
es tion</w> 15744
2 - 15739
ne t 15736
d el 15730
M ur 15730
Oc to 15725
ful ly</w> 15719
hu ge</w> 15712
in fl 15711
ell ing</w> 15706
re li 15703
As sisted</w> 15702
C o 15701
rem ain</w> 15693
Octo ber</w> 15683
over ed</w> 15671
ch ing</w> 15654
w eb 15646
si m 15623
m ea 15622
m ing</w> 15599
1 3</w> 15598
Car di 15592
sm all</w> 15590
w id 15578
w al 15519
M us 15512
curren tly</w> 15512
c y 15503
Li ver 15498
fron t</w> 15478
prob lem</w> 15476
clos ed</w> 15446
hop e</w> 15444
ru p 15439
usti ce</w> 15437
econom ic</w> 15422
big gest</w> 15416
l ands</w> 15408
19 8 15390
b ad</w> 15388
e ty</w> 15382
re st</w> 15367
p ur 15354
wee k 15353
Cardi ff</w> 15343
sel ves</w> 15341
ed ly</w> 15335
char ge</w> 15301
l ish</w> 15294
1 7</w> 15287
P aul</w> 15278
t own</w> 15270
Par k</w> 15266
d ea 15252
str y</w> 15228
W est 15224
pro bl 15212
al - 15211
Au g 15209
Syri a</w> 15183
c au 15181
ec h</w> 15179
n ec 15173
ti tle</w> 15169
mit ted</w> 15164
sh or 15160
stan ding</w> 15159
polic y</w> 15157
201 1</w> 15153
port ers</w> 15146
b el 15145
at ors</w> 15143
c anc 15137
issu es</w> 15121
imp act</w> 15120
ill ing</w> 15112
u ation</w> 15096
Liver pool</w> 15092
beg an</w> 15087
Con ceded</w> 15084
reg ul 15077
attac ks</w> 15067
1 5 15066
vi de 15061
h im 15051
fun ding</w> 15051
w ar</w> 15035
u tion</w> 15033
th em 15025
ot e</w> 15014
des pite</w> 15013
ob s</w> 15001
me di 15000
pos iti 14984
signific ant</w> 14970
win ning</w> 14969
b ir 14961
war ds</w> 14954
m ember</w> 14953
lea ders</w> 14946
c k</w> 14944
le t</w> 14929
gr ap 14920
w ed 14907
ex per 14895
F eb 14885
c ard</w> 14872
Aug ust</w> 14866
ne eds</w> 14857
Feb ru 14851
h on 14841
pres sure</w> 14841
inclu de</w> 14839
Febru ary</w> 14833
ran ge</w> 14832
show ed</w> 14829
incre ase</w> 14818
div id 14816
compl et 14802
st and 14801
P al 14798
ga ve</w> 14794
R ep 14779
ac hi 14778
R ic 14771
M P</w> 14764
W il 14763
part ment</w> 14757
to day</w> 14737
st op</w> 14736
B e 14726
pro per 14720
al d</w> 14710
in es</w> 14691
of ten</w> 14663
probl ems</w> 14663
previ ous</w> 14662
f - 14659
D a 14648
pro ject</w> 14648
4 0</w> 14642
I ris 14642
y d 14641
performan ce</w> 14632
Ge or 14626
Ch ris</w> 14624
u l</w> 14613
sh ar 14605
Fren ch</w> 14591
cust om 14590
m other</w> 14568
ch o 14568
f ar 14562
m em 14558
W at 14554
ra ised</w> 14548
l er</w> 14532
av ail 14532
Mar k</w> 14501
2 1</w> 14492
R es 14467
ur y</w> 14464
sec on 14456
C an 14454
pro mis 14454
offic ial</w> 14454
di es</w> 14450
F ac 14444
ov ers</w> 14429
si on 14420
en sure</w> 14403
go als</w> 14398
oc r 14398
peri od</w> 14378
Rep ub 14378
hi story</w> 14377
L u 14366
in ten 14350
cri min 14328
w ea 14326
du ce</w> 14315
In ter 14314
grou ps</w> 14312
ac hed</w> 14308
c le 14302
tr ad 14292
b om 14291
al ong</w> 14283
n ame</w> 14280
ra ther</w> 14262
on line</w> 14252
at ure</w> 14250
claim ed</w> 14248
ti onal</w> 14245
re - 14220
Joh n 14219
Cam er 14212
prov ide</w> 14211
br ought</w> 14208
agre ed</w> 14182
oun ds</w> 14178
Is lam 14178
comm un 14153
ap pl 14150
d on 14122
run ning</w> 14114
Russi an</w> 14110
fi ght</w> 14102
b ers</w> 14080
st op 14076
confir med</w> 14075
ri ghts</w> 14069
tr aining</w> 14058
in iti 14023
j obs</w> 14009
spec i 13997
mes sa 13993
Champi onship</w> 13987
ac y</w> 13984
w ide</w> 13980
is ing</w> 13978
concer ns</w> 13978
S ir</w> 13969
qu ite</w> 13933
appear ed</w> 13921
ous ands</w> 13913
educ ation</w> 13900
st on</w> 13897
lar ge</w> 13897
indu stry</w> 13896
sc en 13888
mur der</w> 13875
compan ies</w> 13853
br ing</w> 13851
al though</w> 13850
res earch</w> 13832
E ast</w> 13830
tre at 13830
safe ty</w> 13828
b ack 13824
Th om 13815
care er</w> 13810
sp ent</w> 13808
D em 13777
oc k</w> 13775
S ch 13759
k y</w> 13759
an i 13755
re view</w> 13740
O b 13734
Amer ican</w> 13714
can di 13710
P er 13709
A ll</w> 13698
c all</w> 13693
cha ir 13693
wor ked</w> 13675
B er 13669
h and 13652
avail able</w> 13640
d ang 13631
M Ps</w> 13624
vir on 13622
H ouse</w> 13616
Bre x 13610
N e 13604
to m</w> 13588
soci ation</w> 13584
S e 13580
Ro ad</w> 13572
par ed</w> 13568
1 00</w> 13567
believ ed</w> 13565
Sm ith</w> 13551
mom ent</w> 13546
b ul 13521
fa ther</w> 13519
succ ess 13516
ill s</w> 13510
Iris h</w> 13509
B o 13505
paren ts</w> 13496
ec e</w> 13493
Ger many</w> 13493
claim s</w> 13492
st - 13491
loo ked</w> 13456
2 2</w> 13430
P or 13426
du m</w> 13425
challen ge</w> 13422
h an 13421
ris e</w> 13420
lea ding</w> 13414
I S</w> 13413
grow th</w> 13409
tr ac 13406
stru gg 13403
el led</w> 13402
previ ously</w> 13402
rem ains</w> 13401
0 - 13400
s ex 13397
ter ms</w> 13384
resul ts</w> 13384
B ra 13383
famil ies</w> 13365
acc ess</w> 13354
Brex it</w> 13316
li ves</w> 13312
car ried</w> 13310
M er 13294
D er 13293
experi ence</w> 13287
ac tu 13285
re f 13275
sch em 13266
tow ards</w> 13266
ail s</w> 13249
b oss</w> 13247
as sa 13239
ar gu 13235
di st 13229
ist an</w> 13213
ha m 13212
i ons</w> 13208
squ ad</w> 13205
lob al</w> 13203
&apos; d</w> 13191
compl e 13176
f ood</w> 13173
es sion</w> 13144
sp or 13138
b ud 13124
S t</w> 13124
201 0</w> 13123
int ro 13120
fel t</w> 13117
Rob er 13114
sit uation</w> 13109
M ore</w> 13098
sen ior</w> 13082
fil m</w> 13081
ir y</w> 13075
f av 13067
in f 13046
am oun 13046
pati ents</w> 13033
l os 13032
g y 13027
ail ed</w> 13004
f y</w> 12998
bot tom</w> 12994
An dre 12992
w it 12979
in divid 12978
cas es</w> 12972
g ing</w> 12962
2 . 12962
f ell</w> 12951
g y</w> 12949
en dum</w> 12944
a ver 12937
Gl as 12931
l in</w> 12913
a h 12905
char ged</w> 12902
h ic 12895
v ol 12884
wor th</w> 12883
wan ts</w> 12883
h old</w> 12882
web site</w> 12877
M al 12874
el low</w> 12874
him self</w> 12862
penal ty</w> 12859
W al 12857
g l 12856
ment al</w> 12853
victi ms</w> 12851
can not</w> 12847
tot al</w> 12844
def ence</w> 12840
c at 12830
i er 12827
E ar 12822
vis ion</w> 12818
ul ation</w> 12813
eb ook</w> 12812
g ress</w> 12811
M ad 12804
pl ea 12803
2 4</w> 12799
hel ped</w> 12796
y an</w> 12774
S port</w> 12768
pot ential</w> 12768
B S 12759
b ar 12758
it ors</w> 12757
Par ty</w> 12757
r ap 12752
bro ad 12740
h or 12736
nam ed</w> 12729
Ro yal</w> 12724
em y</w> 12716
defe at</w> 12712
n ine</w> 12706
ati ves</w> 12703
d ings</w> 12702
Com m 12691
offic er</w> 12685
ra in</w> 12680
injur ed</w> 12680
r ate</w> 12677
i k 12677
en ter 12667
any one</w> 12666
Willi ams</w> 12662
al ist</w> 12643
ach ing</w> 12635
opport unity</w> 12630
B ro 12619
1 9</w> 12616
tur ned</w> 12614
refer endum</w> 12608
f act</w> 12607
h and</w> 12603
Fac ebook</w> 12602
spec ial</w> 12600
t ou 12597
r or 12583
si mil 12579
t a</w> 12569
l and 12567
Chel sea</w> 12565
g one</w> 12563
develop ment</w> 12557
li ving</w> 12552
neg oti 12539
1 - 12532
ati on 12499
s li 12489
cou ple</w> 12484
gh ter</w> 12482
go w</w> 12478
off er</w> 12477
pris on</w> 12466
attac king</w> 12463
New s</w> 12461
u es</w> 12437
Camer on</w> 12418
ge ts</w> 12417
b al 12414
y s 12402
ast er</w> 12400
e br 12396
wh ose</w> 12394
tea ms</w> 12393
ag ency</w> 12388
mp ion</w> 12385
duc ed</w> 12375
bre ak 12360
li g 12354
wor kers</w> 12349
ter min 12347
Glas gow</w> 12339
R i 12338
dou b 12336
St reet</w> 12315
cap ital</w> 12294
rec or 12293
wh ole</w> 12283
or ig 12282
open ing</w> 12282
war ned</w> 12249
d ead</w> 12238
ve hic 12237
sus p 12237
W ith</w> 12230
a h</w> 12224
contr act</w> 12214
ban k</w> 12198
wor ks</w> 12197
ca used</w> 12197
an aly 12193
op position</w> 12190
st ay</w> 12187
inter est</w> 12184
hum an</w> 12177
pos t</w> 12170
b att 12147
B ir 12140
every one</w> 12130
af t</w> 12129
enc ed</w> 12126
ec tive</w> 12116
rec og 12112
3 - 12111
2 3</w> 12102
Ch in 12102
d es</w> 12097
BS T</w> 12095
stud y</w> 12046
off ice</w> 12037
M T</w> 12036
S o 12033
H al 12014
f all</w> 11962
bor n</w> 11951
tr ade</w> 11950
ed er 11949
ph one</w> 11941
join ed</w> 11941
pro mot 11935
min ute</w> 11935
ul ti 11933
vide o</w> 11917
al low</w> 11911
pri me</w> 11909
su per 11904
E ver 11895
O r 11892
tr u 11891
happ y</w> 11886
st re 11880
stud ents</w> 11880
ad mitted</w> 11868
char ges</w> 11866
B or 11865
i ally</w> 11856
r ates</w> 11853
bri dge</w> 11851
prov id 11844
Geor ge</w> 11843
allow ed</w> 11828
dis appoin 11814
c ris 11812
ph ot 11807
y a</w> 11798
regi on</w> 11789
p us 11787
c ir 11786
some one</w> 11781
sh ort</w> 11778
cha mpion</w> 11773
J er 11772
em erg 11766
maj ority</w> 11766
cer tain 11764
mov ed</w> 11760
den ied</w> 11744
aff ected</w> 11715
E d 11691
ener gy</w> 11681
tal ks</w> 11678
qu e</w> 11676
commit tee</w> 11674
m et</w> 11673
them selves</w> 11672
19 7 11666
ell s</w> 11663
invest ment</w> 11663
anti - 11655
an im 11649
y ellow</w> 11645
ep h 11645
d i</w> 11643
C el 11623
6 - 11621
g ers</w> 11607
no thing</w> 11602
tur n</w> 11600
sing le</w> 11600
b oo 11598
th ousands</w> 11597
K ore 11592
P l 11591
any thing</w> 11579
so on</w> 11573
H u 11570
suff ered</w> 11569
inqu iry</w> 11568
re ad</w> 11559
succ ess</w> 11556
in e 11547
mor ning</w> 11538
ab use</w> 11532
pro pos 11531
me et</w> 11522
cr oss</w> 11521
k es</w> 11513
buil d</w> 11513
week end</w> 11503
g lobal</w> 11493
ic i 11486
r ing</w> 11485
dra w</w> 11465
m ate</w> 11461
ro om</w> 11460
con sul 11456
rec ently</w> 11455
est ing</w> 11454
As sociation</w> 11451
2 5 11426
d ow 11424
inclu ded</w> 11423
ter ror 11405
ing ly</w> 11405
op s</w> 11404
m ag 11394
high er</w> 11389
Wh ile</w> 11387
fri ends</w> 11386
fore ign</w> 11381
Ch ri 11377
coun c 11375
simil ar</w> 11374
Le ic 11371
ec ti 11370
v ity</w> 11368
Dem ocr 11367
priv ate</w> 11363
est ab 11362
Chin ese</w> 11350
f er</w> 11349
for ced</w> 11348
kee per</w> 11333
F in 11332
treat ment</w> 11332
prob ably</w> 11327
chair man</w> 11322
Uni on</w> 11319
respon se</w> 11317
long er</w> 11272
b ab 11253
sib ility</w> 11253
r a</w> 11250
continu ed</w> 11247
in side</w> 11244
co - 11244
ick et</w> 11243
th y</w> 11241
publ ished</w> 11237
G o 11236
l ist</w> 11227
4 - 11226
F ol 11224
J ap 11209
M u 11202
h e 11195
lea ving</w> 11184
deb ate</w> 11180
ne l</w> 11171
it ch</w> 11169
injur ies</w> 11154
& amp 11153
&amp ;</w> 11153
A m 11142
re ach</w> 11135
gu il 11132
bur gh</w> 11132
re sid 11120
us es</w> 11118
i g</w> 11107
as k</w> 11101
su res</w> 11100
Yor k</w> 11095
p at 11094
Sec retary</w> 11085
qu ick 11078
ev ents</w> 11076
ou d</w> 11073
low er</w> 11068
v ers</w> 11065
1 7 11049
par ts</w> 11026
el d</w> 11021
vis it</w> 11017
e p</w> 11015
Eng lish</w> 11014
cap tain</w> 11013
Olymp ic</w> 11013
cr os 10997
schem e</w> 10997
I ra 10977
rul es</w> 10974
oper ation</w> 10971
s il 10962
shi ps</w> 10961
F ore 10960
s y</w> 10956
tri ed</w> 10950
b a 10940
long - 10919
r out 10916
i - 10911
every thing</w> 10896
cris is</w> 10890
t est</w> 10889
cel ebr 10887
condi tions</w> 10882
qu estion</w> 10880
Th ese</w> 10880
C r 10875
F ir 10871
competi tion</w> 10870
dec ided</w> 10866
mat ter</w> 10865
c lim 10861
c row 10860
con duc 10857
ul arly</w> 10853
hom es</w> 10853
mat ches</w> 10847
mar k</w> 10842
n al</w> 10841
y le</w> 10841
disc us 10840
o il</w> 10827
N ot 10822
t el 10814
actu ally</w> 10810
sus pen 10807
sa fe</w> 10805
oun d 10788
four th</w> 10780
a - 10772
ste p</w> 10766
att emp 10759
orig in 10759
pr ice</w> 10751
T o</w> 10747
par ties</w> 10738
sec retary</w> 10738
ei ther</w> 10737
L ord</w> 10724
mis sing</w> 10724
r ain 10716
F er 10711
an k 10711
fer ence</w> 10711
tour nam 10708
viol ence</w> 10693
N ig 10686
S outh 10666
sur vi 10664
E din 10662
mak es</w> 10659
Off ice</w> 10658
hea v 10657
w as 10654
tw o- 10644
tar get</w> 10636
A ber 10630
qu ality</w> 10630
St ate</w> 10630
C entr 10628
c osts</w> 10625
Pe ter</w> 10623
i z 10618
G ar 10611
di an</w> 10606
bec om 10606
s our 10603
chang ed</w> 10594
Conserv ative</w> 10594
201 7</w> 10593
amp ton</w> 10584
con vic 10582
k shire</w> 10578
show s</w> 10567
der ed</w> 10558
k ind</w> 10554
en viron 10552
H er 10551
v o 10550
W ar 10548
er ous</w> 10548
d ates</w> 10543
le t 10539
fi c</w> 10530
li e</w> 10529
0 . 10527
M y</w> 10527
en jo 10526
laun ched</w> 10526
S to 10520
1 , 10520
d le</w> 10518
cont ri 10518
alleg ations</w> 10515
O ur</w> 10501
rev eal 10497
fri end</w> 10489
ish ing</w> 10489
tu res</w> 10488
R u 10486
K en 10476
m os 10468
M ac 10468
agre ement</w> 10462
m ay 10461
l oss</w> 10456
i p 10454
Is ra 10454
open ed</w> 10454
an g</w> 10451
wr ong</w> 10441
sugg ested</w> 10437
av o 10436
partic ularly</w> 10436
wi fe</w> 10428
wr ote</w> 10427
h ous 10415
guil ty</w> 10413
cha mpi 10411
N a 10408
adi um</w> 10402
tak es</w> 10397
cau ght</w> 10389
Pri me</w> 10386
sh are</w> 10355
S im 10354
sp ace</w> 10353
a ut 10350
o grap 10346
v an</w> 10341
sp ending</w> 10341
con ver 10340
ad di 10337
ur ch</w> 10331
ver si 10331
campa ig 10328
Mar tin</w> 10321
fiel der</w> 10313
T om</w> 10298
it or</w> 10294
U N</w> 10293
at en</w> 10293
J on 10287
Don ald</w> 10284
ex ten 10280
num bers</w> 10279
plac ed</w> 10276
ec ting</w> 10271
t em 10266
ne arly</w> 10266
se qu 10266
pres s</w> 10266
Pe ople</w> 10262
cla im</w> 10259
v ar 10253
ide a</w> 10247
G i 10240
p up 10235
Edin burgh</w> 10234
n on- 10231
S N 10228
Ar sen 10228
t ack 10213
an while</w> 10211
es n</w> 10203
F ar 10200
aver age</w> 10199
st u 10186
enc our 10185
prof es 10176
impro ve</w> 10175
B en 10173
nor th</w> 10173
s em 10170
im medi 10162
do esn</w> 10162
hear t</w> 10160
ris ti 10143
happ en</w> 10140
N ic 10137
cri me</w> 10137
se tt 10136
l ad 10133
des ig 10127
t on 10126
c ause</w> 10116
pr in 10114
lev els</w> 10112
un ion</w> 10111
c k 10104
A th 10104
follow ed</w> 10096
A p 10095
1 6 10093
bor der</w> 10091
n ation</w> 10089
ad es</w> 10088
t un 10087
ch ec 10087
a u</w> 10080
en ing</w> 10080
ic ation</w> 10075
amoun t</w> 10072
H un 10069
G MT</w> 10068
custom ers</w> 10067
th - 10065
b ing</w> 10061
techn ology</w> 10058
O n 10056
on e- 10055
fin ished</w> 10047
char ity</w> 10043
P ak 10041
d a</w> 10039
pre sid 10037
h our</w> 10031
ol a</w> 10029
ti t 10023
Cel tic</w> 10023
S wan 10015
O p 9995
lo ve</w> 9986
le tter</w> 9986
se par 9986
in sp 9976
m us 9969
med ical</w> 9967
me an</w> 9957
Bel fast</w> 9955
th in 9949
d ow</w> 9940
sup porters</w> 9933
Ger man</w> 9933
extr a</w> 9927
w ood</w> 9919
C ra 9919
sti t 9917
hea der</w> 9906
Th e 9902
sig n</w> 9893
st ro 9892
ri d</w> 9891
st ep 9871
v ice</w> 9867
on a</w> 9856
Inter national</w> 9851
dra w 9847
ot h</w> 9833
cre ate</w> 9833
ci p 9826
stri ker</w> 9814
alleg ed</w> 9811
H ealth</w> 9808
s or 9796
ri es</w> 9789
foc us</w> 9788
si onal</w> 9786
si x 9783
Par is</w> 9774
r ay</w> 9765
independ ent</w> 9763
p un 9762
p an 9760
ar ti 9753
E v 9749
lin es</w> 9748
recog n 9734
buil t</w> 9731
ad vis 9714
b at 9708
est er 9707
S al 9688
K e 9684
N o</w> 9681
c ru 9672
d au 9663
mid fielder</w> 9661
reveal ed</w> 9661
app ed</w> 9653
achi ev 9650
st ation</w> 9644
pas sen 9642
A g 9630
ic ally</w> 9629
D es 9626
p on 9623
cre d 9610
en ed</w> 9604
re ly</w> 9596
ang ers</w> 9595
d an</w> 9590
G overn 9588
ei gh 9572
s ell</w> 9570
thre at</w> 9569
j ected</w> 9568
run s</w> 9567
figh ting</w> 9560
n u 9559
ac ts</w> 9555
rem ov 9555
af ter 9553
an sw 9551
ad ding</w> 9551
appe al</w> 9547
Leic ester</w> 9547
g ar 9544
n ation 9539
loo d</w> 9537
jud ge</w> 9530
dre ds</w> 9528
m y 9518
scen e</w> 9510
R overs</w> 9506
de fin 9506
plac es</w> 9494
Bra z 9490
ac ted</w> 9483
stri ke</w> 9483
n ings</w> 9480
1 3 9479
nor m 9479
w all</w> 9473
Pr of</w> 9472
S i 9466
y ed</w> 9465
re sc 9460
d rug 9457
as tic</w> 9457
lo an</w> 9455
M any</w> 9451
ab sol 9445
ou p</w> 9440
trav el</w> 9439
J am 9438
tic s</w> 9434
por ting</w> 9421
questi ons</w> 9416
st one</w> 9411
win ner</w> 9411
hea d 9409
an a</w> 9408
l ic 9405
F A</w> 9394
c alls</w> 9392
5 00</w> 9387
c o</w> 9386
k new</w> 9370
fin ish</w> 9367
m as 9360
c op 9358
bl ack</w> 9358
oun ded</w> 9353
con n 9352
ch e 9347
Bri st 9339
cr ash</w> 9337
positi ve</w> 9332
politi ci 9322
believ es</w> 9316
str at 9308
lar gest</w> 9304
a im 9302
J os 9298
sc re 9298
s - 9289
nec ess 9284
T ay 9275
tournam ent</w> 9275
mu sic</w> 9271
sec tor</w> 9268
dri ving</w> 9261
de termin 9254
Mus li 9250
d ru 9249
k m</w> 9244
in dic 9243
H amil 9242
increas ed</w> 9237
f le 9235
Arsen al</w> 9232
con clu 9224
c li 9221
po or</w> 9220
p u 9215
P at 9212
sex ual</w> 9211
s ales</w> 9206
re ached</w> 9197
st ar</w> 9193
l ack</w> 9189
Hamil ton</w> 9178
2 8</w> 9176
mis ses</w> 9174
es p 9173
tr ust</w> 9170
in ation</w> 9168
m a</w> 9167
re pe 9162
200 9</w> 9162
busin esses</w> 9154
pr ices</w> 9151
For mer</w> 9146
g old</w> 9145
grow ing</w> 9144
re al 9143
ea se</w> 9142
di e</w> 9135
n y</w> 9133
S up 9127
quick ly</w> 9123
re fu 9118
Sp ea 9111
vis itors</w> 9110
prot ect</w> 9107
under stand</w> 9105
C a 9104
retur ned</w> 9104
B ank</w> 9098
ad a</w> 9098
ci es</w> 9096
dec is 9093
200 8</w> 9093
2 6</w> 9091
ur o</w> 9084
clu bs</w> 9083
Qu een</w> 9080
D el 9078
en tion</w> 9075
emerg ency</w> 9063
accoun t</w> 9059
cont act</w> 9053
Bl ack 9051
off ered</w> 9050
dri ver</w> 9049
d omin 9033
Brist ol</w> 9033
Scot t</w> 9032
J or 9030
ea st</w> 9028
Bir m 9024
R a 9023
y l 9003
ear s</w> 9002
Gr oup</w> 8994
C lar 8992
pa ir</w> 8984
Ob ama</w> 8984
Com mission</w> 8976
Thom as</w> 8964
comm ents</w> 8963
2 7</w> 8962
bur y</w> 8960
pers onal</w> 8955
b ow 8954
success ful</w> 8954
bo y</w> 8953
bud get</w> 8949
Syri an</w> 8945
p age</w> 8943
z ens</w> 8940
new sp 8940
vi a</w> 8936
Birm ingham</w> 8936
Islam ic</w> 8934
hear ing</w> 8929
L a 8925
R angers</w> 8920
o ke</w> 8917
U k 8916
ag ing</w> 8915
gh ted</w> 8914
Andre w</w> 8912
li f 8910
app ear</w> 8910
ran ts</w> 8908
thre e- 8905
E m 8904
Swan sea</w> 8898
im pl 8894
st ood</w> 8893
appro ach</w> 8886
il ities</w> 8878
M ag 8877
U K 8876
re ti 8874
com b 8874
ta x 8873
rup tion</w> 8870
was n</w> 8868
ra ise</w> 8855
Le e</w> 8855
effor t</w> 8828
L in 8826
elec tions</w> 8824
S am 8823
pres sed</w> 8814
infl u 8813
Br ad 8805
r ying</w> 8803
F oot 8795
h ur 8794
T est</w> 8794
canc er</w> 8792
k ept</w> 8786
messa ge</w> 8782
h y 8781
ic ations</w> 8778
s old</w> 8777
1 4 8773
N ow</w> 8771
det ails</w> 8771
pre dic 8769
ef ul</w> 8765
exam ple</w> 8763
G oo 8760
respon d 8758
S ar 8751
t ation</w> 8750
ut y</w> 8747
Australi an</w> 8745
c ement</w> 8742
F C</w> 8740
Ath le 8738
C rown</w> 8732
ten ham</w> 8732
con c 8727
be ha 8726
m i 8721
m ob 8720
cu ts</w> 8720
be aten</w> 8719
se y</w> 8715
b b 8714
j ects</w> 8714
sc ore</w> 8711
B en</w> 8706
gi ving</w> 8704
law y 8704
T or 8699
tw ee 8696
mig ration</w> 8696
str ong 8695
g ra 8693
te en 8689
st ra 8686
ec ut 8686
ad minist 8685
drug s</w> 8679
ch ers</w> 8671
M il 8667
we ap 8656
ha t 8655
De partment</w> 8649
g res 8646
cl ass</w> 8643
stit ute</w> 8643
i eld</w> 8641
Da vi 8639
jour n 8635
k en</w> 8630
b ill</w> 8624
thre at 8623
Chri st 8621
Me anwhile</w> 8619
S en 8615
6 0</w> 8612
L ew 8612
ro r</w> 8612
V ic 8604
view s</w> 8602
par ti 8599
H er</w> 8598
Tur key</w> 8596
D u 8591
Yor kshire</w> 8584
me ant</w> 8579
mil es</w> 8561
centr al</w> 8554
s earch</w> 8548
lea der 8540
gir l</w> 8537
R yan</w> 8536
cre ated</w> 8528
plan ning</w> 8527
fi f 8520
l or</w> 8517
sit es</w> 8517
fig ure</w> 8513
- off</w> 8507
v ey</w> 8507
A sh 8506
sol di 8506
H am 8504
ab ove</w> 8504
fa ir</w> 8503
Fir st</w> 8495
t in 8491
org an</w> 8491
st ren 8488
victi m</w> 8487
sen se</w> 8482
B y</w> 8479
char ac 8471
w est</w> 8469
Davi es</w> 8469
le ge</w> 8465
t op 8458
at ures</w> 8458
minist ers</w> 8448
id s</w> 8446
dau ghter</w> 8442
c ast</w> 8433
V al 8433
ill a</w> 8429
it self</w> 8423
pop ular</w> 8414
sid es</w> 8411
high est</w> 8411
pos e</w> 8410
mea sures</w> 8410
con fl 8409
ext rem 8403
C hi 8400
Ch risti 8399
fir st- 8398
Li ber 8398
in ed</w> 8396
al ists</w> 8393
om s</w> 8389
e es</w> 8387
pre v 8382
m - 8377
H ospital</w> 8375
sem i- 8371
tr ack</w> 8370
consid ered</w> 8360
vi l</w> 8357
att empt</w> 8357
mat er 8354
Uk rain 8354
pro gress</w> 8347
ent ary</w> 8337
commit ted</w> 8333
er a</w> 8331
concer ned</w> 8331
j ustice</w> 8323
sa ve</w> 8318
ti on 8315
Amer ica</w> 8299
O x 8294
g s</w> 8290
rug by</w> 8287
val ue</w> 8286
defen der</w> 8279
t ough</w> 8278
p ul 8278
stren g 8278
H en 8277
R os 8277
oo t</w> 8266
Afr ican</w> 8265
pop ulation</w> 8264
r ic 8262
I tal 8258
a i</w> 8256
Ale x</w> 8255
M os 8249
con ference</w> 8248
St eph 8248
w y 8243
Ital y</w> 8236
pas s</w> 8234
Aber de 8233
conf idence</w> 8231
sup pl 8227
as sist 8226
ne igh 8226
John son</w> 8226
Mur ray</w> 8224
Jo e</w> 8216
com pared</w> 8215
or din 8214
neigh b 8214
tr aff 8213
organis ation</w> 8210
Par liament</w> 8209
leader ship</w> 8201
beha vi 8198
h owever</w> 8186
us ers</w> 8186
f ying</w> 8184
mo der 8183
t ell</w> 8182
e th 8181
esp ec 8181
ad s</w> 8176
g as</w> 8174
v ill 8172
s l 8170
ser ve</w> 8163
f light</w> 8161
aw are</w> 8159
espec ially</w> 8159
dam age</w> 8157
ph ys 8156
manag ed</w> 8152
3 . 8150
au di 8147
R om 8146
cer tain</w> 8141
gu n</w> 8138
s outh</w> 8134
f oul</w> 8134
I P</w> 8134
Ric hard</w> 8134
relati onship</w> 8120
sim ply</w> 8115
in son</w> 8100
ter - 8100
ac tions</w> 8099
h os 8098
re comm 8093
3 0 8090
mig rants</w> 8090
tre ated</w> 8085
sci enti 8078
plan ned</w> 8076
li st 8072
ser ved</w> 8070
A ir 8069
G ames</w> 8066
refu ge 8066
form s</w> 8063
B u 8059
B rown</w> 8058
T o 8058
deli ver 8052
f em 8047
sa tion</w> 8039
leg is 8030
pas sed</w> 8027
cast le</w> 8027
emb ly</w> 8022
go es</w> 8016
l or 8015
struc ture</w> 8007
D ev 8003
Ser vice</w> 7997
sur pr 7996
l - 7991
ut ely</w> 7989
cir c 7989
Champi ons</w> 7988
critic ised</w> 7985
2 9</w> 7976
tal k</w> 7967
tw ice</w> 7958
exp ect</w> 7954
jo in</w> 7954
ex ist 7951
ain ts</w> 7943
R io</w> 7941
sur g 7938
lan gu 7932
as hed</w> 7930
b le 7925
dru g</w> 7920
hop es</w> 7912
reas on</w> 7912
Tay lor</w> 7912
ach ers</w> 7908
C ri 7903
arri ved</w> 7902
un c 7901
g an</w> 7899
sec ure</w> 7892
respon sible</w> 7888
b us</w> 7883
Spea king</w> 7883
is s</w> 7874
M ill 7870
s ession</w> 7864
st ates</w> 7863
go al 7863
la u 7859
form ed</w> 7855
relea se</w> 7855
Wh ite</w> 7845
resid ents</w> 7839
ven ue</w> 7830
h ot 7824
on str 7810
add ress</w> 7802
A t 7800
19 6 7800
concer n</w> 7797
ann ual</w> 7796
des er 7794
Sp ain</w> 7794
b id</w> 7793
eff ect</w> 7790
spe ech</w> 7783
adv ant 7779
do g</w> 7776
proper ty</w> 7776
Ear lier</w> 7776
complet e</w> 7773
&apos; r</w> 7772
b yn</w> 7768
d om 7768
re st 7767
acti vi 7767
SN P</w> 7760
l ose</w> 7759
Z eal 7758
par liament</w> 7758
crimin al</w> 7744
prov ided</w> 7741
D ay</w> 7740
tri b 7731
estab l 7727
f ru 7725
oc k 7724
li ghts</w> 7720
ay ed</w> 7709
los ing</w> 7703
effor ts</w> 7695
B oth</w> 7693
Kore a</w> 7693
consid er</w> 7690
nu clear</w> 7690
U l 7686
S a 7685
L o 7679
di g 7679
a ren 7678
id ents</w> 7676
al li 7675
pr acti 7674
f it</w> 7673
car s</w> 7669
hal f- 7667
Foot ball</w> 7663
Govern ment</w> 7662
doc um 7661
dem and</w> 7659
fin als</w> 7657
m ist 7652
at ory</w> 7652
fol low</w> 7651
Ira q</w> 7651
pre t 7646
for d 7643
c alling</w> 7641
hi stor 7633
tar ge 7629
s is</w> 7616
ch er</w> 7616
An g 7611
k illing</w> 7607
high - 7605
mov ing</w> 7595
Jap an</w> 7594
oo ds</w> 7591
con struc 7590
M i 7589
sh oot 7588
ong side</w> 7586
Pak istan</w> 7579
lin ked</w> 7578
oul dn</w> 7575
rul ed</w> 7572
Tr ust</w> 7572
T im 7567
sus pic 7563
su st 7560
D ani 7558
tr ain</w> 7558
Sh eff 7558
Fr anc 7553
S in 7550
w ich</w> 7541
an i</w> 7538
se ems</w> 7537
dem onstr 7536
bac ked</w> 7535
res ear 7523
w eight</w> 7522
de al 7520
5 m</w> 7511
Nor th 7511
manag ement</w> 7498
c y</w> 7496
ali tion</w> 7496
individ ual</w> 7494
ol ution</w> 7492
Athle tic</w> 7486
man u 7484
dang erous</w> 7477
re fl 7472
ev ent 7472
fe el 7468
behavi our</w> 7466
re str 7463
hap s</w> 7463
Sheff ield</w> 7456
S tr 7446
T ran 7437
ch ances</w> 7435
fac ing</w> 7433
car ry</w> 7414
u d</w> 7413
ail y</w> 7409
wh ite</w> 7404
pe ace</w> 7400
4 5</w> 7399
p il 7396
hun dreds</w> 7393
batt le</w> 7392
sa d</w> 7388
f ant 7385
writ ten</w> 7384
ci ti 7383
no v 7380
pup ils</w> 7378
fif th</w> 7377
wor ds</w> 7376
certain ly</w> 7376
profes sional</w> 7372
H igh</w> 7368
An dy</w> 7365
v e- 7351
c lear 7351
ph y</w> 7351
quar ter</w> 7350
K ing</w> 7346
gir ls</w> 7342
st ab 7337
Hal f</w> 7337
bu y</w> 7336
m ary</w> 7335
Off ic 7332
ou thern</w> 7330
on ships</w> 7330
spor ts</w> 7330
- up</w> 7326
M ay 7316
In st 7312
condi tion</w> 7312
issu ed</w> 7311
candi date</w> 7305
el se</w> 7303
d ar 7302
Ac cor 7301
cr aft</w> 7300
S ur 7299
e k</w> 7289
ar med</w> 7288
Op en</w> 7273
absol utely</w> 7273
d ly</w> 7270
Gre en</w> 7269
I ran</w> 7265
dro pped</w> 7265
re y</w> 7255
ac ked</w> 7255
V i 7253
w il 7250
fac ed</w> 7243
el ected</w> 7240
ough out</w> 7238
Steph en</w> 7238
hal l</w> 7237
T ot 7230
fi x 7227
T a 7224
pow ers</w> 7224
recei ve</w> 7224
5 0 7216
uni versity</w> 7215
de l</w> 7213
l es 7212
c over</w> 7210
al ongside</w> 7210
n omin 7208
C ap 7207
Cor byn</w> 7202
Aberde en</w> 7195
extrem ely</w> 7193
inst ead</w> 7190
legis l 7190
politic s</w> 7188
C lin 7186
appear ances</w> 7184
S om 7181
suspen ded</w> 7175
mat es</w> 7169
star ting</w> 7168
er ia</w> 7162
do or</w> 7155
over y</w> 7154
fav our 7152
St eve</w> 7144
continu es</w> 7141
re duce</w> 7138
loc k</w> 7133
g le</w> 7131
i ously</w> 7131
uc k</w> 7126
New castle</w> 7121
ing ing</w> 7120
20 0</w> 7119
im um</w> 7116
m it</w> 7114
B ol 7114
se t 7111
Zeal and</w> 7107
Accor ding</w> 7105
con stitu 7103
pers on 7099
G ri 7091
5 - 7084
rul ing</w> 7083
h ands</w> 7078
j ailed</w> 7075
ann y</w> 7074
newsp aper</w> 7074
lig ence</w> 7073
R oss</w> 7071
esti val</w> 7071
appro pri 7071
inter view</w> 7066
A si 7059
la m</w> 7059
vot ed</w> 7059
J ustice</w> 7055
pl es</w> 7047
h ost</w> 7046
u n</w> 7044
Not t 7044
wor k 7037
cor respond 7037
h eal 7036
S am</w> 7036
b ar</w> 7034
W om 7033
em an</w> 7027
partic ular</w> 7026
y r 7025
be l</w> 7021
benef it</w> 7018
ab or 7015
w on 7013
requ ired</w> 7010
z one</w> 7004
g ol 7002
New s 7001
all er</w> 7000
ex pen 6999
Lew is</w> 6998
author ity</w> 6995
com ment</w> 6994
pre - 6993
reli gi 6991
Gr and</w> 6990
a id</w> 6989
identi fied</w> 6989
ar my</w> 6988
low ing</w> 6987
g ely</w> 6982
ti s 6982
vot ers</w> 6982
ear ing</w> 6981
net work</w> 6980
gu ar 6978
W ar</w> 6977
p ain 6973
Go al</w> 6971
re r</w> 6970
fin e</w> 6968
Ad am</w> 6967
mob ile</w> 6967
al ter 6964
benef its</w> 6962
ev in</w> 6959
Le eds</w> 6956
Ale x 6955
off en 6947
se ts</w> 6940
ed ing</w> 6940
mis sion 6940
g un 6936
b ook</w> 6935
it or 6932
de but</w> 6926
Com mit 6925
J ack</w> 6921
de e</w> 6918
h us 6917
en ter</w> 6917
inclu des</w> 6913
wat ch</w> 6912
confl ict</w> 6911
m as</w> 6906
ea sy</w> 6905
U S 6904
res sed</w> 6901
Repub lic</w> 6899
ac ad 6890
In dian</w> 6890
m ulti 6886
in come</w> 6886
m ated</w> 6885
g ri 6884
r u</w> 6883
d ol 6876
b y 6874
ell or</w> 6869
N ations</w> 6868
necess ary</w> 6868
co alition</w> 6866
4 . 6858
disc overed</w> 6857
le ts</w> 6852
an - 6849
see ing</w> 6848
em ed</w> 6844
ci vil</w> 6844
bro ther</w> 6844
G ra 6842
Mad rid</w> 6842
coll ap 6840
Al though</w> 6838
fir ms</w> 6837
re b 6833
ner ship</w> 6831
pow er 6827
7 0</w> 6826
be y 6826
ach es</w> 6825
commun ities</w> 6823
acc ep 6822
h osts</w> 6814
3 1</w> 6813
dri ve</w> 6813
w ick 6811
f a</w> 6811
pret ty</w> 6811
mov ement</w> 6810
s al 6808
fic ation</w> 6808
3 5</w> 6805
w ell 6803
becom ing</w> 6800
es sed</w> 6797
f lo 6795
tic k 6793
complet ely</w> 6793
sent ence</w> 6792
gr ad 6791
e z 6789
acti vity</w> 6785
A no 6783
par k</w> 6782
Ev ans</w> 6778
ul ly</w> 6777
v als</w> 6772
al led</w> 6770
v ul 6769
un ities</w> 6769
esti mated</w> 6769
bey ond</w> 6769
fem ale</w> 6767
comm on</w> 6763
c ash</w> 6760
p itch</w> 6759
s of 6755
ow ner</w> 6746
inter net</w> 6746
s mo 6745
an ks</w> 6744
bro ke</w> 6744
mas sive</w> 6744
dea ths</w> 6741
even ing</w> 6735
an tly</w> 6734
Gre at</w> 6734
1 ,000</w> 6733
Ano ther</w> 6733
W in 6730
ur ed</w> 6729
wea ther</w> 6728
hel ping</w> 6727
W ol 6724
tur ed</w> 6723
Commit tee</w> 6722
d ated</w> 6721
bo ys</w> 6717
D uring</w> 6716
ob vi 6710
Dun dee</w> 6703
Sec ond</w> 6700
il ed</w> 6696
to - 6695
sc ri 6692
cle arly</w> 6689
com for 6686
L aw 6684
t ment</w> 6675
figh ters</w> 6673
politici ans</w> 6672
f ra 6669
em er 6669
Des pite</w> 6669
st ances</w> 6668
mark ets</w> 6668
ing er</w> 6667
Jor dan</w> 6664
1 2 6663
G ener 6663
oc ca 6662
thr oughout</w> 6661
ru le</w> 6660
Mat ch</w> 6657
deli ver</w> 6655
c ab 6654
avo id</w> 6653
oper ations</w> 6651
t our</w> 6642
int el 6641
fel low</w> 6635
pro posed</w> 6634
ak es</w> 6634
k ins</w> 6631
ro b 6630
elec tr 6627
p t</w> 6623
200 7</w> 6617
min d</w> 6615
struc k</w> 6615
loo ks</w> 6614
s end</w> 6612
is on</w> 6611
car rying</w> 6611
produc tion</w> 6608
c ed 6607
langu age</w> 6605
prev ent</w> 6601
part ner</w> 6596
UK IP</w> 6589
k a</w> 6584
m ers</w> 6580
re jected</w> 6575
spea k</w> 6573
m oun 6571
anc y</w> 6570
differ ence</w> 6562
S ince</w> 6561
pres ent</w> 6558
respon sibility</w> 6555
ur ged</w> 6549
K evin</w> 6548
ban ned</w> 6545
k no 6544
presid ential</w> 6543
contri bu 6542
st er 6536
stor ies</w> 6532
scor ing</w> 6532
le g</w> 6531
adv ice</w> 6529
M ed 6528
vol un 6523
hu man 6518
over all</w> 6515
Ph ili 6515
sel f- 6511
p aper</w> 6507
c over 6503
re duc 6502
e um</w> 6499
ne ar 6499
n ur 6497
stop ped</w> 6491
ad ver 6487
independ ence</w> 6485
el a</w> 6482
p p 6480
pi ece</w> 6478
decis ions</w> 6478
Christ mas</w> 6473
Conserv atives</w> 6468
anc ellor</w> 6466
gre ater</w> 6464
stand ards</w> 6463
Con n 6458
is ation</w> 6456
B us 6452
champi ons</w> 6449
H ull</w> 6448
put ting</w> 6445
ap olog 6443
s le 6441
te achers</w> 6438
r ose</w> 6436
k o</w> 6436
trad iti 6435
circ um 6430
D ef 6424
wa iting</w> 6424
Ch il 6422
ent al</w> 6418
rel ated</w> 6417
dri vers</w> 6417
ecti vely</w> 6414
ym ru</w> 6410
ber g</w> 6409
sp oke</w> 6405
law s</w> 6403
yd d</w> 6403
assa ult</w> 6402
Wom en</w> 6399
ref used</w> 6397
hous ing</w> 6397
cho ice</w> 6396
cr icket</w> 6395
tel ev 6390
P en 6389
F re 6385
un g</w> 6384
sy st 6384
bor ough</w> 6382
o res</w> 6380
dec lar 6380
B al 6373
sp end</w> 6371
The ir</w> 6370
soci ety</w> 6369
secon ds</w> 6368
hus band</w> 6366
air s</w> 6363
fun d</w> 6362
F eder 6361
phot ograp 6361
ed ge</w> 6360
ed om</w> 6359
se ats</w> 6354
ag er</w> 6353
sub ject</w> 6353
vehic le</w> 6351
im prov 6349
la id</w> 6348
ei l</w> 6348
St u 6346
twee ted</w> 6346
convic ted</w> 6345
gu es</w> 6342
attac ked</w> 6340
appear ance</w> 6339
dom esti 6336
ban ks</w> 6333
tal king</w> 6331
E gy 6326
t al</w> 6324
vul ner 6324
un able</w> 6323
tack le</w> 6321
rec ru 6319
passen gers</w> 6317
Re al</w> 6316
recor ded</w> 6314
desig ned</w> 6310
reas ons</w> 6309
b ea 6306
G ary</w> 6306
spea king</w> 6306
t ests</w> 6305
intro duced</w> 6302
employ ment</w> 6301
strat eg 6296
C C</w> 6295
cl in 6295
direc t</w> 6293
exper ts</w> 6293
a than</w> 6288
Braz il</w> 6287
St ates</w> 6286
jur y</w> 6282
sc ale</w> 6281
dou ble</w> 6281
C al 6275
mon d</w> 6275
sp ot</w> 6274
remov ed</w> 6274
C ur 6270
i th 6267
Al l 6267
in - 6265
pr oud</w> 6262
ess or</w> 6262
environ ment</w> 6262
on er</w> 6261
il legal</w> 6261
b ase</w> 6256
T ha 6252
ren t</w> 6249
Th ree</w> 6248
are n</w> 6245
S au 6242
I an</w> 6242
Al b 6240
en cies</w> 6239
en try</w> 6236
b lood</w> 6235
contro l 6234
G or 6231
min ster</w> 6225
so - 6223
al ised</w> 6220
au th 6216
rem aining</w> 6208
comple ted</w> 6208
dis ease</w> 6206
off ences</w> 6204
prot ests</w> 6204
Sim on</w> 6198
for tun 6191
soldi ers</w> 6191
beg in</w> 6190
am ed</w> 6189
weap ons</w> 6187
produc ts</w> 6185
propos als</w> 6185
ac her</w> 6183
H ow</w> 6181
ar ies</w> 6180
n ar 6178
Bel gi 6176
P ow 6175
ef ully</w> 6171
resp ect</w> 6166
Rober t</w> 6166
s en</w> 6164
d ale</w> 6163
bo dies</w> 6162
hol id 6162
I t 6161
expl ained</w> 6160
Clin ton</w> 6159
D anny</w> 6154
8 0</w> 6152
ec t 6149
ot t</w> 6147
dow n 6144
h ear</w> 6143
our ces</w> 6141
Ever ton</w> 6138
practi ce</w> 6138
is es</w> 6137
ar m</w> 6133
st reet</w> 6132
il le</w> 6131
n es</w> 6129
tr ue</w> 6128
in et</w> 6122
J ud 6121
M ex 6117
doub t</w> 6117
goal keeper</w> 6112
i e 6110
ex t</w> 6106
O l 6104
m un 6102
fac es</w> 6102
Jam ie</w> 6102
bi a</w> 6101
legisl ation</w> 6099
tro ops</w> 6097
plan e</w> 6093
origin al</w> 6092
advant age</w> 6088
ci v 6085
g ent 6077
fant astic</w> 6072
T er 6068
h i</w> 6067
bab y</w> 6067
Isra el</w> 6066
sig ning</w> 6061
tr ag 6060
appropri ate</w> 6059
z er 6057
tr ou 6056
Tot tenham</w> 6052
s ale</w> 6051
osp it 6051
bro ken</w> 6050
dro p</w> 6048
all - 6046
e an</w> 6044
c s</w> 6044
op pon 6043
ag n 6042
Centr e</w> 6040
event ually</w> 6040
wa it</w> 6039
investig ating</w> 6038
spokes woman</w> 6035
so- called</w> 6035
j um 6033
st able</w> 6033
al one</w> 6031
f are</w> 6030
ac tor</w> 6029
n ative</w> 6028
P a 6021
Dani el</w> 6021
Jon athan</w> 6017
stra ight</w> 6013
4 0 6005
Pal ace</w> 6002
counc ils</w> 6000
feel ing</w> 6000
cou l 5994
incre di 5993
P u 5992
im ages</w> 5991
separ ate</w> 5991
see king</w> 5990
manu fac 5990
de partment</w> 5989
O ther</w> 5988
Bar cel 5988
S k 5984
H ome</w> 5984
gh tly</w> 5983
Ukrain e</w> 5983
coul dn</w> 5980
H um 5976
e z</w> 5974
Wh it 5973
r i</w> 5971
me an 5971
air craft</w> 5970
h ou 5969
rem ar 5965
m ach 5961
mem or 5961
re leg 5955
is land</w> 5953
Gener al</w> 5949
ed y</w> 5944
norm al</w> 5944
wor st</w> 5943
produc ed</w> 5942
enti ally</w> 5940
en ting</w> 5939
stud ent</w> 5939
Barcel ona</w> 5936
ac ting</w> 5934
doc tors</w> 5931
sugg est</w> 5927
7 - 5922
w s</w> 5919
vot es</w> 5919
correspond ent</w> 5919
at trac 5918
e uro 5916
F o 5916
N o 5916
cor ruption</w> 5915
Sch ool</w> 5911
shar ed</w> 5910
b it 5908
domesti c</w> 5908
It ali 5908
ier ship</w> 5905
pic ture</w> 5902
d y 5901
dec ades</w> 5901
n esses</w> 5900
D o 5899
Olymp ics</w> 5893
Musli m</w> 5893
ser iously</w> 5892
bur n</w> 5890
e i</w> 5889
pros ecut 5888
promis ed</w> 5886
candi dates</w> 5885
tur al</w> 5883
N ick</w> 5882
der son</w> 5882
war ded</w> 5880
b ra 5879
r ick</w> 5878
f ear</w> 5876
rem ember</w> 5876
f am 5873
r o</w> 5872
laun ch</w> 5871
negoti ations</w> 5870
ven tion</w> 5869
s man</w> 5868
D en 5868
per haps</w> 5861
Cra ig</w> 5860
conf ident</w> 5858
oun ding</w> 5846
milit ants</w> 5844
pos ted</w> 5841
ac qu 5837
announ cement</w> 5837
stri kes</w> 5833
b ought</w> 5830
fi ve- 5829
trans fer</w> 5828
li fe 5827
sha res</w> 5824
conduc t</w> 5822
Ox ford</w> 5820
con v 5812
s even 5810
lin ed</w> 5809
s anc 5808
Prem iership</w> 5808
in ning</w> 5806
vehic les</w> 5805
H ea 5804
D ub 5804
L ad 5804
ow ners</w> 5804
clim ate</w> 5804
h o</w> 5797
O f</w> 5797
gu id 5797
ea m</w> 5795
stat us</w> 5793
i v 5790
n atur 5789
E s 5788
appoin ted</w> 5787
D r 5786
pros ecu 5780
immedi ately</w> 5779
war ning</w> 5776
S ol 5773
four - 5769
de stro 5766
fi re 5764
rem ained</w> 5764
se at</w> 5761
y st 5759
heav y</w> 5757
hol ding</w> 5754
b on 5753
ut ers</w> 5751
B as 5748
ci ties</w> 5747
ig an</w> 5746
shor t 5745
as on</w> 5743
opport unities</w> 5740
fru str 5739
op e</w> 5735
ga ther 5735
sel ling</w> 5734
al ed</w> 5728
or dered</w> 5725
D ar 5724
sugg ests</w> 5724
G ol 5715
bel ow</w> 5714
ca using</w> 5708
acc ident</w> 5705
reg ar 5704
spe ed</w> 5703
- based</w> 5702
fir ed</w> 5701
milli ons</w> 5701
S w 5700
circum stances</w> 5697
lo y 5696
att ention</w> 5696
crow d</w> 5692
a c</w> 5691
tran sport</w> 5691
disappoin ted</w> 5691
ud e</w> 5690
M un 5679
acc ept</w> 5679
de dic 5676
per f 5676
devel op</w> 5676
ro l 5673
ur g 5672
s ons</w> 5670
sur vey</w> 5669
gh t 5667
li ved</w> 5664
lea gues</w> 5662
continu ing</w> 5660
i ve</w> 5658
hea ded</w> 5654
prot est</w> 5653
ay ing</w> 5651
indu stri 5651
contro versi 5650
West minster</w> 5650
R ea 5649
St adium</w> 5648
mis s</w> 5647
in de 5646
C ymru</w> 5638
ac tic 5635
am id</w> 5634
comm er 5633
ow ned</w> 5629
aw ard</w> 5627
op tion</w> 5622
er - 5616
Th er 5614
ex - 5613
exist ing</w> 5609
B ec 5608
West ern</w> 5605
it ting</w> 5602
em ail</w> 5602
W ash 5600
challen ges</w> 5600
K ar 5596
is n</w> 5596
di str 5596
expl os 5595
I ts</w> 5594
mot or 5593
thin king</w> 5593
my self</w> 5591
Al an</w> 5590
air port</w> 5590
pati ent</w> 5588
n a</w> 5584
prot ection</w> 5583
rout e</w> 5582
critic al</w> 5581
m outh</w> 5580
Sh ar 5580
Can ada</w> 5580
Ch urch</w> 5579
5 ,000</w> 5578
resear chers</w> 5578
E ven</w> 5576
Gre ece</w> 5575
R ed</w> 5572
restr ic 5569
arre st</w> 5565
ex ac 5564
arr ang 5559
addi tional</w> 5559
es cap 5549
dec ide</w> 5547
T ony</w> 5546
F ran 5546
intel ligence</w> 5546
cul ture</w> 5545
bas is</w> 5542
fail ure</w> 5541
long- term</w> 5537
H igh 5536
dis p 5536
pl at 5535
ful l- 5535
Comm ons</w> 5533
z z 5532
M ost</w> 5532
strateg y</w> 5530
tr a 5528
draw n</w> 5525
Mat t</w> 5524
f loo 5521
ain t</w> 5512
as king</w> 5506
s mar 5502
N eil</w> 5490
hop ed</w> 5489
repres ent 5489
st ands</w> 5488
secon d- 5487
Ul ster</w> 5487
w ast 5483
T om 5483
u als</w> 5482
ag ree</w> 5482
bo ost</w> 5482
es a</w> 5481
Mc G 5481
kee ping</w> 5481
R am 5480
ov ic</w> 5480
Har ry</w> 5478
d d</w> 5471
an ish</w> 5471
ar s</w> 5471
l ying</w> 5463
wid er</w> 5462
l a</w> 5455
med al</w> 5454
traff ic</w> 5453
n ature</w> 5452
acc ept 5451
critic ism</w> 5449
increas ing</w> 5448
telev ision</w> 5446
af ford</w> 5443
Jer emy</w> 5443
nor thern</w> 5438
Goo gle</w> 5434
an ded</w> 5432
de ep</w> 5432
vulner able</w> 5430
show ing</w> 5428
oo d 5425
p ick</w> 5420
initi ally</w> 5419
ha ven</w> 5418
B ill</w> 5416
vill age</w> 5416
To day</w> 5415
fin ally</w> 5413
develop ed</w> 5410
de put 5409
g ate</w> 5407
ni e</w> 5407
r ad 5404
con sist 5404
Wash ington</w> 5404
i ble</w> 5400
administ ration</w> 5397
deput y</w> 5397
cl ing</w> 5394
eng ine 5394
D or 5393
im pres 5393
Fol low</w> 5391
in i</w> 5390
pl ant</w> 5390
C re 5388
H el 5387
it ch 5387
ge on</w> 5385
D ow 5383
tri p</w> 5383
cust o 5381
on ic</w> 5378
Fore st</w> 5372
3 2</w> 5371
chang ing</w> 5371
a im</w> 5370
suff ering</w> 5366
re duced</w> 5365
e ter</w> 5364
fun ds</w> 5363
C ro 5362
arre n</w> 5361
im migration</w> 5360
gi ves</w> 5357
bo x 5356
terror ism</w> 5353
200 6</w> 5351
Alb ion</w> 5349
H all</w> 5345
sy m 5344
cl as 5342
reg ist 5342
s ort</w> 5339
f all 5339
some times</w> 5338
argu ed</w> 5337
K er 5332
S wed 5329
targe ted</w> 5325
b illi 5324
sk ills</w> 5322
H ear 5320
H or 5317
M organ</w> 5317
9 0</w> 5315
h ood</w> 5314
oc c 5311
cast er</w> 5311
L oc 5308
sour ce</w> 5308
tea m- 5306
ic ans</w> 5303
Fi fa</w> 5302
trav elling</w> 5301
reb els</w> 5294
b ad 5293
w ealth</w> 5290
South ampton</w> 5289
am az 5288
sup ply</w> 5288
200 5</w> 5288
gre at 5287
refuge es</w> 5287
W ood</w> 5285
T ri 5281
y r</w> 5280
sch ed 5279
Af gh 5279
high ly</w> 5276
un it</w> 5274
v ital</w> 5273
cont ent</w> 5271
Si x</w> 5271
us ual</w> 5267
cha ir</w> 5265
near by</w> 5260
sh oc 5259
appear s</w> 5258
w ouldn</w> 5257
6 . 5256
ra m</w> 5255
lawy er</w> 5253
b ut 5252
provid ing</w> 5252
R on 5251
B ren 5248
am b 5247
ris ing</w> 5247
I m 5242
qu i 5241
fin dings</w> 5241
syst ems</w> 5241
S il 5240
cer em 5240
answ er</w> 5238
pos t- 5236
jour ney</w> 5235
power ful</w> 5233
sur r 5227
S hi 5224
ul ts</w> 5224
S under 5223
F al 5223
So ci 5223
sh op</w> 5222
expl o 5222
b ly</w> 5221
j i 5221
wel come</w> 5220
f eder 5219
St ur 5219
ty pe</w> 5212
fav our</w> 5211
p ping</w> 5209
N ot</w> 5202
dis play</w> 5202
Sunder land</w> 5202
let es</w> 5201
ac tive</w> 5200
con su 5200
j ail</w> 5199
Li am</w> 5199
Mid d 5199
E r 5198
ass ess 5196
m en 5194
accoun ts</w> 5192
sa d 5189
han ded</w> 5188
gr and 5187
u ter</w> 5186
le f 5185
bo at</w> 5184
ex tre 5182
ea st 5181
polic ies</w> 5181
g n 5178
controversi al</w> 5177
f alling</w> 5176
Tim es</w> 5175
Tur k 5173
il ly</w> 5172
W im 5170
ter ri 5170
Mi ke</w> 5170
Th ose</w> 5167
well - 5167
ester shire</w> 5165
uc k 5164
r adio</w> 5163
wel com 5163
lo ved</w> 5160
welcom ed</w> 5160
F rom</w> 5158
sp ir 5158
Col lege</w> 5158
Ag ency</w> 5158
commit ment</w> 5156
ospit als</w> 5156
L anc 5155
con serv 5155
2 , 5147
lear n</w> 5147
pr osp 5146
5 . 5145
ri vals</w> 5144
pre pared</w> 5144
2 8 5141
s ear 5137
Repub l 5137
cam p</w> 5136
ass embly</w> 5136
bb c 5135
an der 5132
eff ective</w> 5131
ap p</w> 5130
R ec 5129
bom b</w> 5129
l u 5126
anc ed</w> 5123
t ained</w> 5121
2 4 5121
er c 5121
experi enced</w> 5120
shoot ing</w> 5119
c os 5118
sec re 5117
oper ating</w> 5117
Republ ican</w> 5116
fail ing</w> 5114
comple x</w> 5114
i ans</w> 5113
ic o</w> 5112
el ess</w> 5112
prof ile</w> 5111
ris on</w> 5108
sp ar 5107
7 . 5106
an o</w> 5104
h ire</w> 5103
Mat the 5103
consid er 5102
op h 5101
u b</w> 5100
ap ers</w> 5100
a ur 5099
S us 5094
set ting</w> 5094
surg ery</w> 5092
dec ade</w> 5091
organis ations</w> 5090
sent enced</w> 5090
k ill 5088
counc ill 5088
regi onal</w> 5087
f as 5083
V illa</w> 5083
Itali an</w> 5083
n a 5079
re pl 5078
st yle</w> 5078
dr in 5076
B ay 5071
op in 5071
H av 5068
2 3 5068
pul led</w> 5067
Chi ef</w> 5064
wor d</w> 5063
K ur 5062
charac ter</w> 5061
pro mp 5058
b ol 5056
in ess</w> 5055
c al</w> 5051
c ut 5049
O w 5047
od d</w> 5044
s field</w> 5043
bi tion</w> 5042
e ed</w> 5041
D is 5041
att ended</w> 5039
emer ged</w> 5039
T i 5036
pic ked</w> 5035
coun ty</w> 5033
K il 5031
pre par 5030
n ames</w> 5029
in o</w> 5027
New port</w> 5025
Nott ingham</w> 5025
w earing</w> 5024
reg ular</w> 5024
le dge</w> 5023
ser ving</w> 5023
gh t- 5022
Christi an</w> 5022
and - 5018
p ace</w> 5016
ter rit 5015
ic ity</w> 5011
ter ed</w> 5009
bor ne</w> 5009
U P</w> 5007
ath letes</w> 5005
as soci 5004
up dated</w> 5003
Sau di</w> 5000
Wim ble 5000
b rain</w> 4998
cri mes</w> 4996
shor tly</w> 4996
ch em 4995
stre ets</w> 4995
Wil son</w> 4991
no on</w> 4990
view ed</w> 4990
inqu est</w> 4989
d est</w> 4986
ti l 4986
Wimble don</w> 4986
play s</w> 4983
accep ted</w> 4983
phys ical</w> 4979
Y oun 4977
e et</w> 4974
br inging</w> 4974
res ol 4973
inc idents</w> 4973
susp ected</w> 4973
wh om</w> 4972
pro jects</w> 4972
lim ited</w> 4971
di agn 4970
individ uals</w> 4967
gu ard</w> 4965
te acher</w> 4963
l ess 4961
ar ms</w> 4959
ri age</w> 4959
res h</w> 4959
gh ton</w> 4958
sci ence</w> 4958
it able</w> 4954
ad d</w> 4949
exac tly</w> 4948
pl om 4945
construc tion</w> 4944
pay ments</w> 4943
buil dings</w> 4937
wor l 4929
deli ghted</w> 4927
co h 4925
el ly</w> 4922
anim als</w> 4922
know s</w> 4919
invol ving</w> 4919
mission er</w> 4919
res ources</w> 4917
S an 4916
it ely</w> 4916
enn y</w> 4910
sel s</w> 4907
c ing</w> 4906
Liber al</w> 4906
beg inning</w> 4902
In v 4901
appro ved</w> 4901
u ed</w> 4899
on going</w> 4899
direc tly</w> 4899
gi ant</w> 4895
moder n</w> 4895
&apos; n</w> 4892
201 8</w> 4890
resc ue</w> 4890
ri val</w> 4889
un likely</w> 4888
tem por 4887
bul ance</w> 4885
ar a</w> 4884
citi zens</w> 4884
hou se 4884
ap paren 4882
si ze</w> 4880
Li b 4880
E ast 4879
er al</w> 4878
pl o 4877
R us 4875
east ern</w> 4874
sig ns</w> 4872
deb t</w> 4872
e ing</w> 4870
c lo 4870
pic tures</w> 4870
m ar</w> 4866
custo dy</w> 4865
H a 4860
L am 4860
s ev 4853
requ i 4852
a warded</w> 4851
achi eve</w> 4851
replac ed</w> 4850
ac ity</w> 4849
sp read</w> 4846
mo del</w> 4846
cred it</w> 4845
fin ding</w> 4844
hot el</w> 4844
mater ial</w> 4843
1 -year-old</w> 4841
hop ing</w> 4838
pay ing</w> 4838
establ ished</w> 4838
St or 4837
an ese</w> 4835
see k</w> 4834
Afgh an 4834
H i 4831
C y 4828
ic ide</w> 4826
O s 4824
olog ical</w> 4824
cab inet</w> 4819
s ley</w> 4817
break ing</w> 4816
initi al</w> 4814
tou ch</w> 4811
Ar gent 4807
influ ence</w> 4807
on ey</w> 4806
pri ority</w> 4806
R en 4805
br illi 4805
b lo 4802
T eam</w> 4801
Afghan istan</w> 4801
Clar ke</w> 4800
Cam bridge</w> 4799
c ow</w> 4797
J ack 4795
Por t 4789
gr an 4787
Ar ab 4787
ga p</w> 4787
port edly</w> 4786
pur su 4786
l ers</w> 4784
pri mary</w> 4782
see m</w> 4782
ound ation</w> 4779
n ations</w> 4778
strugg ling</w> 4778
liam entary</w> 4777
Sh er 4775
r ant</w> 4774
ri c</w> 4770
and a</w> 4770
de part 4769
comp uter</w> 4768
dedic ated</w> 4767
d uty</w> 4766
gr ounds</w> 4764
oun der</w> 4763
S ing 4762
Bl ack</w> 4762
big ger</w> 4762
govern ments</w> 4757
il ian</w> 4754
Ab out</w> 4754
z en</w> 4753
N et 4752
pan el</w> 4749
s hap 4746
An th 4746
fl at</w> 4746
ver sion</w> 4744
as p 4743
Th en</w> 4738
Ther esa</w> 4738
Ever y 4737
diagn os 4736
H ow 4735
ur al</w> 4735
im age</w> 4733
fall en</w> 4732
C C 4729
am ing</w> 4728
cor rec 4728
K ir 4727
dev ast 4727
1 m</w> 4726
plea sed</w> 4725
cor por 4723
sc and 4722
se where</w> 4721
step s</w> 4721
sup porting</w> 4718
fri end 4718
Cl ub</w> 4715
re form</w> 4713
Willi am</w> 4713
O ld</w> 4712
join ing</w> 4712
te gr 4711
fe atures</w> 4710
col leagues</w> 4708
B ang 4706
se emed</w> 4704
id ing</w> 4703
Ru g 4702
parti cip 4702
sec ured</w> 4693
spok en</w> 4693
in ho</w> 4692
M ul 4691
audi ence</w> 4690
op tions</w> 4689
V er 4688
st adium</w> 4686
T e 4683
di plom 4681
suspic ion</w> 4678
ack now 4675
h o 4674
ch urch</w> 4673
Ap ple</w> 4673
St even</w> 4672
join t</w> 4672
re ality</w> 4671
tur ing</w> 4671
ex pressed</w> 4670
wor se</w> 4665
Ac t</w> 4663
quali fying</w> 4663
Fore ign</w> 4659
sur ed</w> 4658
St an 4657
guar an 4652
f oot</w> 4651
op ing</w> 4651
fam ous</w> 4650
ei j 4649
pus h</w> 4647
it es</w> 4645
Mc C 4643
win ners</w> 4642
on to</w> 4640
re portedly</w> 4638
inter ests</w> 4638
se iz 4637
Pr ince</w> 4636
ti e</w> 4635
it ation</w> 4635
pot entially</w> 4630
deliver ed</w> 4630
t elling</w> 4628
Rea ding</w> 4627
Un der</w> 4626
C ent 4624
scienti sts</w> 4624
Anth ony</w> 4620
con sequ 4618
ordin ary</w> 4617
increas ingly</w> 4616
sp ot 4615
Rug by</w> 4615
le - 4613
religi ous</w> 4612
accept able</w> 4610
H am</w> 4609
allow ing</w> 4609
after noon</w> 4609
Sup er</w> 4609
B ut 4608
C os 4608
es sive</w> 4606
ici ent</w> 4605
k een</w> 4603
G a 4603
3 00</w> 4602
ad ds</w> 4602
our n 4601
bal ance</w> 4601
declar ed</w> 4600
c le</w> 4599
ha s 4599
traditi onal</w> 4599
L ou 4598
defin itely</w> 4597
amaz ing</w> 4593
2 7 4591
threat ened</w> 4589
surpr ise</w> 4589
ic it</w> 4587
D et</w> 4586
r are</w> 4585
sur ance</w> 4585
per man 4577
S ci 4576
len g 4576
fo rec 4573
pro - 4572
pro ved</w> 4571
ford shire</w> 4571
Lu ke</w> 4569
Vic tor 4569
im ag 4563
questi oned</w> 4562
p ack 4561
2 6 4561
B la 4560
Nig eria</w> 4558
ha c 4552
gener ation</w> 4551
Min ist 4549
tar gets</w> 4546
S and 4543
cent ury</w> 4538
ey e</w> 4535
f an</w> 4532
ig n 4532
A h 4529
F ul 4528
under stood</w> 4527
requ est</w> 4527
h ing</w> 4525
s outhern</w> 4523
th row</w> 4523
Stu art</w> 4522
Nor wich</w> 4521
cap acity</w> 4518
lef t- 4517
spokes person</w> 4516
bloc k</w> 4515
natur al</w> 4513
no ck</w> 4511
ol der</w> 4509
D ut 4508
conn ection</w> 4508
t ol 4507
Bur n 4507
V en 4502
a be 4499
W ander 4499
s a</w> 4498
D y 4496
19 5 4493
B eij 4491
T al 4491
R ed 4490
Der by</w> 4489
Midd les 4489
l ink</w> 4488
lear ning</w> 4486
com pen 4485
Sp anish</w> 4485
consul tation</w> 4484
an ia</w> 4482
der ing</w> 4482
ick y</w> 4482
ang er</w> 4481
s pl 4479
por ter</w> 4479
ath le 4478
semi- final</w> 4476
Wander ers</w> 4476
K ent</w> 4474
read ing</w> 4474
E duc 4470
L uc 4470
trad ing</w> 4470
row ing</w> 4468
clos ure</w> 4468
may be</w> 4463
est ers</w> 4462
ro ads</w> 4460
em oti 4459
our ed</w> 4458
pris on 4458
attemp ted</w> 4458
ber t</w> 4457
pr actic 4455
commer cial</w> 4453
Democr atic</w> 4452
B C</w> 4451
vis ited</w> 4449
respon ded</w> 4449
cerem ony</w> 4449
T our</w> 4448
Ch an 4444
re ment</w> 4443
Sec urity</w> 4443
coh ol</w> 4441
G B</w> 4440
si t</w> 4440
us ually</w> 4438
invest ors</w> 4437
tin y</w> 4437
H ill</w> 4434
impro ved</w> 4434
200 4</w> 4433
As s 4431
ati sti 4430
Turk ish</w> 4430
t ac 4429
z a</w> 4428
fa ir 4426
ter y</w> 4425
determin ed</w> 4424
O li 4420
foc used</w> 4419
messa ges</w> 4419
rap e</w> 4419
k ic 4417
x ed</w> 4414
discus s</w> 4414
Bl ues</w> 4413
in tegr 4412
pe ti 4411
Beij ing</w> 4411
2 9 4409
Char l 4407
ris ks</w> 4404
wal k</w> 4404
exper t</w> 4403
H ay 4402
ed ged</w> 4401
dr am 4401
six th</w> 4397
con dem 4396
pro duce</w> 4396
f estival</w> 4395
in sisted</w> 4394
k ill</w> 4393
T im</w> 4391
wat ching</w> 4391
occ up 4390
p es</w> 4389
ar i</w> 4389
form ing</w> 4387
no - 4386
hol ders</w> 4386
E uro</w> 4379
tic le</w> 4379
cle an</w> 4378
p ha 4377
pop ul 4374
fre edom</w> 4373
e a</w> 4371
var ious</w> 4370
hol ds</w> 4368
. co 4366
immedi ate</w> 4366
ar ity</w> 4365
fe ature</w> 4364
compe te</w> 4364
st ret 4361
disp ute</w> 4361
co ast</w> 4360
k ni 4359
ac king</w> 4359
spec ies</w> 4359
dis missed</w> 4358
T ow 4357
mak ers</w> 4356
t ab 4355
cont est</w> 4355
2 m</w> 4353
2 -year-old</w> 4352
In stitute</w> 4352
tri gg 4351
bir th</w> 4351
Champi onships</w> 4349
wed i</w> 4347
y ard</w> 4345
ec tions</w> 4343
pro ve</w> 4343
be ating</w> 4342
Wh y</w> 4341
volun te 4339
g ay</w> 4336
hon our</w> 4335
Centr al</w> 4334
B os 4332
G at 4329
rec overy</w> 4329
le d 4328
ul a</w> 4328
In ver 4327
boo ks</w> 4326
on ing</w> 4325
200 3</w> 4324
H ong</w> 4323
2 ,000</w> 4323
sa v 4322
Por tu 4322
gr y</w> 4321
mid dle</w> 4319
3 4</w> 4316
se as</w> 4314
Sto ke</w> 4313
sev ere</w> 4312
des ign</w> 4310
Al i</w> 4307
inf ra 4307
em outh</w> 4306
Pal est 4304
g han</w> 4303
C ook</w> 4303
S P 4302
20 20</w> 4302
recor ds</w> 4301
Fol lowing</w> 4298
wel fare</w> 4297
i f 4294
viol ent</w> 4294
lim it</w> 4293
equ ip 4293
F un 4292
lar gely</w> 4291
si ght</w> 4290
prof it</w> 4289
itor ing</w> 4289
p sy 4288
sc r 4288
u k</w> 4287
P ub 4284
clos ely</w> 4284
cru cial</w> 4283
at re</w> 4282
bl es</w> 4281
ed d</w> 4279
achiev ed</w> 4279
f ought</w> 4278
BB C 4278
h ospitals</w> 4277
4 8</w> 4277
ish ment</w> 4275
H e 4274
control led</w> 4274
Pr os 4273
D ur 4272
hat ever</w> 4271
ay ne</w> 4270
de e 4269
cre w</w> 4268
K ing 4267
D UP</w> 4267
North ampton</w> 4265
s low 4259
ap pre 4259
3 3</w> 4257
teen ager</w> 4255
res sing</w> 4254
Pro f 4253
holid ay</w> 4251
on ze</w> 4248
enc ing</w> 4246
assist ant</w> 4246
sh op 4245
t ings</w> 4236
happen s</w> 4236
may or</w> 4236
Isra el 4235
ist le</w> 4234
Jos h</w> 4234
sig n 4233
f at 4232
loc ation</w> 4232
h en 4231
de als</w> 4231
Stur geon</w> 4230
susp ect</w> 4225
e di 4224
o es</w> 4224
enti re</w> 4223
proc ed 4223
sol ution</w> 4222
den ies</w> 4221
f resh</w> 4220
dea d 4219
infra structure</w> 4218
quar ter- 4217
an der</w> 4216
follow s</w> 4216
P ress</w> 4215
Ac ad 4215
it age</w> 4214
ra il</w> 4214
equip ment</w> 4213
w er</w> 4211
ag s</w> 4208
foot age</w> 4208
lin ks</w> 4208
y outh</w> 4207
govern ing</w> 4205
off ering</w> 4201
wid ely</w> 4199
streng th</w> 4198
F our</w> 4197
neighb our 4197
M ir 4196
employ ees</w> 4196
retur ning</w> 4194
develop ing</w> 4194
s n 4191
Y ou 4191
aim ed</w> 4190
Educ ation</w> 4188
N i 4187
st ing</w> 4186
m ale</w> 4185
ar ily</w> 4185
min imum</w> 4184
form ation</w> 4182
dri ven</w> 4181
g row</w> 4180
journ alists</w> 4180
Li b</w> 4172
me th 4171
al cohol</w> 4170
is tic</w> 4170
happen ing</w> 4169
o v</w> 4168
3 6</w> 4167
d aily</w> 4164
addi tion</w> 4163
b la 4161
pres ence</w> 4161
organ ised</w> 4160
obvi ously</w> 4160
,0 0 4159
docum ents</w> 4159
mem ber 4158
Hu gh 4158
um n</w> 4157
of - 4156
f ears</w> 4155
exten ded</w> 4152
la h</w> 4151
t ren 4149
wal king</w> 4149
exc iting</w> 4147
c ally</w> 4141
Au thor 4141
K ong</w> 4140
recogn ised</w> 4137
activi ties</w> 4137
b arri 4136
ni a</w> 4136
e th</w> 4135
claim ing</w> 4134
Pe ter 4126
aut om 4124
half- time</w> 4124
10 - 4122
ic op 4121
encour age</w> 4119
C ast 4118
al er 4117
bl ing</w> 4114
m al 4112
f ast 4112
fra ud</w> 4111
Di rec 4109
c ent</w> 4108
H amp 4106
sc ru 4106
v ent 4104
o ther 4104
ex erc 4103
m ass</w> 4101
ag encies</w> 4101
D ou 4100
os ter</w> 4099
star s</w> 4099
tem per 4099
Cor n 4097
sk i</w> 4097
ash es</w> 4097
har m</w> 4096
2- 0</w> 4095
versi ties</w> 4094
S ky</w> 4093
e m</w> 4092
Un der 4092
Hugh es</w> 4092
broad cast</w> 4091
oc rac 4090
fun ded</w> 4090
sanc tions</w> 4090
diffic ul 4088
f it 4087
dar k</w> 4085
th i 4083
Gra ham</w> 4083
d d 4082
promis e</w> 4082
Y ear</w> 4079
i b 4078
R ead</w> 4077
f al 4075
ti al</w> 4075
cre ating</w> 4074
n ice</w> 4073
win dow</w> 4073
star ts</w> 4073
Bri ghton</w> 4073
writ ing</w> 4073
Ex eter</w> 4072
releg ation</w> 4072
at tr 4069
ti an</w> 4068
fe e</w> 4065
dang er</w> 4064
ul ed</w> 4063
ed itor</w> 4062
si ster</w> 4061
opin ion</w> 4058
pre me</w> 4057
beg ins</w> 4055
competi tive</w> 4055
fac ilities</w> 4052
dam aged</w> 4052
intro duc 4050
promot ion</w> 4050
H ill 4049
Democr ats</w> 4049
stand ard</w> 4048
O f 4046
play -off</w> 4046
B ow 4045
ci pl 4045
certain ty</w> 4045
Q C</w> 4044
su icide</w> 4044
it ar 4043
expen sive</w> 4040
Mex ico</w> 4040
pro por 4039
tit les</w> 4038
hur t</w> 4038
ar ch 4037
e fore</w> 4036
ad ed</w> 4035
sit ting</w> 4033
o o</w> 4031
s bury</w> 4031
con sum 4030
sim ple</w> 4030
win ter</w> 4028
sh ock</w> 4027
ph ones</w> 4027
C ov 4026
n i</w> 4025
bu m</w> 4025
K han</w> 4024
top - 4024
exc ell 4022
alter native</w> 4022
flo or</w> 4019
dee ply</w> 4018
anim al</w> 4015
es h</w> 4014
D um 4013
sib ly</w> 4010
consul t 4010
conclu ded</w> 4007
ili ans</w> 4006
si er</w> 4004
origin ally</w> 4003
W igan</w> 4002
um s</w> 4002
acad em 4002
rec overed</w> 4001
D an</w> 4000
pol ls</w> 4000
sha dow</w> 3999
minist ry</w> 3998
m ic 3997
analy sis</w> 3996
P ort</w> 3993
Wh o</w> 3993
gran ted</w> 3990
R h 3989
an ding</w> 3989
fu el</w> 3989
oper ate</w> 3986
disappoin ting</w> 3986
Sin n</w> 3986
C ru 3985
out come</w> 3985
Es sex</w> 3981
r on</w> 3979
depend ent</w> 3979
Se a</w> 3979
li es</w> 3977
L y 3976
vo ice</w> 3975
rem ove</w> 3970
comfor table</w> 3970
s ong</w> 3969
w ish</w> 3969
mea sure</w> 3968
consid ering</w> 3963
terror ist</w> 3963
Os borne</w> 3963
g in</w> 3962
att ers</w> 3961
aff ect</w> 3961
as yl 3960
ep tion</w> 3960
J ust</w> 3959
Jud ge</w> 3958
T el 3957
re new 3956
hel icop 3956
n is</w> 3955
st ore</w> 3954
ocrac y</w> 3954
em is 3953
ex clu 3953
fe els</w> 3952
speci fic</w> 3952
sil ver</w> 3951
sm aller</w> 3949
ap s</w> 3946
Pu tin</w> 3946
appl ication</w> 3944
g ar</w> 3942
re place</w> 3942
Se an</w> 3942
Bri dge</w> 3941
v a</w> 3939
f ers</w> 3939
comm od 3938
ap ply</w> 3937
mar riage</w> 3937
enjo y</w> 3937
en ty</w> 3936
Ne ther 3936
H ot 3927
W ill</w> 3927
D al 3925
re n</w> 3924
ver se</w> 3924
off side</w> 3921
T ory</w> 3920
ir ing</w> 3919
do gs</w> 3919
pre gn 3918
J en 3917
al a</w> 3917
l ots</w> 3916
em en</w> 3916
Rob inson</w> 3913
Palest in 3910
sour ces</w> 3909
es hire</w> 3908
b es</w> 3904
gre en</w> 3904
infl ation</w> 3902
4 4</w> 3901
dev ices</w> 3901
Loc al</w> 3901
sh ots</w> 3899
Char lie</w> 3898
Matthe w</w> 3898
out standing</w> 3895
mid - 3895
mon t</w> 3894
quar ters</w> 3894
re action</w> 3891
M el 3890
tal ent</w> 3883
trib ute</w> 3882
mat ely</w> 3880
member ship</w> 3878
sub sequ 3876
B ourn 3875
H ud 3875
pur cha 3874
wor ried</w> 3867
Ar my</w> 3867
Belgi um</w> 3867
coun ts</w> 3866
vot ing</w> 3864
prosecu tion</w> 3863
uc ky</w> 3862
ta il</w> 3862
ag ram</w> 3860
hea ding</w> 3859
3 8</w> 3858
F ind</w> 3857
prov ince</w> 3857
prof its</w> 3857
Or g 3856
in d 3854
off ence</w> 3854
under standing</w> 3854
r os 3851
Bourn emouth</w> 3850
sa tis 3849
Mid lands</w> 3848
strugg led</w> 3847
n in 3846
Mos cow</w> 3846
scand al</w> 3846
perf ect</w> 3844
clos ing</w> 3842
B ud 3841
dre w</w> 3840
resp ond</w> 3840
par liamentary</w> 3839
ra id</w> 3839
histor ic</w> 3839
Lin col 3837
li sted</w> 3836
Tu be</w> 3836
th u 3835
Car l 3835
al bum</w> 3834
proper ly</w> 3834
oppon ents</w> 3834
un d 3833
compl aints</w> 3833
Youn g</w> 3832
C ath 3828
ver dic 3828
ussi ons</w> 3827
usti n</w> 3827
propos al</w> 3827
3 m</w> 3826
anc ing</w> 3826
P an 3825
s ought</w> 3823
fe wer</w> 3823
ess ing</w> 3823
M our 3822
dig ital</w> 3821
favour ite</w> 3819
M S 3818
do m</w> 3818
br and</w> 3818
8 . 3817
pres ented</w> 3816
doc tor</w> 3815
f ish</w> 3813
I l 3812
cent res</w> 3812
speci alist</w> 3812
prot esters</w> 3811
enjo yed</w> 3811
in sul 3810
s low</w> 3808
An derson</w> 3808
et t</w> 3808
are th</w> 3807
ra il 3805
becom es</w> 3805
inten ded</w> 3803
auth or</w> 3803
v ement</w> 3802
5 5</w> 3802
2- 1</w> 3802
ly - 3801
r in 3800
recei ving</w> 3800
net t</w> 3800
u ti 3799
J ason</w> 3799
asyl um</w> 3799
h a</w> 3798
g ain</w> 3797
Egy pt</w> 3797
Nether lands</w> 3795
F ree</w> 3794
com mission</w> 3794
L au 3793
recomm end 3793
rest aur 3790
t esting</w> 3789
Gor don</w> 3785
yst al</w> 3785
g al</w> 3781
in spec 3781
sett l 3781
p ers</w> 3779
identi fy</w> 3779
clear ed</w> 3779
min e</w> 3778
com man 3776
ph ere</w> 3776
direc tion</w> 3776
reti red</w> 3776
ain e</w> 3775
mar ked</w> 3775
det ained</w> 3775
S win 3773
pay ment</w> 3773
an ci 3770
Bri an</w> 3770
cat eg 3770
part nership</w> 3769
enter tain 3769
wick ets</w> 3769
ou c 3768
pl us</w> 3768
jud ges</w> 3768
v es 3767
tur ning</w> 3766
fer red</w> 3766
trav elled</w> 3766
dis cipl 3764
chec k</w> 3764
sur ve 3761
st ock</w> 3760
Sur rey</w> 3760
t el</w> 3759
sing er</w> 3759
B oy 3758
ch os 3757
th anks</w> 3756
tr ained</w> 3756
off ers</w> 3756
Gu ar 3756
att end</w> 3755
Pr ot 3755
sp on 3753
pol l 3751
not e</w> 3751
lea ves</w> 3750
industri al</w> 3749
it ems</w> 3748
gi c</w> 3748
impro ving</w> 3748
investig ated</w> 3747
ra ising</w> 3745
sc ar 3744
Pub lic</w> 3744
c us</w> 3743
pos sibility</w> 3743
Inst agram</w> 3743
territ ory</w> 3743
b our 3742
fin ance</w> 3742
sub stan 3742
apolog ised</w> 3741
ish op</w> 3740
challen ging</w> 3740
an ni 3739
b ru 3738
f la 3734
4 00</w> 3733
rel ations</w> 3732
I P 3729
pri ze</w> 3729
Li ons</w> 3729
dis h</w> 3727
mis s 3727
clos er</w> 3727
relati vely</w> 3727
t ree</w> 3726
perman ent</w> 3725
w ise</w> 3723
st ages</w> 3723
cover age</w> 3723
brilli ant</w> 3723
P i 3721
in stitu 3719
Ro d 3714
pus hed</w> 3714
win d</w> 3712
bac king</w> 3712
Dub lin</w> 3710
recogn ise</w> 3709
j u 3708
ch - 3708
Inver ness</w> 3707
w ick</w> 3706
A F</w> 3706
six - 3706
S E</w> 3704
R og 3703
ad m 3702
mar ried</w> 3701
gre w</w> 3701
G areth</w> 3700
pol l</w> 3698
attemp ts</w> 3697
dis aster</w> 3696
b on</w> 3688
Tran sport</w> 3688
ex it</w> 3687
eff ectively</w> 3686
exp ect 3682
at edly</w> 3680
peti tion</w> 3680
high li 3679
st y</w> 3676
ad op 3676
J im</w> 3674
ur s</w> 3673
ear ned</w> 3673
civ ilians</w> 3673
mean ing</w> 3673
re put 3672
Cov entry</w> 3672
Su preme</w> 3671
sp ell</w> 3670
wit nesses</w> 3665
acknow led 3665
p ain</w> 3661
un less</w> 3660
mak er</w> 3660
b a</w> 3659
youn ger</w> 3659
J ew 3657
ov a</w> 3657
Cent ury</w> 3657
se es</w> 3656
investig ations</w> 3656
equ i 3655
E d</w> 3654
3 7</w> 3654
St ew 3651
tw are</w> 3649
Gl ouc 3649
vers ary</w> 3648
or i 3647
bur g</w> 3647
Con gress</w> 3646
O ver</w> 3640
sust ain 3639
ma x 3638
9 . 3637
re aching</w> 3636
ex hi 3636
C A</w> 3634
gr at 3634
investig ate</w> 3634
F ord</w> 3632
estab lish</w> 3632
Pat rick</w> 3632
Asi a</w> 3632
B a 3631
produc t</w> 3631
L a</w> 3630
sh ut</w> 3627
f low 3624
wat ched</w> 3624
wast e</w> 3624
A ston</w> 3623
W e 3622
su d 3621
si vely</w> 3620
strong ly</w> 3620
activi sts</w> 3620
ab led</w> 3618
won der 3618
As sad</w> 3616
our selves</w> 3613
critic s</w> 3613
On ly</w> 3613
des per 3612
plat form</w> 3610
ap e</w> 3609
allow s</w> 3607
Hum an</w> 3607
Israel i</w> 3604
k ne 3602
el e</w> 3602
di o</w> 3601
inter ested</w> 3601
1- 0</w> 3600
Br us 3599
Res earch</w> 3599
y ards</w> 3598
enter ed</w> 3596
coun t</w> 3594
bl amed</w> 3594
sli ghtly</w> 3593
fe es</w> 3591
refer ee</w> 3590
Ear th</w> 3590
re forms</w> 3589
v ast</w> 3588
invol vement</w> 3588
repres ents</w> 3588
Victor ia</w> 3588
fl ying</w> 3585
4 2</w> 3580
cl es</w> 3580
c ro 3579
st ance</w> 3579
D am 3578
quot ed</w> 3578
pil ot</w> 3578
fil ms</w> 3577
app ing</w> 3576
200 2</w> 3576
eff ects</w> 3576
main tain</w> 3576
Wat son</w> 3576
ol ds</w> 3575
E con 3573
sw im 3573
en a</w> 3572
sa tions</w> 3572
Hav ing</w> 3571
In s 3570
C at 3569
ther efore</w> 3569
Econ om 3569
hea ds</w> 3568
Dav is</w> 3568
ro ck</w> 3567
e u 3566
sur face</w> 3565
repe atedly</w> 3564
hous es</w> 3563
w est 3562
ag gres 3562
alleg edly</w> 3562
ha r</w> 3560
chos en</w> 3560
B I</w> 3559
200 1</w> 3559
gather ed</w> 3558
et ro 3557
sof tware</w> 3557
e- up</w> 3556
pos session</w> 3555
per mission</w> 3552
cop e</w> 3550
secre t</w> 3548
Def ence</w> 3547
g oods</w> 3546
ar m 3545
m ad</w> 3543
w illing</w> 3543
qu ick</w> 3543
sur ing</w> 3543
Pl ay 3541
i ri 3540
Sc ar 3540
R em 3539
r y 3536
B ak 3536
V ale</w> 3536
gi es</w> 3535
over ty</w> 3534
cut ting</w> 3529
know ledge</w> 3528
regi me</w> 3528
Be fore</w> 3528
h y</w> 3526
di stri 3526
atisti cs</w> 3526
i ff</w> 3524
C um 3524
lear ned</w> 3524
ati cally</w> 3519
Mur phy</w> 3513
trou ble</w> 3513
W y 3512
Soci ety</w> 3509
T y 3508
ou ts</w> 3508
ab s 3507
3 ,000</w> 3506
threat ening</w> 3506
Can adi 3505
Jap anese</w> 3505
c ked</w> 3503
fre e- 3503
impres sive</w> 3503
pre ven 3502
t ested</w> 3501
over seas</w> 3499
ea s 3498
Sus sex</w> 3498
prison ers</w> 3497
f ounder</w> 3496
T ali 3496
op pos 3496
se l</w> 3496
arti st</w> 3496
gen der</w> 3495
ash ire</w> 3494
Lanc ashire</w> 3494
Rober ts</w> 3493
u ment</w> 3491
uni versities</w> 3491
T un 3489
ic ed</w> 3489
up on</w> 3489
r ich</w> 3487
Ins p</w> 3487
ter ror</w> 3485
canc elled</w> 3484
S el 3482
quali fied</w> 3482
dr ama</w> 3481
ey es</w> 3481
strugg le</w> 3481
c tion</w> 3479
l ucky</w> 3479
Amer icans</w> 3479
compen sation</w> 3479
proc e 3477
lif ted</w> 3476
great est</w> 3476
sh ops</w> 3473
los ses</w> 3472
domin ated</w> 3472
A dam 3469
pro gres 3469
Ro ther 3469
10 ,000</w> 3469
under - 3468
w ake</w> 3467
D ep 3466
jud g 3465
ab road</w> 3464
manag ing</w> 3464
Pol and</w> 3462
el sewhere</w> 3461
amb iti 3460
As ked</w> 3459
N A</w> 3458
Brus sels</w> 3458
re bel</w> 3456
publ ic 3456
N av 3455
foot b 3455
defen ding</w> 3455
oc cur 3454
in nings</w> 3453
att ack 3453
consum ers</w> 3453
o on</w> 3450
Swed en</w> 3449
Wat ford</w> 3447
Brad ford</w> 3446
ar i 3445
Rus sell</w> 3444
sa m 3443
c in 3442
nor th- 3441
M an</w> 3440
tr ains</w> 3440
shar ing</w> 3439
ac ks</w> 3438
ali ve</w> 3438
up s</w> 3438
vir us</w> 3437
lawy ers</w> 3436
P laid</w> 3435
wh el 3435
techn ical</w> 3434
s ound</w> 3432
tempor ary</w> 3432
op posed</w> 3428
I R 3427
Har t 3427
Stew art</w> 3427
prot ected</w> 3426
sum mit</w> 3426
t ells</w> 3425
form al</w> 3425
sugg estion</w> 3424
tor al</w> 3424
g ro 3422
Jack son</w> 3422
anni versary</w> 3421
pen sion</w> 3420
eng ine</w> 3420
C i 3419
sc ore 3419
dec ent</w> 3418
Qu e 3418
mom ents</w> 3418
re porters</w> 3417
O ri 3415
j a 3415
dis crimin 3415
dem ocracy</w> 3414
u el</w> 3413
C u 3413
at mos 3413
inform ed</w> 3413
strong er</w> 3413
or ies</w> 3412
assess ment</w> 3412
aw a 3411
seiz ed</w> 3411
Char les</w> 3409
A ir</w> 3408
Tali ban</w> 3408
surpr ised</w> 3407
Argent ina</w> 3407
6 0 3406
M y 3406
positi ons</w> 3404
st ol 3403
var i 3403
Offic ers</w> 3403
bl ue</w> 3402
Gre ek</w> 3401
team- mate</w> 3400
con centr 3398
b ail</w> 3397
an ge</w> 3397
di vision</w> 3396
import ance</w> 3396
employ ed</w> 3396
destro yed</w> 3396
ri ght- 3394
m atters</w> 3392
C ub 3392
4 1</w> 3392
sen ding</w> 3392
main ly</w> 3392
gu ys</w> 3391
bi e</w> 3391
C la 3390
every body</w> 3390
t led</w> 3389
k id 3387
4 3</w> 3385
c overed</w> 3384
10 0m</w> 3384
deal ing</w> 3383
signific antly</w> 3381
heal thy</w> 3381
A mon 3380
ve ter 3379
friend ly</w> 3379
part ners</w> 3378
wonder ful</w> 3378
lic ence</w> 3375
leg ally</w> 3374
F oundation</w> 3373
pl enty</w> 3373
excell ent</w> 3373
al ism</w> 3371
de ploy 3371
refer red</w> 3371
- to- 3370
ef s</w> 3369
def end</w> 3369
st ations</w> 3368
contr acts</w> 3367
fas hi 3365
uni que</w> 3364
Chil dren</w> 3364
do ors</w> 3363
re gre 3362
rac ing</w> 3362
C amp 3361
6 m</w> 3360
Mour inho</w> 3356
an ch 3355
Musli ms</w> 3355
op er</w> 3354
hop efully</w> 3354
S A</w> 3352
Ri ghts</w> 3352
Islam ist</w> 3349
ten nis</w> 3347
re stor 3346
ea sier</w> 3346
On ce</w> 3346
ex change</w> 3345
deli ber 3345
sav ings</w> 3345
f ly</w> 3344
s un 3343
stol en</w> 3343
mist ake</w> 3336
regist ered</w> 3335
Mer ced 3334
A F 3333
P hi 3333
Al li 3331
ric ul 3331
Mo ham 3330
de g 3329
sh ore</w> 3327
co de</w> 3327
Kore an</w> 3327
re ve 3325
Cr ystal</w> 3325
mot iv 3324
w inger</w> 3323
loc ated</w> 3323
Inst ead</w> 3323
Phili p</w> 3323
curren cy</w> 3321
s outh 3320
ur a</w> 3320
wor ker</w> 3320
ang ing</w> 3320
st ers</w> 3319
man age</w> 3319
re venue</w> 3318
med als</w> 3318
R ow 3317
Bol ton</w> 3317
har d 3316
program mes</w> 3315
z ed</w> 3314
acc ur 3314
appe aled</w> 3314
Dut ch</w> 3313
B ay</w> 3312
journ alist</w> 3310
surr ounding</w> 3310
ar gue</w> 3308
am bulance</w> 3307
pos sibly</w> 3307
ben ch</w> 3306
exc ited</w> 3304
impl em 3304
requ ire</w> 3303
consequ ences</w> 3303
passen ger</w> 3302
.co . 3302
L or 3301
un beaten</w> 3301
A k 3300
or ders</w> 3300
cho ose</w> 3300
Rother ham</w> 3298
8 0 3297
car ri 3297
scre en</w> 3297
S ti 3294
poin ted</w> 3294
M iss</w> 3293
H on 3292
verdic t</w> 3292
c a</w> 3290
3 9</w> 3289
thre ats</w> 3289
w er 3288
C ali 3288
4 7</w> 3288
th ank</w> 3288
dec line</w> 3288
1 bn</w> 3287
ear n</w> 3287
ni c</w> 3286
Fer n 3285
Bay ern</w> 3283
uni or</w> 3282
p overty</w> 3281
5 0,000</w> 3281
av es</w> 3280
identi ty</w> 3280
Ira q 3279
alli es</w> 3278
ac commod 3276
ch ancellor</w> 3276
rac es</w> 3276
ir k</w> 3275
improv ement</w> 3275
A ra 3274
20 00</w> 3274
Col om 3274
7 5</w> 3273
Q at 3272
in nov 3272
sel ection</w> 3272
defen ded</w> 3271
conv inc 3271
p ath</w> 3270
bu ying</w> 3270
ou ghts</w> 3269
Mid dle</w> 3269
es sions</w> 3268
repres ent</w> 3268
pe ac 3267
V an</w> 3266
dis closed</w> 3266
insp ired</w> 3266
west ern</w> 3265
b alls</w> 3264
w age</w> 3264
regul arly</w> 3263
far mers</w> 3262
p a</w> 3261
20 ,000</w> 3260
del ay</w> 3260
ri sts</w> 3258
bo d</w> 3258
Merced es</w> 3258
ag ement</w> 3257
provid es</w> 3255
inter nal</w> 3254
p ea 3253
over whel 3252
G il 3250
ci a</w> 3250
ven ues</w> 3250
6 5</w> 3248
cr ashed</w> 3247
disc ussions</w> 3245
g am 3243
br onze</w> 3243
Amon g</w> 3243
reput ation</w> 3240
ong s</w> 3239
o ds</w> 3238
S ud 3238
prin ci 3238
im possible</w> 3237
gu ide</w> 3237
coun ter 3237
heav ily</w> 3237
I p 3236
pres sion</w> 3236
environ mental</w> 3236
w hatever</w> 3235
fin ed</w> 3234
an gry</w> 3233
R ail</w> 3232
Ro oney</w> 3232
ag ers</w> 3230
incredi ble</w> 3230
euro s</w> 3229
deg ree</w> 3229
P M</w> 3228
li ber 3226
far m</w> 3226
Cath ol 3226
Mal ay 3225
neg ative</w> 3224
sec s</w> 3223
tick ets</w> 3223
min ority</w> 3221
Mus eum</w> 3221
u k 3220
rel ev 3220
Burn ley</w> 3220
Com mon 3219
A ar 3218
sea sons</w> 3218
repl ied</w> 3218
BBC News 3217
l an</w> 3215
3 , 3215
Bus iness</w> 3215
im posed</w> 3214
def icit</w> 3214
10 0,000</w> 3214
bea uti 3213
pre ad</w> 3209
sen si 3209
performan ces</w> 3207
com par 3206
tru th</w> 3206
A y 3204
H ere</w> 3203
inter esting</w> 3203
repres ented</w> 3203
S ome 3201
sched uled</w> 3201
tic al</w> 3199
D aily</w> 3198
hol e</w> 3198
Del ay</w> 3198
Gre en 3195
ca p</w> 3195
si sts</w> 3194
br an 3194
ash ing</w> 3194
T ro 3193
sp ac 3192
Ma e</w> 3192
sh ir 3191
bad ly</w> 3191
S lo 3190
es pread</w> 3190
Ch ancellor</w> 3190
ba sic</w> 3190
id a</w> 3187
d life</w> 3185
ha b 3184
is er</w> 3183
plan ts</w> 3183
L loy 3180
Som er 3180
Black burn</w> 3177
p ound</w> 3176
B ail 3175
Cali for 3175
deli very</w> 3174
ac t 3173
distr ict</w> 3171
B all 3164
appoin tment</w> 3164
offen sive</w> 3164
dist ance</w> 3163
Nig el</w> 3163
electr icity</w> 3162
Phi l</w> 3162
est ate</w> 3161
um p 3161
plea ded</w> 3161
w ear</w> 3159
Bar n 3159
man if 3158
s at 3157
W right</w> 3157
me t 3157
Car ol 3157
co ast 3156
multi ple</w> 3155
P ly 3154
manag ers</w> 3151
n or</w> 3150
E C 3150
de st 3150
atur ed</w> 3150
wid espread</w> 3150
at tit 3149
over night</w> 3149
br ough</w> 3148
G len 3147
Malay si 3147
n an</w> 3146
Chan nel</w> 3145
st un 3144
as er</w> 3144
Author ity</w> 3144
Hamp shire</w> 3142
cour ts</w> 3141
C all 3140
V ar 3140
collap sed</w> 3138
ev ac 3137
gen u 3137
E li 3136
ap prov 3135
assa ul 3135
T reas 3134
new s 3134
Mill er</w> 3132
G ill 3131
aff airs</w> 3131
atmos phere</w> 3131
f requ 3130
cont acted</w> 3130
replac ement</w> 3130
her self</w> 3130
f led</w> 3129
dre am</w> 3129
tot ally</w> 3127
M ary</w> 3124
eas ily</w> 3124
pos ts</w> 3123
fin ishing</w> 3123
Ful ham</w> 3122
b y- 3121
con firm</w> 3121
un certainty</w> 3120
Common wealth</w> 3120
ist rates</w> 3119
fe atured</w> 3117
g ins</w> 3116
al ise</w> 3116
Lib ya</w> 3116
mag az 3115
De an</w> 3114
Arab ia</w> 3114
Y es</w> 3110
nation als</w> 3110
stab bed</w> 3110
on t</w> 3109
bbc .co. 3109
E very</w> 3107
4 m</w> 3106
Ma j 3106
Au stri 3105
coll ection</w> 3105
mos tly</w> 3105
bo t</w> 3104
stre am</w> 3104
shap e</w> 3104
fe et</w> 3103
Middles brough</w> 3103
no- one</w> 3103
t ask</w> 3102
er r 3101
fa ith</w> 3101
h ill</w> 3100
T re 3100
W ith 3100
trans fers</w> 3099
pos t 3097
Ed wards</w> 3097
id es</w> 3096
Ply mouth</w> 3095
Sp ec 3094
pas sing</w> 3093
d ad</w> 3091
D e</w> 3090
relati ves</w> 3089
ide as</w> 3089
S qu 3088
fun dam 3088
ish es</w> 3088
har der</w> 3088
K in 3087
s wi 3086
o k</w> 3085
k in</w> 3085
k able</w> 3085
B i 3085
el ines</w> 3084
p son</w> 3083
chil d 3083
F ire</w> 3082
z y</w> 3081
ri ver</w> 3080
be half</w> 3080
mem ory</w> 3080
e ting</w> 3079
ro ll</w> 3079
Wor c 3079
em or 3078
ret ail 3077
spl it</w> 3077
writ er</w> 3075
g or 3073
Par aly 3071
us h</w> 3070
G al 3069
l ay</w> 3068
be ach</w> 3068
En viron 3068
En d</w> 3067
improv ements</w> 3067
S ports</w> 3066
M et</w> 3066
te aching</w> 3065
Ken ya</w> 3065
vis iting</w> 3064
- of- 3063
p raised</w> 3063
proper ties</w> 3063
feder al</w> 3063
Ro b</w> 3062
D arren</w> 3061
spor ting</w> 3061
7 m</w> 3060
L e</w> 3060
penal ties</w> 3060
un acceptable</w> 3059
del ayed</w> 3059
Canadi an</w> 3059
h s</w> 3057
b led</w> 3057
plac ements</w> 3056
coun ter</w> 3055
4 6</w> 3054
th oughts</w> 3054
H an 3052
extr a 3052
r ural</w> 3050
il st</w> 3050
Re g 3050
al ty</w> 3049
institu tions</w> 3049
t ech</w> 3047
us er</w> 3047
ni an</w> 3047
H op 3046
aim s</w> 3046
d oping</w> 3045
Somer set</w> 3044
sh oul 3043
seven th</w> 3041
sub stitute</w> 3040
succ essive</w> 3040
per c 3039
defen d 3039
Aar on</w> 3039
Na to</w> 3038
Gre ater</w> 3037
Port sm 3037
5 bn</w> 3036
expl ain</w> 3036
I s</w> 3033
S wit 3032
per form</w> 3032
Nic ola</w> 3032
K elly</w> 3030
8 m</w> 3029
d g 3028
Ne ill</w> 3028
Black pool</w> 3028
Bla ir</w> 3028
H od 3027
it er 3026
D ons</w> 3025
gr ade</w> 3025
mo d 3025
Portsm outh</w> 3025
bi ke</w> 3024
contribu tion</w> 3023
mus eum</w> 3022
k - 3020
Pre ston</w> 3020
conduc ted</w> 3019
highli ghted</w> 3018
bus y</w> 3016
Ash ley</w> 3015
Ara b</w> 3015
collap se</w> 3014
min ent</w> 3013
un usual</w> 3011
ti er</w> 3009
T ra 3008
Wal ker</w> 3008
Hud der 3008
ut ton</w> 3007
thin ks</w> 3007
b low</w> 3006
L an 3006
ren ce</w> 3006
grow n</w> 3006
Ven ez 3006
bir ds</w> 3005
emis sions</w> 3005
K im</w> 3004
f lights</w> 3004
grad u 3004
l un 3003
ap art</w> 3003
Hen ry</w> 3003
ow ed</w> 3002
fu n</w> 3002
shoc ked</w> 3001
1 1 2999
Venez u 2999
k ids</w> 2998
Hudder sfield</w> 2998
t om 2997
G P</w> 2996
Re uters</w> 2996
step ped</w> 2995
on ally</w> 2994
on able</w> 2993
th rown</w> 2992
del ays</w> 2992
fortun ately</w> 2992
Th istle</w> 2991
att le</w> 2990
sec u 2989
An aly 2989
s i</w> 2986
W en 2986
pre ced 2985
Bar ack</w> 2985
wea k 2984
C as 2982
ad equ 2982
re signed</w> 2981
sh el 2981
R ev 2980
ad ults</w> 2980
de - 2980
V ir 2979
settl ement</w> 2979
Da ve</w> 2977
pro per</w> 2975
c oin 2973
heal th 2973
bbc.co. uk</w> 2973
conn ected</w> 2972
t g 2971
cam era</w> 2971
R ef 2970
approv al</w> 2970
e at</w> 2969
Mo ther 2969
bri ef 2967
wh er 2966
s son</w> 2965
cap able</w> 2963
fac ility</w> 2963
pl edged</w> 2962
Gr ant</w> 2962
bl ame</w> 2961
Bo ard</w> 2961
per formed</w> 2957
fac tor</w> 2956
not ice</w> 2956
fair ly</w> 2956
dow s</w> 2955
P C</w> 2954
Portu gal</w> 2954
j a</w> 2950
Bar ry</w> 2949
ulti mately</w> 2949
Sar ah</w> 2949
You Tube</w> 2949
S af 2948
Mar k 2948
y ers</w> 2947
al ities</w> 2947
ob j 2947
Val ley</w> 2947
are s</w> 2946
AF P</w> 2946
ic ated</w> 2945
prosp ect</w> 2945
G ab 2944
in surance</w> 2944
loc ked</w> 2942
wr ite</w> 2941
Brad ley</w> 2939
ac tors</w> 2938
c ore</w> 2937
cha in</w> 2937
So cial</w> 2937
sustain able</w> 2937
k irk</w> 2936
ab ilities</w> 2936
lit er 2936
Fi ve</w> 2936
exerc ise</w> 2936
j usti 2935
adver ti 2935
helicop ter</w> 2935
4 9</w> 2934
com be</w> 2934
Bro m 2932
tick et</w> 2932
fac tory</w> 2930
Ma h 2930
ess ential</w> 2926
lar ger</w> 2926
dr ink</w> 2926
B illy</w> 2925
F oster</w> 2925
Hol y 2925
A ma 2924
ti s</w> 2924
be gun</w> 2924
ast ers</w> 2924
correc t</w> 2924
wr ong 2923
relev ant</w> 2923
Not ts</w> 2922
Air port</w> 2922
es co</w> 2921
W all 2920
I I</w> 2916
as sets</w> 2916
s acked</w> 2915
su it</w> 2914
sec tion</w> 2914
bas sad 2914
uni ons</w> 2914
susp ects</w> 2913
mee tings</w> 2912
b ound</w> 2911
is ol 2911
n it 2907
n av 2907
Ph illi 2907
Thom pson</w> 2907
re porting</w> 2905
mov es</w> 2905
eth nic</w> 2904
vir tu 2903
D NA</w> 2902
hel ps</w> 2901
pris ing</w> 2901
Tor ies</w> 2900
P ot 2899
fun eral</w> 2898
lik es</w> 2898
Ju li 2898
p el 2897
enti rely</w> 2897
erg y</w> 2897
den y</w> 2895
sp in 2894
associ ated</w> 2894
le tt 2893
regul ations</w> 2893
C ul 2892
is le</w> 2891
on ist</w> 2890
low est</w> 2890
cul tural</w> 2890
cat ch</w> 2890
wal ked</w> 2888
m ile</w> 2887
b ell</w> 2887
O per 2887
un ve 2886
bo y 2886
Ass embly</w> 2886
ol ved</w> 2885
quali fi 2885
198 0s</w> 2885
Treas ury</w> 2885
as su 2884
oun ced</w> 2884
Ip sw 2884
c ks</w> 2883
B ru 2883
med ic 2883
campaig ners</w> 2883
Q a 2882
inv est</w> 2882
hor ri 2879
Ipsw ich</w> 2878
mach ine</w> 2877
In dependent</w> 2876
Adam s</w> 2876
Iraq i</w> 2876
6 00</w> 2875
ad ap 2875
CC TV</w> 2874
n ell</w> 2873
mig rant</w> 2872
ir s</w> 2871
recommend ations</w> 2871
Don caster</w> 2870
bir th 2870
strat e 2870
sust ained</w> 2870
escap e</w> 2870
gg ed</w> 2869
Di vision</w> 2869
ji ha 2869
depart ure</w> 2869
in j 2868
has n</w> 2868
L ow 2865
Mc Gu 2865
fal se</w> 2865
op ti 2862
emoti onal</w> 2862
es to</w> 2861
promp ted</w> 2861
fla g</w> 2861
g ang</w> 2860
itar ian</w> 2860
gol f</w> 2857
K o 2856
comb ined</w> 2856
t i</w> 2853
L ut 2853
st ated</w> 2852
E b 2850
fac tors</w> 2850
Gri ff 2850
sha re 2848
suff icient</w> 2847
g in 2846
L ar 2846
Pol iti 2846
l abour</w> 2845
cent re- 2845
acad emy</w> 2845
F ur 2844
diagnos ed</w> 2844
al ing</w> 2843
em br 2843
ab and 2843
ext end</w> 2843
sat ell 2843
re su 2842
der ly</w> 2842
n one</w> 2841
w an</w> 2841
Corn wall</w> 2840
8 - 2839
G ul 2839
st eel</w> 2838
leg acy</w> 2837
5 2</w> 2835
tran si 2835
B ul 2834
tou rists</w> 2834
c ells</w> 2833
ha ir</w> 2833
ro p 2832
cle an 2832
Califor nia</w> 2830
S an</w> 2829
ro les</w> 2829
Clar k</w> 2829
F a 2828
beli ef</w> 2828
custom er</w> 2828
Stor mont</w> 2828
beauti ful</w> 2828
wit ness</w> 2827
9 9</w> 2825
Har ris</w> 2823
F é 2821
C air 2818
el ig 2818
cros sed</w> 2818
f ounded</w> 2816
shop ping</w> 2816
dec lined</w> 2815
ob serv 2815
sel ected</w> 2815
r ally</w> 2814
low - 2811
consu mer</w> 2810
ep is 2809
kni fe</w> 2808
S outhern</w> 2807
B M 2804
per forming</w> 2804
doc ument</w> 2804
re d 2803
inde x</w> 2803
G en 2802
car ds</w> 2801
hon est</w> 2801
abs ence</w> 2800
w yn</w> 2799
H aw 2798
L ane</w> 2798
Re placements</w> 2798
indic ated</w> 2798
K yle</w> 2797
z on</w> 2797
j ok 2796
ak ing</w> 2796
Lea ve</w> 2796
la p</w> 2795
Swit zer 2794
w icket</w> 2793
W emb 2793
I ran 2793
k el</w> 2792
Fo x</w> 2792
val ues</w> 2790
Paraly mp 2790
ed a</w> 2789
Switzer land</w> 2787
real ised</w> 2786
two- year</w> 2785
magaz ine</w> 2785
mar ks</w> 2784
Off side</w> 2784
I v 2783
dram atic</w> 2783
lo ad</w> 2782
um a</w> 2782
em a</w> 2781
Sw iss</w> 2781
bre ach</w> 2780
kne e</w> 2780
survi ved</w> 2779
exam ination</w> 2778
reduc ing</w> 2778
t um 2777
de ter 2777
refuge e</w> 2776
m el 2775
p ounds</w> 2775
exper im 2775
appl ied</w> 2775
d ance</w> 2774
p ull</w> 2774
re w 2774
Nic hol 2774
advis ed</w> 2770
All en</w> 2770
t ext</w> 2769
ok o</w> 2768
councill or</w> 2768
max imum</w> 2766
St even 2763
tru ly</w> 2763
mi xed</w> 2760
incredi bly</w> 2759
st aying</w> 2758
occa sions</w> 2758
c old</w> 2757
Fé in</w> 2757
W re 2756
ri de</w> 2756
coll ision</w> 2756
Bec ause</w> 2756
199 9</w> 2755
reli ef</w> 2755
am p</w> 2754
M as 2753
tech ni 2753
restric tions</w> 2753
C er 2752
at e 2752
discus sed</w> 2752
compe ting</w> 2750
El l 2749
um p</w> 2748
argu ment</w> 2748
ret ail</w> 2747
urg ent</w> 2747
M ili 2746
de tail</w> 2746
acc u 2746
bour ne</w> 2746
S everal</w> 2745
G un 2742
st uck</w> 2742
M ol 2741
P ope</w> 2741
resc ued</w> 2740
a wards</w> 2739
re ys</w> 2737
ad i</w> 2737
semi- finals</w> 2736
Wemb ley</w> 2736
B ig</w> 2734
refl ect</w> 2734
con ven 2733
Chri stop 2733
Ri ver</w> 2732
Mother well</w> 2732
fol k</w> 2731
attr act</w> 2731
pri or 2729
des ire</w> 2729
R C</w> 2728
C are</w> 2727
O sc 2726
con spir 2725
Ken ne 2725
sor ry</w> 2725
ic ate</w> 2724
L A</w> 2723
iri t</w> 2723
de p 2722
gu y</w> 2722
M ot 2721
B T</w> 2719
cy cling</w> 2719
p al 2718
Na than</w> 2718
rail way</w> 2718
Democr at</w> 2717
cros sing</w> 2717
intro duce</w> 2716
ed ings</w> 2715
7 0 2714
survi v 2712
south - 2712
r h 2711
G ir 2711
st ress</w> 2711
sp aren 2711
h itting</w> 2710
prosecut ors</w> 2710
o de</w> 2709
P S</w> 2707
multi - 2707
p apers</w> 2706
open er</w> 2705
sk y</w> 2705
wat ch 2705
g er 2704
ill ness</w> 2704
d wide</w> 2703
p are</w> 2703
ec es</w> 2702
mp h</w> 2702
ank a</w> 2702
ca uses</w> 2701
ic ial</w> 2700
ir a</w> 2699
g ained</w> 2698
x ham</w> 2698
Conn or</w> 2698
N az 2697
cap tured</w> 2697
adi tion</w> 2697
reg ister</w> 2696
stu ff</w> 2695
Fun d</w> 2695
al o 2694
H y 2693
l ab 2692
Under - 2691
col lege</w> 2689
Franc is</w> 2689
apparen tly</w> 2689
Wh e 2688
hi c</w> 2687
Is lam</w> 2686
John stone</w> 2686
Cra w 2686
bac ks</w> 2685
cal cul 2683
P o 2682
I C 2682
str ing</w> 2681
Charl ton</w> 2681
mon itoring</w> 2680
w n</w> 2679
aut umn</w> 2679
Alex ander</w> 2678
en for 2677
leg s</w> 2677
arrang ements</w> 2677
bi an</w> 2676
cros s- 2676
trag edy</w> 2675
s hall</w> 2673
sa f 2672
In don 2672
Cathol ic</w> 2672
Indon es 2672
Dr ag 2671
extre me</w> 2671
t an 2670
L is 2669
Al so</w> 2669
f ear 2668
in ary</w> 2666
real ise</w> 2666
s lau 2665
re sist 2665
li ft</w> 2665
arri val</w> 2665
spar ked</w> 2665
Qat ar</w> 2665
extra ordinary</w> 2665
shi ft</w> 2663
il ing</w> 2662
co aching</w> 2662
unc tion</w> 2661
st ores</w> 2660
exp an 2660
vide os</w> 2660
act ress</w> 2660
ten s</w> 2658
H M 2657
p tion</w> 2656
R ol 2656
Asi an</w> 2656
1 50</w> 2655
Dev on</w> 2655
of t</w> 2654
Fer r 2652
Y et</w> 2651
det ailed</w> 2650
quali fy</w> 2650
W ard</w> 2649
4 ,000</w> 2648
dem ands</w> 2646
drin king</w> 2646
Chel tenham</w> 2645
g en</w> 2644
i ther</w> 2644
on ym 2644
tre at</w> 2644
con ceded</w> 2643
5 3</w> 2642
offic ially</w> 2642
Minist ry</w> 2642
tr ain 2641
busin ess 2641
Bang lad 2641
ro ck 2640
pus hing</w> 2640
inv ited</w> 2639
Mo ore</w> 2639
smar t 2639
terri ble</w> 2639
S av 2638
B at 2638
re min 2638
end a</w> 2638
Ro ch 2636
t ford</w> 2635
politici an</w> 2635
on ia</w> 2634
F 1</w> 2633
F L</w> 2633
lea ds</w> 2633
contro ls</w> 2633
F estival</w> 2631
or m 2631
ast s</w> 2631
ext ent</w> 2631
encour aging</w> 2631
5 1</w> 2630
si oned</w> 2630
dis ruption</w> 2630
St ar</w> 2630
govern or</w> 2630
M oun 2629
ag ged</w> 2628
Com missioner</w> 2628
st ake</w> 2627
lor ry</w> 2627
2 bn</w> 2626
Braz ilian</w> 2626
free- kick</w> 2626
Y e 2624
car bon</w> 2623
enter ing</w> 2623
ni ght 2622
norm ally</w> 2620
v acc 2619
mis sions</w> 2619
deser ved</w> 2619
Lut on</w> 2619
F ab 2618
hu gely</w> 2618
ab used</w> 2617
Fran k</w> 2617
f aster</w> 2616
ar do</w> 2616
val ent</w> 2616
8 00</w> 2615
Mc L 2615
he at</w> 2615
F erg 2614
Gre g</w> 2614
pack age</w> 2614
er ial</w> 2613
f illed</w> 2612
guid ance</w> 2612
Mili band</w> 2612
&apos; Neill</w> 2611
de ep 2611
back ground</w> 2611
Carl isle</w> 2611
up set</w> 2608
repres enting</w> 2608
Wre xham</w> 2608
dem ocr 2607
com e 2606
lin s</w> 2606
Geor gi 2605
kno cked</w> 2604
Dur ham</w> 2604
fashi on</w> 2604
attemp ting</w> 2603
ag ent</w> 2602
ing ham 2602
manif esto</w> 2602
floo ding</w> 2601
J on</w> 2600
a side</w> 2599
life - 2597
B ath</w> 2596
chem ical</w> 2596
y er</w> 2595
F le 2595
manufac turing</w> 2595
B ell</w> 2594
the atre</w> 2594
L it 2593
Hear ts</w> 2592
gener ally</w> 2591
cou p</w> 2591
Alex and 2591
3- 0</w> 2590
stu dies</w> 2590
consist ent</w> 2590
forec ast</w> 2590
M ack 2589
D P</w> 2589
pur pose</w> 2588
leng th</w> 2587
ab les</w> 2585
k g</w> 2584
W ood 2584
rec over</w> 2584
ech an 2584
Af ghan</w> 2584
1 st</w> 2583
ac i 2583
pre pare</w> 2583
Coun c 2583
ban king</w> 2583
Der by 2583
mom ent 2582
Pros ecut 2582
t ains</w> 2581
inten tion</w> 2580
vic e- 2579
phot os</w> 2579
ecti ves</w> 2578
recomm ended</w> 2578
Ol d 2578
t es</w> 2577
K u 2577
V ol 2577
milit ant</w> 2577
occur red</w> 2577
D own</w> 2576
not es</w> 2576
condem ned</w> 2576
F BI</w> 2575
euro zone</w> 2575
b un 2574
K ane</w> 2574
d it</w> 2574
N I</w> 2573
rec k 2573
gu ards</w> 2573
success fully</w> 2573
profes sion 2573
l ar</w> 2572
diplom atic</w> 2572
substan tial</w> 2570
ri e</w> 2568
Sing ap 2568
e uro</w> 2567
k inson</w> 2566
arti sts</w> 2566
Lad ies</w> 2566
volunte ers</w> 2566
Kil mar 2565
Org an 2565
bassad or</w> 2565
J ose</w> 2564
O sp 2564
sle ep</w> 2564
M is 2563
ti vity</w> 2563
after wards</w> 2563
nec k</w> 2562
neighbour ing</w> 2562
celebr ate</w> 2561
assist ance</w> 2560
min or</w> 2559
Acad emy</w> 2559
fo d</w> 2558
equ ality</w> 2558
mur dered</w> 2557
Hun t</w> 2557
reduc tion</w> 2557
Derby shire</w> 2557
S lam</w> 2556
stro ke</w> 2556
person nel</w> 2556
secu tive</w> 2556
v ille</w> 2555
ha te</w> 2555
sw it 2555
Ow en</w> 2555
K enny</w> 2554
F lor 2553
con secutive</w> 2553
s in 2552
R ose</w> 2552
gr ant</w> 2552
compl aint</w> 2552
it a</w> 2550
pri or</w> 2550
w are</w> 2548
D ist 2548
dis rup 2548
hor se</w> 2547
difficul ties</w> 2547
Col in</w> 2546
197 0s</w> 2546
M itch 2545
D oc 2545
obvi ous</w> 2545
y our 2544
ul ate</w> 2544
remar kable</w> 2544
st ea 2543
compl ained</w> 2543
rel ation</w> 2541
k i</w> 2540
conver sation</w> 2540
ig nor 2539
R ud 2538
billi on</w> 2538
Kilmar nock</w> 2538
5 6</w> 2536
Bro ad 2536
Inv estig 2536
3 6 2535
bom bing</w> 2535
pre c 2534
other wise</w> 2534
exhi bition</w> 2534
mov ie</w> 2533
sett led</w> 2532
un its</w> 2531
ep h</w> 2531
Li ke</w> 2531
exc ep 2530
worl dwide</w> 2530
Egy p 2529
resul ted</w> 2528
prepar ing</w> 2528
K on 2526
ap y</w> 2525
IR A</w> 2525
Ferg us 2525
W eb 2523
t aining</w> 2522
we b</w> 2522
occa sion</w> 2522
opti mis 2522
chan nel</w> 2519
m ir 2518
L yn 2516
ent ation</w> 2516
Mar t 2516
S aints</w> 2515
er son</w> 2515
re sig 2515
Co ast</w> 2515
ar ticle</w> 2514
la d</w> 2514
campaig ning</w> 2514
prin t</w> 2514
tw ood</w> 2512
199 0s</w> 2512
promot e</w> 2511
Lo an</w> 2511
ali a</w> 2510
do zens</w> 2509
en h 2508
tran sparen 2508
e ted</w> 2506
T ru 2506
increas es</w> 2506
c ue</w> 2504
score r</w> 2504
H ou 2503
em plo 2503
spec ulation</w> 2503
neighb ours</w> 2503
deal t</w> 2503
wil d</w> 2502
dead line</w> 2502
struc tion</w> 2501
an x 2500
cam er 2500
inde ed</w> 2500
St e 2499
tor ies</w> 2499
poll ution</w> 2499
acknowled ged</w> 2499
G ood</w> 2498
ro od</w> 2498
psy ch 2498
Ke ith</w> 2497
extre mis 2497
e u</w> 2496
D aw 2496
ol s</w> 2494
tax pay 2494
o x 2493
sugg esting</w> 2493
199 8</w> 2492
Palestin ian</w> 2492
tre es</w> 2491
dro ve</w> 2491
fat al</w> 2491
ech n 2490
Mil an</w> 2490
clin ical</w> 2490
m s 2488
y side</w> 2488
en orm 2488
ann a</w> 2488
E l</w> 2487
Lon don 2487
4 , 2486
I A 2486
in ing</w> 2486
er ror</w> 2486
coun ter- 2486
Sy d 2486
Eb ola</w> 2486
G all 2485
W arri 2485
regi ons</w> 2485
d ary</w> 2484
eigh th</w> 2484
Cos ta</w> 2484
proce edings</w> 2484
ran ked</w> 2483
g ary</w> 2482
n ity</w> 2481
list en</w> 2480
less ons</w> 2480
unve iled</w> 2480
b o</w> 2479
st ayed</w> 2479
evac u 2479
c ra 2478
5 9</w> 2478
shor t- 2478
Con or</w> 2476
Li ve</w> 2476
stat e- 2475
ic king</w> 2473
201 9</w> 2473
se ed</w> 2472
Oli ver</w> 2472
N as 2471
lo ans</w> 2471
su s</w> 2471
chec ks</w> 2471
ing - 2470
An d 2470
mot ion</w> 2470
US A</w> 2470
expect ations</w> 2468
al isation</w> 2466
it an</w> 2466
tax es</w> 2466
1- 1</w> 2465
wer en</w> 2465
Barn sley</w> 2465
el op 2464
public ly</w> 2464
R y 2463
in ev 2463
sp irit</w> 2463
appl ications</w> 2463
Ta i 2463
a str 2462
stor m</w> 2462
v in</w> 2461
C ly 2461
sc ores</w> 2461
sy n 2461
Swin don</w> 2461
Bail ey</w> 2461
T ig 2460
reti rement</w> 2460
W ayne</w> 2459
ro y</w> 2459
Gr ay</w> 2459
Peter borough</w> 2458
R ory</w> 2457
it ary</w> 2457
wa ve</w> 2457
constitu ency</w> 2457
Scar lets</w> 2457
ten tion</w> 2456
champi onship</w> 2456
h ot</w> 2454
con stitution</w> 2454
con sci 2454
hand ling</w> 2454
br ings</w> 2453
ann e</w> 2452
loc ations</w> 2451
sensi tive</w> 2451
Sh rew 2449
b ute</w> 2447
s at</w> 2446
discus sion</w> 2446
5 4</w> 2445
pp o</w> 2445
ni tion</w> 2444
appre ci 2444
ad ing</w> 2443
our ce</w> 2443
Ben nett</w> 2443
Ang el 2443
Fergus on</w> 2443
g a</w> 2441
ear th 2441
Ric h 2440
analy st</w> 2439
k ings</w> 2438
qu es</w> 2438
Kur dish</w> 2438
convic tion</w> 2437
Co oper</w> 2436
Ama zon</w> 2436
G od</w> 2435
cy cle</w> 2435
al- Qa 2435
F l 2434
v ac 2433
t ough 2433
en suring</w> 2433
gu s</w> 2433
mu gg 2433
Shrew sbury</w> 2433
ow ns</w> 2432
B uck 2431
5 8</w> 2431
Y emen</w> 2431
some body</w> 2430
ber y</w> 2429
Mc Car 2429
i ries</w> 2428
S ri</w> 2428
J ake</w> 2428
wor ry</w> 2428
ingham shire</w> 2428
elec tri 2427
Lou is</w> 2427
Camp bell</w> 2427
cap s</w> 2426
P R</w> 2425
birth day</w> 2425
t ar</w> 2424
- led</w> 2423
er o</w> 2422
ly wood</w> 2422
dol lar</w> 2421
lett ers</w> 2421
lo g 2420
per su 2420
J e 2419
thir d- 2419
I r 2417
sp ur</w> 2417
hu a</w> 2417
Bur ton</w> 2417
val u 2416
e ating</w> 2415
b ills</w> 2415
inter im</w> 2414
199 7</w> 2413
ex posed</w> 2412
inter vention</w> 2411
esti mates</w> 2411
organis ers</w> 2410
H S 2409
An y 2409
ee p</w> 2408
disc overy</w> 2408
ac o</w> 2407
encour aged</w> 2407
s or</w> 2406
deploy ed</w> 2405
P ear 2403
fast est</w> 2403
introduc tion</w> 2403
st ressed</w> 2402
dist ur 2402
attrac ted</w> 2402
p oo 2400
ti ght</w> 2400
Net work</w> 2400
ea ble</w> 2399
Ar m 2399
tour ism</w> 2399
Prof essor</w> 2399
Rod gers</w> 2399
9 - 2398
any where</w> 2398
miss ile</w> 2398
ro of</w> 2397
smo ke</w> 2397
Every one</w> 2397
g all 2396
repe ated</w> 2396
pre hen 2395
a vi 2394
s ung</w> 2393
health care</w> 2393
un clear</w> 2392
Fal kirk</w> 2392
Ferr ari</w> 2392
m ut 2390
ag enda</w> 2390
spot ted</w> 2390
emb arr 2389
bab ies</w> 2389
Sen ate</w> 2389
thu si 2389
il and</w> 2386
prosecut or</w> 2386
distri bu 2386
el and</w> 2384
administ r 2383
conserv ative</w> 2383
el derly</w> 2382
mp ton</w> 2382
polic ing</w> 2382
min ing</w> 2381
sy mp 2381
Stan ley</w> 2381
Mitch ell</w> 2381
Syd ney</w> 2381
un fair</w> 2380
rout es</w> 2379
C ow 2378
gar den</w> 2378
C av 2377
J ustin</w> 2377
en ham</w> 2376
analy sts</w> 2376
deliver ing</w> 2376
con nec 2375
pha se</w> 2375
J im 2374
stat ements</w> 2374
El li 2374
Dow ning</w> 2374
a x 2373
qu it</w> 2373
reve al</w> 2373
Holy rood</w> 2373
G en</w> 2372
i ths</w> 2371
guaran tee</w> 2371
determin e</w> 2370
Hi ber 2370
w eigh 2369
e ge</w> 2368
ar t 2368
aw aren 2368
inqu iries</w> 2368
defe ated</w> 2368
M and 2367
pi eces</w> 2367
adequ ate</w> 2366
est - 2364
Far age</w> 2364
recru it 2364
An ton 2363
coll abor 2363
know ing</w> 2362
mist akes</w> 2362
expan sion</w> 2362
N ad 2361
ten ed</w> 2360
For ce</w> 2359
Ros berg</w> 2359
figh ter</w> 2358
B an 2357
ul li 2357
ba g</w> 2357
Hiber nian</w> 2357
im m 2356
adv ance</w> 2355
em ber 2354
not ed</w> 2352
achiev ement</w> 2352
head quarters</w> 2352
S utton</w> 2350
Osp reys</w> 2350
awaren ess</w> 2350
a ult</w> 2348
man ner</w> 2348
watch dog</w> 2348
t oms</w> 2347
th ian</w> 2346
L ev 2344
res olution</w> 2344
scen es</w> 2344
en thusi 2343
P et 2342
ad ult</w> 2342
Squ are</w> 2342
Fern and 2340
B ea 2339
f lood</w> 2339
ail ing</w> 2338
explos ion</w> 2338
Feder ation</w> 2337
over ing</w> 2336
ris en</w> 2336
bat sman</w> 2336
Old ham</w> 2336
B ran 2335
O ver 2334
I S 2334
to il 2334
enn is</w> 2334
An y</w> 2333
S ea 2332
coll ected</w> 2332
ed - 2331
inf ection</w> 2331
v ig 2330
Ale ppo</w> 2330
m echan 2329
En ergy</w> 2328
expl or 2328
c ep 2327
re ver 2327
athle te</w> 2327
Hill ary</w> 2326
di vis 2324
C ross</w> 2322
re porter</w> 2322
Bur y</w> 2322
Luc as</w> 2322
sh ou 2321
on a 2320
off s</w> 2318
offic es</w> 2318
Mc K 2318
councill ors</w> 2318
p in 2317
F ro 2317
ak e 2317
mu m</w> 2317
tro phy</w> 2317
G han 2316
Th ousands</w> 2316
promis ing</w> 2316
th es</w> 2315
co aches</w> 2315
en shire</w> 2314
tack ling</w> 2314
esti ons</w> 2313
Philli ps</w> 2313
6 2</w> 2312
appro ached</w> 2312
7 00</w> 2311
cl ashes</w> 2311
Ex ecu 2311
Roch dale</w> 2311
ot a</w> 2310
gi o</w> 2309
St and 2309
aband oned</w> 2309
main tained</w> 2308
c off 2307
be t 2307
Ju vent 2307
elec toral</w> 2306
tro l</w> 2306
work force</w> 2306
in sists</w> 2304
ot ed</w> 2304
arre sts</w> 2304
tow ns</w> 2304
targe ting</w> 2304
lar s</w> 2303
sym pa 2303
l l 2302
wea k</w> 2302
Shi a</w> 2302
cl ass 2301
enti tled</w> 2301
tren d</w> 2301
D et 2300
ti me 2300
suppl ies</w> 2300
Juvent us</w> 2300
s wee 2299
0 9</w> 2299
Lor ds</w> 2299
predic ted</w> 2298
3 5 2297
equ al</w> 2297
lo s</w> 2296
gg ing</w> 2296
mun d</w> 2296
dr aft</w> 2293
pu b</w> 2293
La ura</w> 2293
s mugg 2292
D omin 2292
ha i</w> 2292
proced ures</w> 2292
w ounded</w> 2291
3 -year-old</w> 2291
Com p 2291
one- day</w> 2291
constitu tional</w> 2291
Ter ry</w> 2291
plan es</w> 2290
engine ering</w> 2290
w y</w> 2289
ol o 2289
com missioner</w> 2289
ty pes</w> 2289
pu ts</w> 2288
Mer kel</w> 2287
pat ter 2287
6 6</w> 2286
vi ously</w> 2286
s all</w> 2285
id den</w> 2285
Pak ist 2285
soldi er</w> 2285
con sol 2284
form ally</w> 2284
wat ers</w> 2284
view ing</w> 2284
tri m</w> 2283
remar ks</w> 2283
Warri ors</w> 2283
H ig 2282
the - 2282
accommod ation</w> 2282
An ti 2281
sub mitted</w> 2281
s er</w> 2279
H I 2279
qu ake</w> 2279
ac ing</w> 2278
hear t 2278
air line</w> 2278
memor ial</w> 2278
cre di 2277
Su per 2277
tol er 2277
bla ze</w> 2276
Su n</w> 2275
commun ications</w> 2275
9 m</w> 2274
pr ise</w> 2274
corpor ate</w> 2274
int ent</w> 2273
suspic ious</w> 2273
equi valent</w> 2273
in no 2272
bur ied</w> 2272
Is le</w> 2272
tic k</w> 2271
reas onable</w> 2271
dr ed</w> 2270
eg al</w> 2270
Pri x</w> 2270
judg ement</w> 2270
M E 2269
direc ted</w> 2268
thor pe</w> 2268
W o 2267
tic ally</w> 2267
vis t</w> 2267
v oc 2266
s ever 2266
rel ating</w> 2266
practic es</w> 2266
f ill</w> 2265
Res cue</w> 2265
el son</w> 2264
ne ither</w> 2264
Wat ch</w> 2264
secon dary</w> 2264
restaur ant</w> 2264
Cha m 2263
Dev elop 2263
Wen ger</w> 2263
Ar gy 2262
c ea 2260
offen ders</w> 2260
cont ained</w> 2259
suppl ied</w> 2259
B ag 2258
V au 2258
cor oner</w> 2258
fortun ate</w> 2258
contr ast</w> 2257
add ressed</w> 2257
recog nition</w> 2257
el ite</w> 2256
tr apped</w> 2256
Bri en</w> 2256
aggres sive</w> 2256
Jer sey</w> 2255
moment um</w> 2255
gh ting</w> 2254
In di 2254
del eg 2254
th an 2253
mp tion</w> 2253
y es</w> 2252
f ake</w> 2252
6 7</w> 2252
M en 2252
sa ving</w> 2252
mis sioned</w> 2252
moun tain</w> 2252
H us 2251
Ro y</w> 2251
broad cast 2251
Dep uty</w> 2251
ot ic</w> 2249
May or</w> 2249
swim ming</w> 2248
H o 2247
am end 2247
pen ding</w> 2246
Jos eph</w> 2246
T am 2245
ter ly</w> 2244
par tly</w> 2244
Th or 2244
ret ain</w> 2244
dra wing</w> 2244
s ongs</w> 2243
Mor ris</w> 2243
Lincol n</w> 2243
care fully</w> 2241
f ro 2240
Euro pa</w> 2240
youn g 2240
tic o</w> 2239
leg iti 2238
Christop her</w> 2238
employ ers</w> 2237
camer as</w> 2237
en able</w> 2236
gr ab 2236
bor ders</w> 2236
investig ators</w> 2236
vers y</w> 2236
b low 2235
retur ns</w> 2235
Nor way</w> 2234
deser ve</w> 2234
sk in</w> 2233
shar p</w> 2233
f low</w> 2232
Har am</w> 2232
att ending</w> 2231
trag ic</w> 2231
Execu tive</w> 2231
Environ ment</w> 2230
l uck</w> 2229
propor tion</w> 2229
H ist 2228
M ess 2228
mic ro 2228
B on 2227
d a 2227
represent atives</w> 2227
experi ences</w> 2226
Singap ore</w> 2226
7 2</w> 2225
M K</w> 2225
regul ator</w> 2225
ch ose</w> 2224
dis abled</w> 2224
strate gic</w> 2224
ha ul</w> 2223
human itarian</w> 2223
0 8</w> 2222
im ir</w> 2222
fiel ds</w> 2222
ner v 2222
P ic 2221
her itage</w> 2221
Wor k</w> 2220
guid elines</w> 2220
preced ented</w> 2220
elig ible</w> 2220
resig nation</w> 2220
expl ains</w> 2219
Sher iff</w> 2218
your self</w> 2218
C h</w> 2216
&apos; Brien</w> 2216
El ec 2216
desper ate</w> 2216
t all</w> 2215
C ab 2215
over - 2214
pres sing</w> 2214
ter ing</w> 2213
Repub lic 2213
il es</w> 2212
trans ferred</w> 2212
st atistics</w> 2211
De m</w> 2211
Der ry</w> 2211
K a 2209
20 - 2209
tw eet</w> 2209
oppon ent</w> 2209
schem es</w> 2208
c yn 2207
f alls</w> 2207
regar ded</w> 2207
S ov 2206
c ott</w> 2205
am bassador</w> 2205
Banglad esh</w> 2205
h its</w> 2204
A z 2204
er ies</w> 2204
sh ouldn</w> 2204
te m</w> 2204
contribu ted</w> 2204
sti ck</w> 2203
tri als</w> 2203
devast ating</w> 2202
is cal</w> 2201
gg s</w> 2201
pregn ant</w> 2201
pea k</w> 2201
un precedented</w> 2200
ex ports</w> 2200
Call um</w> 2200
recruit ment</w> 2200
h in 2199
s on- 2198
ro oms</w> 2198
ly n 2198
10 th</w> 2198
D on</w> 2197
campaig ns</w> 2197
un employment</w> 2196
priv acy</w> 2196
categ ory</w> 2196
ff s</w> 2195
Jew ish</w> 2195
broad caster</w> 2194
imag ine</w> 2194
200 m</w> 2193
bro thers</w> 2192
Ab u</w> 2192
6 4</w> 2191
den ly</w> 2191
apparen t</w> 2191
1 2- 2190
ha med</w> 2190
oc key</w> 2190
shoul der</w> 2190
Mic ros 2189
S l 2188
tr ick</w> 2188
Sud an</w> 2188
4 -year-old</w> 2187
ic h 2187
contro versy</w> 2187
adverti sing</w> 2187
T ex 2186
Har t</w> 2186
adv oc 2186
adm its</w> 2186
b at</w> 2185
af ford 2185
um ped</w> 2183
dev olved</w> 2183
Rog er</w> 2183
li br 2182
ag ue</w> 2182
war nings</w> 2182
fa il</w> 2182
B oko</w> 2181
ear nings</w> 2181
exp ects</w> 2181
Bren tford</w> 2181
res ses</w> 2180
Sov i 2180
3 bn</w> 2179
f ts</w> 2179
Nor folk</w> 2179
guaran te 2179
A ff 2178
P ost</w> 2178
out break</w> 2178
Austri a</w> 2178
Z im 2177
sp rin 2177
suspen sion</w> 2177
high- profile</w> 2177
fe ed</w> 2176
Mill wall</w> 2176
a p</w> 2175
M od 2175
ser ves</w> 2175
fix ed</w> 2175
c ann 2174
olog ist</w> 2174
eng age</w> 2174
Sha un</w> 2174
bal lot</w> 2174
p ical</w> 2173
f ed</w> 2173
t esti 2172
and- a- 2172
in ti 2171
or ney</w> 2171
ill u 2171
cal m</w> 2171
phot o</w> 2171
lad imir</w> 2171
scru tiny</w> 2171
vis ed</w> 2170
L eb 2169
esti mate</w> 2168
paren t</w> 2168
Ah med</w> 2168
subsequ ently</w> 2168
enfor cement</w> 2168
tr a</w> 2167
any body</w> 2167
Col eman</w> 2167
5 7</w> 2166
survi ve</w> 2166
tion ary</w> 2166
un k</w> 2165
Re id</w> 2165
Col chester</w> 2165
G az 2163
im pressed</w> 2163
Re port</w> 2163
Dist r 2163
I M 2162
concer t</w> 2162
Del hi</w> 2162
sp ring</w> 2161
num erous</w> 2161
shir t</w> 2161
Micros oft</w> 2161
dem anding</w> 2160
sha w</w> 2160
challen ged</w> 2160
sex ually</w> 2160
met res</w> 2160
Cam pa 2159
c up</w> 2157
Distr ict</w> 2157
W ell</w> 2156
sw itch</w> 2156
human s</w> 2156
is lands</w> 2155
st ability</w> 2154
weap on</w> 2153
requi res</w> 2153
Tun is 2153
comm it</w> 2151
conver ted</w> 2151
mod els</w> 2151
il a</w> 2150
id ly</w> 2150
fr anch 2150
c ell</w> 2148
Ukrain ian</w> 2148
jum p</w> 2148
al-Qa eda</w> 2148
suff er</w> 2147
Mag istrates</w> 2147
b os 2146
it ted</w> 2146
em ails</w> 2145
con sent</w> 2144
photograp hs</w> 2144
resol ve</w> 2144
l ec 2143
attit ude</w> 2143
An trim</w> 2142
enti ons</w> 2141
for get</w> 2140
Eli z 2140
Jim my</w> 2139
f ishing</w> 2138
no body</w> 2138
wil dlife</w> 2138
under stands</w> 2137
rest ore</w> 2137
a b</w> 2136
Belgi an</w> 2136
Moham med</w> 2136
r ated</w> 2134
bir d</w> 2134
Hun dreds</w> 2134
y o</w> 2133
web sites</w> 2133
kic ked</w> 2131
fit ness</w> 2131
b in</w> 2130
V inc 2130
pos es</w> 2130
conspir acy</w> 2130
initi ative</w> 2129
clear ance</w> 2129
R af 2128
3- 1</w> 2128
comb at</w> 2128
land sc 2127
apolog ise</w> 2127
abe th</w> 2127
L et</w> 2126
as sociation</w> 2126
smar t</w> 2126
b loo 2125
al i</w> 2125
mon itor</w> 2125
Wh ere</w> 2125
competi tions</w> 2125
advis er</w> 2125
G C 2124
sh ed</w> 2124
Lloy d</w> 2124
pro minent</w> 2123
wit n 2123
Hea throw</w> 2123
Wol ves</w> 2122
S pr 2121
j i</w> 2121
dis appeared</w> 2121
10 m</w> 2121
convinc ed</w> 2121
emp ty</w> 2120
Offic ials</w> 2120
is her</w> 2118
Tw ent 2118
199 4</w> 2118
quarter- finals</w> 2118
F amil 2117
us hed</w> 2117
Sp urs</w> 2117
ag ricul 2116
exp ecting</w> 2116
Hot spur</w> 2116
e x</w> 2115
arri ve</w> 2115
o is</w> 2114
Cre we</w> 2114
Osc ar</w> 2114
ch man</w> 2113
Dun can</w> 2113
box ing</w> 2113
E ric</w> 2112
in ness</w> 2112
con fron 2112
l o</w> 2111
an onym 2111
sup posed</w> 2111
Scot s</w> 2111
prot ecting</w> 2110
do gan</w> 2109
tal ked</w> 2109
Tr afford</w> 2109
promis es</w> 2109
H og 2108
rem ents</w> 2108
Li fe</w> 2107
anti cip 2107
C ot 2106
j unior</w> 2105
6 ,000</w> 2104
Comm un 2104
B ed 2103
O r</w> 2103
on e 2103
bo ards</w> 2103
smo king</w> 2103
war m</w> 2102
Le y 2102
ass ist</w> 2102
Cast le</w> 2102
T op</w> 2101
est yle</w> 2101
Pow er</w> 2101
Har rison</w> 2100
B S</w> 2099
fa ult</w> 2099
clo thing</w> 2099
y ce</w> 2098
Col lins</w> 2098
slau ghter</w> 2098
R AF</w> 2096
high lights</w> 2096
t rem 2095
w ages</w> 2095
Gl am 2095
ough ly</w> 2095
Ang ela</w> 2094
un t</w> 2093
com prehen 2093
kill ings</w> 2093
democr atic</w> 2093
plea se</w> 2092
J ac 2091
off - 2091
appear ing</w> 2091
fl u 2090
Mc Donald</w> 2090
inten se</w> 2090
At lan 2090
clo thes</w> 2090
r ounds</w> 2089
ha mpton</w> 2089
ri der</w> 2089
ass ment</w> 2089
fun c 2088
fic ations</w> 2087
pos ing</w> 2085
arri ving</w> 2084
break s</w> 2084
Ori ent</w> 2084
g w 2083
oppos ite</w> 2082
8 5</w> 2081
ar ts</w> 2081
sent ences</w> 2081
St .</w> 2080
In formation</w> 2080
bel ong 2080
teen agers</w> 2080
pre mi 2078
Ti me</w> 2078
are t</w> 2077
tur n 2077
ell a</w> 2077
T 20</w> 2076
ir ation</w> 2076
provid ers</w> 2076
co- ordin 2076
surviv ors</w> 2076
un ited</w> 2075
i res</w> 2074
k e 2074
T echn 2074
oy le</w> 2074
absol ute</w> 2074
pres enter</w> 2073
Ber lin</w> 2073
Nig er 2073
answ ers</w> 2073
qui et</w> 2073
genu ine</w> 2073
ma e</w> 2072
Su ff 2072
bo os 2071
cre ws</w> 2071
K at 2070
W arren</w> 2070
Ber n 2070
rad ical</w> 2070
Malaysi a</w> 2070
sli p</w> 2069
on so</w> 2068
ro yal</w> 2068
r adi 2067
i um</w> 2067
B et 2067
amoun ts</w> 2067
histor ical</w> 2067
ang le</w> 2066
col league</w> 2065
fle x 2064
u tions</w> 2063
k in 2063
7 1</w> 2063
P as 2063
W as 2062
Eliz abeth</w> 2062
m ly</w> 2061
rec ording</w> 2061
cros s 2061
I bra 2060
cap it 2060
pos s 2059
5 , 2058
in ated</w> 2058
um ents</w> 2058
produc er</w> 2058
lan ded</w> 2058
net works</w> 2058
teen age</w> 2058
M etro 2057
Fr aser</w> 2056
alo gue</w> 2056
j an</w> 2055
in struc 2055
ar d 2055
K ier 2054
King dom</w> 2053
a o</w> 2052
C an</w> 2052
hi e</w> 2052
Ker ry</w> 2052
fundam ental</w> 2052
ti le</w> 2051
mor tem</w> 2051
argu es</w> 2051
b es 2050
9 5</w> 2050
Mon aco</w> 2050
Comm unity</w> 2050
t son</w> 2049
fi res</w> 2049
dam aging</w> 2049
symp toms</w> 2049
N at 2048
ig ners</w> 2048
J es 2047
cre ation</w> 2047
A FC</w> 2046
reg ard</w> 2046
Ser vices</w> 2046
div ided</w> 2046
dol lars</w> 2046
seven - 2046
cha e 2045
oper ator</w> 2045
Egyp tian</w> 2045
c oc 2044
in k 2044
den s</w> 2044
Republic ans</w> 2044
T an 2043
mar ine</w> 2043
ster ity</w> 2043
three- year</w> 2042
d ressing</w> 2041
enorm ous</w> 2041
t ank</w> 2040
l ay 2040
C z 2040
anc er</w> 2040
L anka</w> 2039
Mc Il 2039
E mer 2038
de tention</w> 2038
pol itan</w> 2038
Wal sall</w> 2038
exten sive</w> 2038
h oo 2037
mid field</w> 2036
Iran ian</w> 2036
Glam organ</w> 2036
ti ed</w> 2035
dist inc 2035
pro vision</w> 2034
st om 2033
el ey</w> 2033
wh ilst</w> 2032
tur ers</w> 2032
char ities</w> 2032
regar ding</w> 2032
preven ted</w> 2032
Hod g 2032
s k</w> 2031
C A 2031
199 6</w> 2031
- offs</w> 2030
consider able</w> 2030
eng aged</w> 2027
Mor ton</w> 2027
bri ef</w> 2026
promot ed</w> 2026
Car ter</w> 2025
necess arily</w> 2025
Ham mond</w> 2025
satell ite</w> 2025
s ick</w> 2024
hun dred</w> 2024
Hun gary</w> 2024
Ref er 2024
j et</w> 2023
ti ves</w> 2023
exp and</w> 2023
am bition</w> 2022
stan tly</w> 2021
2 50</w> 2020
Fle e 2020
D C</w> 2019
in n</w> 2019
ac compan 2019
6 8</w> 2018
conclu sion</w> 2018
z i</w> 2017
L lan 2017
com missioned</w> 2017
inter ven 2017
predic tion</w> 2017
Flee twood</w> 2017
Mar g 2015
Ac cr 2015
L ig 2014
plan et</w> 2014
y l</w> 2013
D ick 2013
spec tac 2013
k ick 2012
ow nership</w> 2011
hol der</w> 2011
sett le</w> 2011
comb ination</w> 2011
D o</w> 2010
ren a</w> 2010
rem ember 2010
oper ated</w> 2010
p op</w> 2009
I A</w> 2009
Ron al 2009
aler t</w> 2009
D ems</w> 2008
refer ence</w> 2008
d ay 2007
20 s</w> 2007
Mic hel 2007
ir ates</w> 2006
As soci 2006
descri bes</w> 2006
b all 2004
in stru 2004
fac ts</w> 2004
gra ve</w> 2004
nomin ated</w> 2004
Mar c</w> 2003
u le</w> 2002
P y 2002
rem ote</w> 2002
equ al 2002
accu sations</w> 2002
for t 2001
d ating</w> 2000
as ks</w> 2000
ten sions</w> 2000
m ood</w> 1999
S ev 1999
Ser bia</w> 1999
McL aren</w> 1999
e over</w> 1998
ap ology</w> 1998
ru b 1998
Sh ane</w> 1998
Sci enti 1998
10 0 1997
inst alled</w> 1997
actu al</w> 1997
devast ated</w> 1997
doub led</w> 1996
exten sion</w> 1996
head lines</w> 1996
3 8 1995
nur ses</w> 1994
comp uters</w> 1993
her o</w> 1993
full- time</w> 1993
famil i 1992
Her itage</w> 1992
fil med</w> 1991
25 -year-old</w> 1991
3 7 1990
H az 1990
6 3</w> 1989
prof essor</w> 1989
Brit on</w> 1989
hos ted</w> 1989
Med ical</w> 1989
sear ching</w> 1989
K i 1988
F il 1988
pre scri 1988
Ch ester 1988
G reg 1987
sol id</w> 1987
Goo d 1987
anci ent</w> 1987
hol es</w> 1985
ass ess</w> 1985
descri be</w> 1985
wed ding</w> 1985
discrimin ation</w> 1985
veter an</w> 1985
ul ous</w> 1984
y d</w> 1983
re sident</w> 1983
Pol ic 1983
ton nes</w> 1983
E ach</w> 1982
Fre edom</w> 1982
B ale</w> 1981
B run 1981
super b</w> 1981
Wol ver 1981
g al 1980
view ers</w> 1980
attack ers</w> 1980
Craw ley</w> 1980
Sovi et</w> 1980
0 7</w> 1979
cam ps</w> 1979
ath on</w> 1979
pres sures</w> 1978
Bo b</w> 1978
lic en 1978
ir o</w> 1977
Bud get</w> 1977
assaul ted</w> 1977
gen e 1976
nin th</w> 1976
grat eful</w> 1976
Flor ida</w> 1976
G old</w> 1975
un known</w> 1975
oc ks</w> 1975
au sterity</w> 1975
scienti fic</w> 1975
e go</w> 1974
C op 1974
c er</w> 1973
H ead</w> 1973
5 0m</w> 1973
R ad 1972
dev olution</w> 1972
gun s</w> 1972
Alli ance</w> 1972
B ishop</w> 1970
O thers</w> 1970
com edy</w> 1970
Sc un 1970
Ab d 1970
a sion</w> 1969
cre ative</w> 1969
crimin als</w> 1969
T yr 1968
sud denly</w> 1967
olo gies</w> 1967
K en</w> 1966
3 0,000</w> 1966
up dates</w> 1966
Bor ders</w> 1966
Drag ons</w> 1966
r aft</w> 1965
6 9</w> 1965
comm ent 1965
publ ication</w> 1965
priv il 1965
bud gets</w> 1965
g lo 1964
it z 1964
od es</w> 1964
insp ection</w> 1964
C hallen 1963
O N 1963
se t- 1963
L os</w> 1962
Ma il</w> 1962
mor tg 1962
l on</w> 1961
Cri me</w> 1961
re venues</w> 1960
inter pre 1960
S ter 1959
Scun thorpe</w> 1959
os s 1958
invol ve</w> 1958
def l 1957
adv anced</w> 1957
Hol lywood</w> 1957
differ ences</w> 1956
cas u 1956
au ction</w> 1954
memor ies</w> 1954
accur ate</w> 1954
fear ed</w> 1954
V et 1953
Is land</w> 1953
transi tion</w> 1953
a is</w> 1952
S how</w> 1952
ad o</w> 1952
in s 1951
co m</w> 1951
Hel en</w> 1951
g ang 1949
pl astic</w> 1949
ov il</w> 1949
grap h</w> 1949
Tha iland</w> 1949
Wy combe</w> 1948
t shire</w> 1947
pre dec 1947
emb ro 1947
pat ro 1947
S g 1946
or row</w> 1946
vo y</w> 1946
resp ectively</w> 1945
Sto ck 1945
Sup t</w> 1943
abor tion</w> 1943
wick shire</w> 1943
Er dogan</w> 1943
house holds</w> 1943
man n</w> 1942
U p 1940
be dro 1940
ne sty</w> 1940
produc ing</w> 1940
ves sel</w> 1939
ex ter 1938
Ma x</w> 1938
Ed die</w> 1938
epis ode</w> 1938
B A</w> 1937
el im 1936
trigg ered</w> 1936
Fran k 1935
Griff iths</w> 1935
Nott inghamshire</w> 1934
t d</w> 1933
survi val</w> 1933
24 -year-old</w> 1933
Ye ovil</w> 1933
ob tained</w> 1932
V ladimir</w> 1931
ag h</w> 1931
Is lands</w> 1931
appe aling</w> 1931
temper atures</w> 1931
ris es</w> 1930
end or 1930
succ eed</w> 1929
Venezu ela</w> 1929
jud icial</w> 1928
cover ing</w> 1928
al ties</w> 1927
ear ning</w> 1927
Wolver hampton</w> 1927
d ent</w> 1926
L ong</w> 1926
Bor is</w> 1926
How ard</w> 1926
rec alled</w> 1925
enti a</w> 1925
mil iti 1925
ambiti ous</w> 1925
Al onso</w> 1924
fil ed</w> 1924
m ul 1923
b ags</w> 1923
A rena</w> 1923
de z</w> 1923
a el</w> 1922
rob ust</w> 1922
represent ative</w> 1922
Dou gl 1922
princi ple</w> 1922
d less</w> 1921
T ests</w> 1921
kid n 1921
B rom</w> 1920
le igh</w> 1920
sol ic 1920
199 5</w> 1920
s ors</w> 1919
charac ters</w> 1919
Marg aret</w> 1919
E aster</w> 1918
x im 1918
sing les</w> 1918
Suff ol 1918
me tal</w> 1917
Co x</w> 1917
escap ed</w> 1917
deliber ately</w> 1917
g ation</w> 1916
I TV</w> 1916
es cal 1916
ra p</w> 1915
descri bing</w> 1915
cy cl 1915
Tow er</w> 1915
D ri 1913
oo king</w> 1913
gi on</w> 1913
d- up</w> 1912
house hold</w> 1912
Cub a</w> 1912
Pakist ani</w> 1912
O ut</w> 1911
I T</w> 1911
I cel 1910
de emed</w> 1910
ass y</w> 1910
quarter- final</w> 1910
all ist</w> 1909
fic ally</w> 1908
La w</w> 1908
dem ol 1907
sk ip 1906
mus ical</w> 1906
b id 1905
D jok 1905
15 - 1905
bo ats</w> 1904
inv ested</w> 1904
Al - 1904
Lad y</w> 1904
full- back</w> 1904
23 -year-old</w> 1904
ma p</w> 1903
Ser gio</w> 1903
Mun ich</w> 1903
ag e 1902
bre a 1902
med allist</w> 1902
Sg t</w> 1902
Suffol k</w> 1902
In de 1901
Pr ice</w> 1901
od ds</w> 1901
cy ber 1901
Ed ward</w> 1901
Kenne dy</w> 1901
Metro politan</w> 1901
fir ing</w> 1900
sig nal</w> 1900
Bur ns</w> 1900
Hart le 1900
mur dering</w> 1899
frustr ated</w> 1899
Djok ovic</w> 1899
ol ly</w> 1898
ef a</w> 1897
Steven age</w> 1897
relati onships</w> 1896
bom bs</w> 1895
sof t</w> 1895
adop ted</w> 1895
res ort</w> 1894
spon sor 1894
pe t</w> 1893
sil ence</w> 1893
academ ic</w> 1893
ri ot</w> 1892
em e</w> 1892
ti oned</w> 1891
B ot 1890
el ements</w> 1890
lim its</w> 1890
Rober tson</w> 1890
b right</w> 1889
Mar cus</w> 1889
ici ans</w> 1889
Jon ny</w> 1889
S D 1888
p ar</w> 1888
V is 1888
ic ts</w> 1888
et te</w> 1888
win ds</w> 1888
b ear</w> 1887
it t</w> 1887
Ju an</w> 1887
Phili pp 1887
Glouc estershire</w> 1887
la st 1886
requ ests</w> 1886
Alexand ra</w> 1886
d at 1885
se aled</w> 1885
la st- 1885
et ary</w> 1885
announ ce</w> 1884
rap ed</w> 1884
ev a</w> 1883
H ur 1882
ag an</w> 1882
mis conduct</w> 1882
dea dly</w> 1882
2 2-year-old</w> 1881
0 4</w> 1881
A ri 1881
rout ine</w> 1881
SN I</w> 1880
streng then</w> 1880
person ally</w> 1880
fr ag 1879
vis its</w> 1878
publ ish</w> 1878
presid ency</w> 1878
Spec ial</w> 1878
afford able</w> 1878
Accr ington</w> 1878
contri bute</w> 1877
g ains</w> 1876
c lock</w> 1876
L ot 1876
ha bit 1876
Tex as</w> 1876
b one</w> 1875
stud ying</w> 1875
quali fication</w> 1875
nar row 1875
Hartle pool</w> 1875
b ound 1874
ic ks</w> 1874
tax i</w> 1873
valu able</w> 1873
j e 1872
en e</w> 1872
di versity</w> 1872
dem anded</w> 1872
mark eting</w> 1872
acti vist</w> 1872
equal iser</w> 1872
B un 1871
pos ure</w> 1871
develop ments</w> 1871
nar row</w> 1871
re pa 1870
Georgi a</w> 1870
ill ance</w> 1869
gather ing</w> 1869
witn essed</w> 1869
C E 1867
consult ant</w> 1867
Guar di 1867
pro p 1866
pup il</w> 1866
ester day</w> 1866
U efa</w> 1864
Sar ac 1864
Vet tel</w> 1864
d ying</w> 1863
ell i</w> 1863
ex ist</w> 1862
wan ting</w> 1862
sle ep 1862
no ise</w> 1861
with draw 1861
Den mark</w> 1861
in ely</w> 1860
Counc ill 1860
emerg ing</w> 1859
mach ines</w> 1859
Hodg son</w> 1859
not iced</w> 1857
crow ds</w> 1857
bow ler</w> 1857
m ere</w> 1856
Sam sung</w> 1856
t end</w> 1855
C leg 1855
N ik 1855
P SNI</w> 1855
Zim bab 1855
bo ar 1854
dis order</w> 1854
ret t</w> 1854
kill er</w> 1853
K ha 1852
j unction</w> 1852
thre w</w> 1852
trib un 1852
. news</w> 1851
vers al</w> 1851
c ig 1850
fin ances</w> 1850
newsp apers</w> 1850
bon us</w> 1850
gr ass</w> 1849
Par tick</w> 1849
Ar ticle</w> 1849
succ e 1849
Gol d 1849
Brom wich</w> 1849
u g 1848
P ad 1848
ag ents</w> 1848
Mar ia</w> 1848
tre ating</w> 1848
religi on</w> 1848
share holders</w> 1848
y e</w> 1847
lin ing</w> 1847
Cr icket</w> 1847
Colom bia</w> 1847
saf ely</w> 1847
Anton io</w> 1847
b ull</w> 1846
i p</w> 1846
P S 1846
ar g 1846
n t</w> 1845
d ry</w> 1845
re vi 1845
bow led</w> 1845
es hi 1844
ph en 1844
col our</w> 1844
Fi fe</w> 1844
business man</w> 1844
Dougl as</w> 1844
d di 1843
eff ici 1843
famili ar</w> 1843
h idden</w> 1842
v is</w> 1842
K os 1842
youn gest</w> 1842
tor ate</w> 1842
Tel e 1842
in appropriate</w> 1841
cont ext</w> 1841
con st 1840
entertain ment 1840
Cleg g</w> 1840
el er 1839
En ts</w> 1839
IP CC</w> 1839
H om 1838
er i</w> 1838
ven ess</w> 1838
negoti ate</w> 1838
Sil va</w> 1838
BBCNews Ents</w> 1838
entertainment .news</w> 1838
pic king</w> 1837
Play er</w> 1837
f i</w> 1836
H eal 1836
id en</w> 1836
ob by</w> 1836
tou ched</w> 1836
South end</w> 1836
Develop ment</w> 1836
cont aining</w> 1835
b last</w> 1834
P os 1834
cap ture</w> 1834
tal ented</w> 1834
War wickshire</w> 1834
civ ilian</w> 1834
restor ed</w> 1834
t ary</w> 1833
ev es</w> 1833
Ger main</w> 1833
199 2</w> 1833
cea se 1833
l i</w> 1832
c hat</w> 1831
first- half</w> 1831
docum entary</w> 1831
ex press</w> 1830
impl ications</w> 1829
T ok 1828
dis t</w> 1828
gl ass</w> 1828
Que ens</w> 1828
Ronal do</w> 1828
sup ports</w> 1827
stri king</w> 1827
argu ing</w> 1827
hos t 1827
McIl roy</w> 1827
H ove</w> 1826
ne u 1826
success or</w> 1826
consider ation</w> 1826
A M</w> 1825
pr ay 1825
re la 1824
or ic</w> 1824
commun ication</w> 1823
Mod i</w> 1823
4 bn</w> 1822
s and 1821
9 0 1821
electri c</w> 1821
Sarac ens</w> 1821
B est</w> 1819
lea ked</w> 1819
Le igh</w> 1819
run ner 1819
prin cip 1818
Lit tle</w> 1818
e as</w> 1817
2 1-year-old</w> 1817
in surg 1817
St ar 1817
ik a</w> 1817
U ber</w> 1816
S um 1815
emb assy</w> 1815
dr one</w> 1815
Fernand o</w> 1815
fe at 1814
year- olds</w> 1814
Mc In 1814
G A</w> 1813
ch est</w> 1813
co al</w> 1813
gir l 1813
sal ary</w> 1813
S ig 1812
cont ain</w> 1812
exam ined</w> 1812
rap idly</w> 1812
Th r 1811
comm emor 1811
ak ed</w> 1810
Mar shall</w> 1809
let t</w> 1809
Bak er</w> 1809
6 1</w> 1808
ot ten</w> 1808
the ft</w> 1808
id er</w> 1807
h eight</w> 1806
bri a</w> 1806
Pa ul 1806
Dum fri 1806
Gill ingham</w> 1806
b ail 1805
re a</w> 1805
O ut 1804
N o- 1804
Mir ren</w> 1804
ar ed</w> 1803
am be</w> 1803
resp ected</w> 1803
up date</w> 1803
establ ishment</w> 1803
26 -year-old</w> 1803
x ing</w> 1802
Mar ine</w> 1802
Direc tor</w> 1802
ms by</w> 1802
Aff airs</w> 1802
S em 1801
au ght</w> 1801
Car l</w> 1801
footb aller</w> 1801
6 , 1800
sib ilities</w> 1800
super market</w> 1800
n am</w> 1799
re z</w> 1799
iti ve</w> 1799
Le on 1799
S eb 1798
Lu k 1798
c at</w> 1797
H as 1797
li qu 1797
tak eover</w> 1797
ach t</w> 1797
T esco</w> 1796
disappoin tment</w> 1796
blo g</w> 1796
arch it 1796
ap ar 1795
Argy le</w> 1795
T em 1794
Man sfield</w> 1794
invol ves</w> 1794
sit u 1794
W all</w> 1793
Ch ester</w> 1793
A dri 1792
Feder al</w> 1792
Angel es</w> 1792
pen sions</w> 1791
t ally</w> 1790
w alls</w> 1790
f li 1790
L im 1790
the dr 1790
ul ated</w> 1790
celebr ated</w> 1790
mater ials</w> 1790
8 ,000</w> 1789
oo k 1789
o ked</w> 1788
ool s</w> 1788
Was ps</w> 1788
c ited</w> 1787
kno ck 1787
c king</w> 1786
fi x</w> 1786
Rob bie</w> 1786
purcha se</w> 1786
p p</w> 1785
L at 1785
Le in 1785
F e 1784
team- mates</w> 1784
Indones ia</w> 1784
evacu ated</w> 1784
re pair</w> 1783
pl edge</w> 1783
sam ples</w> 1783
Chester field</w> 1783
7 ,000</w> 1782
T our 1781
am i</w> 1781
Fin ancial</w> 1781
bran ch</w> 1781
Tyr one</w> 1781
r at 1780
Bren dan</w> 1780
om en 1779
Su ch</w> 1779
No- one</w> 1779
v it 1778
some where</w> 1778
jum ped</w> 1778
s ac 1777
Ar th 1777
nur se</w> 1777
ton ight</w> 1776
Arm strong</w> 1776
ur ge</w> 1775
whe el 1775
th a</w> 1774
surve illance</w> 1774
vari ety</w> 1774
Bru ce</w> 1774
sp ells</w> 1773
ong - 1773
hand le</w> 1773
five- year</w> 1773
U g 1772
di ver 1772
Paralymp ic</w> 1771
b ishop</w> 1770
R N 1770
the tic</w> 1770
ta g</w> 1770
18 - 1770
Lein ster</w> 1770
oper ators</w> 1769
cour ses</w> 1768
198 9</w> 1768
ic ian</w> 1767
ol dest</w> 1767
bl ack 1767
high light</w> 1766
traff icking</w> 1766
T on 1765
ag u 1765
Hen derson</w> 1765
s now</w> 1764
w eal 1764
St ation</w> 1764
Par t 1764
Maj or</w> 1764
R ah 1763
A ud 1763
S ulli 1762
ch i</w> 1762
cha m 1762
hand led</w> 1762
Leic estershire</w> 1762
Hear t</w> 1762
7 4</w> 1761
with draw</w> 1761
Minist ers</w> 1761
feat uring</w> 1761
l ish 1760
C le 1760
er t</w> 1760
determin ation</w> 1760
Rh ys</w> 1760
ran kings</w> 1759
Inv est 1759
om ing</w> 1758
si l</w> 1758
gener ated</w> 1758
Sulli van</w> 1758
o in</w> 1757
out put</w> 1757
Bar cl 1757
N ep 1756
x on</w> 1756
worl d- 1756
sc ul 1755
ob lig 1755
Tele graph</w> 1755
P ier 1754
resul ting</w> 1754
cli ents</w> 1754
ar ing</w> 1753
min im 1753
war ming</w> 1753
Bus h</w> 1753
mi x</w> 1752
fix ture</w> 1752
k h</w> 1751
us eful</w> 1751
pres ent 1751
pu ted</w> 1751
Cro ati 1751
Th ir 1750
are tt 1750
sa ge</w> 1749
fr ame</w> 1749
with drawn</w> 1749
Ley ton</w> 1749
i ers</w> 1748
l en</w> 1748
d u</w> 1748
6 bn</w> 1748
A v 1748
L P</w> 1748
ch ea 1748
lan ding</w> 1748
Mos ul</w> 1748
au g 1747
ur ging</w> 1746
frustr ation</w> 1746
comman der</w> 1746
consci ous</w> 1746
m enti 1745
0 5</w> 1745
C o- 1745
N icky</w> 1745
re in 1745
cent ur 1745
Mu sic</w> 1745
fle w</w> 1745
Gri msby</w> 1745
Gat land</w> 1745
ell o</w> 1744
en ko</w> 1743
wor rying</w> 1743
ann on</w> 1743
Mess i</w> 1743
stu dio</w> 1742
Guardi ola</w> 1742
ent ally</w> 1741
ib ility</w> 1741
motiv ated</w> 1741
P aci 1740
st aged</w> 1740
p ock 1739
pol ling</w> 1739
Some times</w> 1739
har d- 1738
Lu is</w> 1738
Glouc ester</w> 1738
landsc ape</w> 1738
ch r 1737
exam ine</w> 1737
Sci ence</w> 1737
d il 1736
10 . 1736
profession als</w> 1736
G od 1735
be y</w> 1735
contin ent</w> 1735
Sha res</w> 1734
mag h</w> 1734
pl ea</w> 1733
hom eless</w> 1733
defe ats</w> 1733
hon oured</w> 1733
Comp any</w> 1733
A P</w> 1732
Hop efully</w> 1732
M ov 1731
re viewed</w> 1731
hop eful</w> 1731
invest ing</w> 1731
Der ek</w> 1731
Nav y</w> 1731
tom orrow</w> 1731
cease fire</w> 1731
i z</w> 1730
K y 1730
An gl 1730
shoc king</w> 1730
U p</w> 1729
tour ist</w> 1729
regul ation</w> 1729
nation ally</w> 1729
par king</w> 1728
Ch er 1728
bow ling</w> 1728
Rom an</w> 1728
Li v 1727
hac king</w> 1727
e v</w> 1726
Som alia</w> 1726
A vi 1725
eng ines</w> 1725
il legally</w> 1724
fin es</w> 1724
play -offs</w> 1724
direc tors</w> 1724
en - 1723
clas si 1723
resist ance</w> 1723
G went</w> 1722
af raid</w> 1722
Cz ech</w> 1722
B ull</w> 1721
ec k</w> 1721
pe l</w> 1721
mit ting</w> 1721
w ounds</w> 1720
ab duc 1720
pas sion</w> 1720
Mo rec 1720
til ity</w> 1720
27 -year-old</w> 1720
R el 1718
ri dge</w> 1718
su itable</w> 1718
199 1</w> 1718
Sha k 1718
Morec ambe</w> 1718
F T 1717
th am</w> 1717
Nic ol 1717
May be</w> 1717
con sen 1716
sh oot</w> 1716
Dav id 1716
phys ically</w> 1716
Tom my</w> 1716
thi op 1716
re bel 1715
ra rely</w> 1715
gener ate</w> 1715
resol ved</w> 1715
girl friend</w> 1715
P op 1714
ump h</w> 1714
ren sic</w> 1713
pun ishment</w> 1713
Vi et 1713
en der</w> 1712
Col e</w> 1712
Dumfri es</w> 1712
thedr al</w> 1712
ak ia</w> 1711
for cing</w> 1710
per cent 1710
rel ative</w> 1710
bloc ks</w> 1710
repe at</w> 1710
M asters</w> 1709
G lobal</w> 1709
tr o</w> 1709
ay a</w> 1709
wor n</w> 1709
to x 1709
gi e</w> 1709
che aper</w> 1709
Seb as 1709
o e</w> 1708
G DP</w> 1708
inter views</w> 1708
Sh e 1708
Jan e</w> 1707
6- 3</w> 1707
subsequ ent</w> 1707
a eth</w> 1706
E thiop 1706
mat h</w> 1706
cu it</w> 1706
wed odd</w> 1706
bar s</w> 1706
temper ature</w> 1706
defend ant</w> 1706
re sign</w> 1705
Be at 1705
v owed</w> 1704
A l</w> 1704
Tur n 1704
6- 4</w> 1703
pl ot</w> 1702
196 0s</w> 1702
sched ule</w> 1702
Associ ated</w> 1702
o a</w> 1701
am ent</w> 1701
tu rer</w> 1700
uc t 1700
Law rence</w> 1700
proced ure</w> 1700
b oun 1699
ell er</w> 1699
199 0</w> 1699
t aught</w> 1698
ad or</w> 1698
pro of</w> 1698
A T 1697
regre t</w> 1697
bos ses</w> 1696
tribun al</w> 1696
el ect</w> 1695
satis fied</w> 1695
Sti r 1695
Wall ace</w> 1695
D ame</w> 1694
ri ding</w> 1694
Di ego</w> 1694
celebr ating</w> 1694
Gi ven</w> 1694
dep th</w> 1694
Paci fic</w> 1694
t emp 1693
tur ns</w> 1693
jo y</w> 1693
thir ds</w> 1693
N ev 1692
inter viewed</w> 1692
Mer se 1692
bru tal</w> 1692
t een</w> 1691
L ati 1691
to ols</w> 1690
acc eler 1690
bat ting</w> 1690
Mex ican</w> 1690
and-a- half</w> 1690
J ay</w> 1687
li ked</w> 1686
du ties</w> 1686
fl y- 1686
ma il</w> 1686
lin e-up</w> 1686
econom ist</w> 1686
trac ks</w> 1686
medic ine</w> 1686
fer m 1685
cig arett 1685
g lob 1684
j ack 1684
der ry</w> 1684
Cap ital</w> 1684
s q</w> 1683
en ders</w> 1683
vis i 1683
Tr ade</w> 1683
real istic</w> 1683
7 7</w> 1682
19 -year-old</w> 1682
Challen ge</w> 1682
th ly</w> 1681
man slaughter</w> 1681
chea p</w> 1681
are z</w> 1680
S now 1679
ro ots</w> 1679
ris t</w> 1679
rel uct 1679
enjo ying</w> 1679
The atre</w> 1679
Jen kins</w> 1679
f ing 1678
For m 1678
bur ton</w> 1677
sol ar</w> 1677
Don nell</w> 1677
Slo v 1677
C T</w> 1676
G am 1676
L es 1676
I ain</w> 1676
me - 1676
cli ent</w> 1676
m on</w> 1675
W ater</w> 1675
man ded</w> 1675
eff icient</w> 1675
Mic h 1675
W ee 1674
ne dd</w> 1674
me at</w> 1674
Bar net</w> 1674
s essions</w> 1673
K ab 1673
in ations</w> 1673
in box</w> 1673
ti m 1673
Pol ish</w> 1673
impl ement</w> 1673
comprehen sive</w> 1673
s lo 1672
depart ments</w> 1672
c tic</w> 1671
W oods</w> 1671
hos ting</w> 1671
Oper ation</w> 1671
t ears</w> 1670
br ands</w> 1670
char t</w> 1670
hun t</w> 1670
cau tion</w> 1670
nerv ous</w> 1670
K el 1669
Ma ur 1669
err ors</w> 1669
skip per</w> 1669
ha t- 1667
ea sed</w> 1667
per spec 1666
att end 1666
lat ter</w> 1666
terror ists</w> 1666
aim ing</w> 1666
qualifi er</w> 1666
IM F</w> 1666
J o</w> 1665
ic ked</w> 1665
cl er 1665
Gul f</w> 1665
Scienti sts</w> 1665
David son</w> 1665
answ ered</w> 1664
tel eph 1663
nov el</w> 1663
is s 1662
ell ers</w> 1662
ran king</w> 1662
sion ate</w> 1661
c overs</w> 1660
B ig 1660
ff y</w> 1660
j o</w> 1659
aw ful</w> 1659
bul lying</w> 1659
super - 1659
fix tures</w> 1659
Gi b 1658
slow ly</w> 1658
su gar</w> 1657
um b 1657
G av 1656
Ma id 1656
199 3</w> 1656
P lan 1655
de pression</w> 1655
ussi a</w> 1655
zer o</w> 1655
stret ch</w> 1655
McGu inness</w> 1655
Arth ur</w> 1655
f ted</w> 1654
pl ed</w> 1654
Sto kes</w> 1654
sur ge</w> 1653
abe tes</w> 1652
peac eful</w> 1652
wrong doing</w> 1652
comm ented</w> 1651
rev ol 1651
Acad em 1651
ac re</w> 1650
St ev 1650
oin t</w> 1650
qu e 1649
rac ist</w> 1649
releg ated</w> 1649
S ain 1648
see kers</w> 1648
With out</w> 1647
i or 1645
7 3</w> 1645
im pose</w> 1645
app s</w> 1645
Sp ace</w> 1645
Ex per 1645
speci fically</w> 1645
rec all</w> 1644
19 th</w> 1644
fer ry</w> 1644
Sc ot</w> 1643
cha os</w> 1643
contri but 1643
Eng lish 1642
conserv ation</w> 1642
S ource</w> 1641
A C</w> 1641
L ove</w> 1641
dic t 1641
conven i 1641
chec ked</w> 1640
drin ks</w> 1640
isol ated</w> 1640
ff e</w> 1639
bur st</w> 1639
sub jects</w> 1639
agre ements</w> 1639
dro pping</w> 1639
Dun ferm 1639
ab is</w> 1638
pre mis 1638
par ade</w> 1638
ten ance</w> 1638
influ ential</w> 1638
embarr as 1638
exter nal</w> 1638
Dunferm line</w> 1638
F ood</w> 1637
ag han</w> 1637
sec uring</w> 1637
implem ented</w> 1637
b is 1636
S imp 1636
London derry</w> 1636
ef f</w> 1635
Gu ine 1635
3 0- 1634
I sa 1634
In spec 1634
tri umph</w> 1634
nomin ation</w> 1634
sh eet</w> 1633
p ack</w> 1632
R et 1632
arre ll</w> 1632
consist ently</w> 1632
t ast 1631
rev olution</w> 1631
prov en</w> 1630
compl icated</w> 1630
tru sts</w> 1630
aut onom 1630
post- mortem</w> 1630
Fro ome</w> 1630
d ily</w> 1629
es - 1629
ad dic 1629
dis puted</w> 1629
pic ally</w> 1629
l ap 1628
res ili 1628
attac hed</w> 1628
Icel and</w> 1628
w a</w> 1627
ex plan 1627
ber ry</w> 1627
pursu e</w> 1627
popul arity</w> 1627
percent age</w> 1627
first- team</w> 1626
life time</w> 1626
Rich ards</w> 1626
Anti - 1626
accompan ied</w> 1626
min s</w> 1625
Charl ot 1625
lea se</w> 1624
resid ential</w> 1624
Sal ford</w> 1624
J av 1623
M um 1623
ri d 1623
Ar ch 1623
flow n</w> 1623
i ves</w> 1622
er o 1622
St ud 1622
retail ers</w> 1622
Sh ang 1621
R ach 1620
foc using</w> 1620
eigh t- 1620
rol led</w> 1620
Ghan a</w> 1620
N elson</w> 1619
alli ance</w> 1619
20 m</w> 1618
vic tories</w> 1618
fr ac 1618
ran ks</w> 1618
pre- season</w> 1618
Tok yo</w> 1618
li mit 1617
Tur ner</w> 1617
don ations</w> 1617
restric ted</w> 1617
in decent</w> 1616
en ey</w> 1616
over come</w> 1616
Domin ic</w> 1616
p acked</w> 1615
the ory</w> 1615
streng th 1615
Niger ian</w> 1615
const ant</w> 1615
t mund</w> 1614
be t</w> 1614
oper ational</w> 1614
refer ring</w> 1614
wat er 1614
Jos hua</w> 1614
th ri 1613
rec overing</w> 1613
gener ations</w> 1613
War burton</w> 1613
tun nel</w> 1613
Dor tmund</w> 1613
Guar dian</w> 1613
Man uel</w> 1612
p it</w> 1611
aff ecting</w> 1611
Any one</w> 1611
b n 1610
f iscal</w> 1610
R SP 1610
P M 1610
pre ne 1610
c af 1609
Mon itoring</w> 1609
Cat al 1609
ei ved</w> 1607
all y- 1607
Ar n 1607
dem entia</w> 1607
lu x 1607
discipl inary</w> 1607
deter ior 1607
m ention</w> 1606
asp ects</w> 1606
p av 1605
li est</w> 1605
Mel bourne</w> 1605
phen omen 1605
sym bol 1604
n shire</w> 1603
D re 1603
un believ 1603
Of sted</w> 1603
scar ed</w> 1603
Saf ety</w> 1601
ee m</w> 1600
remember ed</w> 1600
Mc N 1599
rap id</w> 1599
post p 1599
trem end 1599
sent encing</w> 1598
a si 1597
4 0,000</w> 1597
j am 1597
leg end</w> 1597
Bar row</w> 1597
har m 1597
inf ected</w> 1597
0 6</w> 1596
8 bn</w> 1596
pr on 1596
ent re 1596
Em ma</w> 1596
r hy 1595
K al 1595
L ab 1595
L ater</w> 1594
lo vely</w> 1594
over e 1594
are ly</w> 1594
sol ve</w> 1593
Rob in</w> 1593
r ating</w> 1592
K an 1592
W arr 1592
es on</w> 1592
me anwhile</w> 1592
bus es</w> 1592
excep tional</w> 1592
A venue</w> 1591
x es</w> 1591
ca el</w> 1591
celebr ations</w> 1591
0 1</w> 1590
Whit e 1590
29 -year-old</w> 1590
neu tr 1589
- in</w> 1588
on el</w> 1588
20 -year-old</w> 1588
fu sion</w> 1588
domin ant</w> 1588
y esterday</w> 1587
el ement</w> 1587
negoti ating</w> 1587
E ur 1586
B ou 1586
7 , 1586
G ro 1586
G Ps</w> 1586
tr ace</w> 1586
bo w</w> 1586
after math</w> 1586
c en 1585
ro bot 1585
ing u 1585
200 ,000</w> 1585
sli pped</w> 1585
entertain ment</w> 1585
rock et</w> 1585
jour nal</w> 1584
us h 1583
E st 1582
j er 1582
tr adition</w> 1582
ex act</w> 1582
ulti mate</w> 1582
volun tary</w> 1582
f os 1581
Str a 1581
attrac tive</w> 1581
fire fighters</w> 1581
replac ing</w> 1580
vill ages</w> 1580
Law ro</w> 1580
rol ling</w> 1580
m .</w> 1579
am ond</w> 1579
Fr ont</w> 1579
broad band</w> 1579
un law 1578
de pos 1578
Mar co</w> 1578
fore st</w> 1578
auth ors</w> 1578
Hi bs</w> 1578
su m</w> 1577
pro hi 1577
sec tors</w> 1577
off shore</w> 1577
pris ons</w> 1577
Am bulance</w> 1577
sub si 1576
cir cul 1576
Lincol nshire</w> 1576
ignor ed</w> 1576
predec essor</w> 1576
hal t</w> 1575
second- half</w> 1575
meth ods</w> 1574
Carol ine</w> 1574
smart phone</w> 1574
franch ise</w> 1574
T ata</w> 1573
prior ities</w> 1573
An ne</w> 1572
stat ue</w> 1572
fil es</w> 1572
remov al</w> 1572
hat- trick</w> 1572
2 4- 1571
att ri 1571
respon ding</w> 1571
inc enti 1571
50 0,000</w> 1569
barri ers</w> 1569
Tig ers</w> 1569
M embers</w> 1568
at ch</w> 1568
pri de</w> 1568
al le 1567
mar ch</w> 1567
econom ies</w> 1567
pow ered</w> 1567
week ly</w> 1567
bel t</w> 1567
Res pon 1567
R MT</w> 1566
re ward</w> 1566
al arm</w> 1566
cre te</w> 1566
fun dra 1566
- born</w> 1565
accoun t 1565
Pro 12</w> 1565
che z</w> 1565
g otten</w> 1564
B ack</w> 1564
mis sil 1564
wy r</w> 1564
r ati 1563
d ress</w> 1563
clos est</w> 1563
olog ists</w> 1563
doc k</w> 1563
18 -year-old</w> 1563
Pow ell</w> 1563
28 -year-old</w> 1563
sud den</w> 1563
B row 1562
list ening</w> 1562
All an</w> 1562
11 th</w> 1562
bedro om</w> 1562
ti red</w> 1561
ur ban</w> 1561
coll ect</w> 1561
u ff 1560
ar io</w> 1560
requi rements</w> 1560
M ak 1559
in mates</w> 1559
ang ered</w> 1559
ass essed</w> 1559
ap ol 1558
Un fortunately</w> 1558
employ ee</w> 1558
celebr ation</w> 1558
o edd</w> 1557
c ool</w> 1557
C ancer</w> 1557
R ou 1557
A ut 1557
re manded</w> 1557
en s 1557
mo on</w> 1557
Tai wan</w> 1557
w aves</w> 1556
A S 1556
ri ft</w> 1556
co in</w> 1556
Hol land 1556
t ee 1555
enn a</w> 1555
R ome</w> 1554
co- operation</w> 1554
z es</w> 1553
D ag 1553
care ful</w> 1553
innov ation</w> 1553
cam p 1552
practic al</w> 1552
t les</w> 1551
emp ha 1551
politic ally</w> 1551
Per haps</w> 1550
Ap pe 1550
gri ev 1550
V e 1549
emb ar 1549
legiti mate</w> 1549
Zimbab we</w> 1549
menti oned</w> 1549
lev elled</w> 1548
rup t</w> 1548
M oy 1547
Ph il 1547
athle tics</w> 1547
Worc ester</w> 1547
coin c 1547
H ut 1546
peri ods</w> 1546
os ing</w> 1545
lau gh 1545
K ate</w> 1544
ti ming</w> 1544
Hu gh</w> 1544
9 6</w> 1543
so il</w> 1543
Pal mer</w> 1543
earth quake</w> 1543
Atlan tic</w> 1543
ch ess</w> 1541
pro be</w> 1541
nin e- 1541
9 2</w> 1540
P on 1540
il it 1540
Mar io</w> 1540
Pl ans</w> 1540
c ot 1539
kee ps</w> 1539
clim b</w> 1539
Mo hamed</w> 1538
ON S</w> 1538
refl ected</w> 1537
Tha mes</w> 1537
occup ied</w> 1537
K lo 1536
z o</w> 1536
row s</w> 1536
cha sing</w> 1536
Pr inc 1536
p ages</w> 1535
M ills</w> 1535
er ce</w> 1535
pe ers</w> 1535
In du 1535
lan e</w> 1535
And re</w> 1535
ex port</w> 1534
cour age</w> 1534
jud ged</w> 1534
f ish 1533
A cc 1533
th rowing</w> 1533
ru s</w> 1533
Ga al</w> 1533
missil es</w> 1533
tr e</w> 1532
Con go</w> 1532
Shang hai</w> 1532
b its</w> 1531
A - 1531
fin ds</w> 1531
short age</w> 1531
7 bn</w> 1530
in her 1530
,00 0- 1530
main tenance</w> 1529
News beat</w> 1529
Analy sis</w> 1529
Michel le</w> 1529
premis es</w> 1529
A yr</w> 1528
er ty</w> 1528
them e</w> 1528
cann abis</w> 1528
D eb 1527
ank le</w> 1527
Rom a</w> 1527
questi oning</w> 1526
twee ts</w> 1526
B ell 1525
M ik 1525
frustr ating</w> 1525
prepar ation</w> 1525
Kier an</w> 1525
arg uments</w> 1525
sa in</w> 1524
pro p</w> 1524
bo l</w> 1524
Uni onist</w> 1524
engine ers</w> 1524
ambiti ons</w> 1524
B ab 1523
ma ths</w> 1523
lyn n</w> 1523
an ian</w> 1522
20 th</w> 1522
produc ers</w> 1522
draw s</w> 1522
coc aine</w> 1522
im pe 1521
proc esses</w> 1521
inno cent</w> 1521
princip al</w> 1521
is m 1520
inst ance</w> 1520
autom atic</w> 1520
G allow 1519
autom atically</w> 1519
- time</w> 1517
es el</w> 1517
bu yers</w> 1517
Al most</w> 1517
far - 1517
stop ping</w> 1517
Prosecut ors</w> 1517
ac ey</w> 1516
dis ability</w> 1516
ph r 1516
sing ing</w> 1516
audi ences</w> 1516
Worc estershire</w> 1516
casu alties</w> 1516
scul p 1516
entre prene 1516
li on</w> 1515
oc ean</w> 1515
Thom son</w> 1515
ric h 1515
C O 1514
C hap 1514
dec iding</w> 1514
sur prising</w> 1514
re serve</w> 1513
man ip 1513
En ter 1513
Fin ance</w> 1513
W rit 1511
an n</w> 1511
201 5- 1511
every where</w> 1511
pul ling</w> 1511
neighb our</w> 1511
Holland e</w> 1511
HI V</w> 1510
L td</w> 1509
tar i 1509
fle eing</w> 1509
Y our</w> 1508
fore ver</w> 1508
Ob viously</w> 1508
difficul ty</w> 1508
jiha dist</w> 1508
1 20</w> 1507
T oul 1507
A T</w> 1507
stu died</w> 1507
favour ites</w> 1507
n ut 1506
cl ari 1506
sub sid 1506
s on 1505
tr ail</w> 1505
stun ning</w> 1505
comfor t</w> 1504
Tow n 1504
cycl ist</w> 1504
b ands</w> 1503
per pe 1503
er n 1502
squ are</w> 1502
Pri ze</w> 1501
frequ ently</w> 1501
r anging</w> 1500
ic onic</w> 1500
enti onal</w> 1500
kee pers</w> 1500
pain ting</w> 1500
rob bery</w> 1500
Rem ain</w> 1500
el le</w> 1499
ed ges</w> 1499
Un ite</w> 1499
withdraw al</w> 1499
is ure</w> 1498
con crete</w> 1498
M en</w> 1497
ha dn</w> 1497
Con stable</w> 1497
red und 1497
perspec tive</w> 1497
re publ 1496
ri ders</w> 1496
t ex 1495
O K</w> 1495
re ci 1495
ban k 1495
Wat er 1495
Kir k 1495
st aff 1494
pe trol</w> 1494
bom b 1494
40 0m</w> 1494
S wi 1493
A S</w> 1493
Gallow ay</w> 1493
i fied</w> 1492
n ic 1492
L and</w> 1492
teleph one</w> 1492
yd d 1491
Mun ster</w> 1491
p m</w> 1490
I CC</w> 1490
ent - 1490
Ca er 1490
Vinc ent</w> 1490
Famil y</w> 1490
S pe 1489
ou tr 1488
S ant 1487
cr ack 1487
cer ti 1487
Mu ham 1487
decis ive</w> 1487
Du ke</w> 1487
vis a</w> 1486
fron t 1486
tow er</w> 1486
pun ished</w> 1486
am ong 1485
Cam bri 1485
Pro ject</w> 1485
sli de</w> 1485
EC B</w> 1485
Elli ott</w> 1485
Un til</w> 1484
sub stance</w> 1484
equ ally</w> 1484
Liv ing 1484
among st</w> 1484
su bur 1483
Pow ys</w> 1483
1 1- 1482
ab ol 1482
ph il 1482
won der</w> 1482
inti mid 1482
9 -year-old</w> 1481
ag g 1481
ill - 1481
na p</w> 1481
Christi e</w> 1480
Ster ling</w> 1480
s overe 1479
ol an</w> 1479
taxpay ers</w> 1479
at t</w> 1478
str ange</w> 1478
mo thers</w> 1478
Am nesty</w> 1478
Gav in</w> 1478
e er</w> 1477
W ig 1477
sup porter</w> 1477
25 ,000</w> 1477
sear ched</w> 1477
Klo pp</w> 1477
par am 1476
Bor ussia</w> 1476
execu tives</w> 1475
Mal i</w> 1475
industri es</w> 1475
centur ies</w> 1475
n ch 1474
o b</w> 1473
t ool</w> 1473
B il 1473
d am</w> 1473
f ea 1473
am m 1473
ear th</w> 1473
Sun ni</w> 1473
box es</w> 1473
Ab bot 1472
Sen ator</w> 1472
charac ter 1472
Techn ology</w> 1472
Abd ul 1472
Guine a</w> 1472
den ed</w> 1471
Hon da</w> 1471
brief ly</w> 1471
4- 0</w> 1470
sear ches</w> 1470
er up 1469
Tunis ia</w> 1469
un necessary</w> 1468
Tal bot</w> 1468
at ter</w> 1467
hun ting</w> 1467
0 2</w> 1466
ni ghts</w> 1466
so m</w> 1466
bor rowing</w> 1466
conc ept</w> 1466
7 6</w> 1465
W ells</w> 1465
fi ghts</w> 1465
requ ested</w> 1465
Cri tics</w> 1465
Franc ois</w> 1464
overwhel ming</w> 1464
J eff 1463
techni que</w> 1463
Stir ling</w> 1463
s ity</w> 1462
re opened</w> 1462
mov ements</w> 1462
appe als</w> 1462
s ounds</w> 1461
H ann 1460
Ob serv 1460
prosp ects</w> 1460
2 1st</w> 1459
R ub 1459
preven ting</w> 1459
Merse yside</w> 1459
d ur 1458
M ü 1458
agre es</w> 1458
short- term</w> 1458
A wards</w> 1457
I N 1457
Z am 1457
mil k</w> 1457
tre as 1457
pan ic</w> 1457
manufac turers</w> 1457
aw a</w> 1456
expl ore</w> 1456
avo ided</w> 1456
restaur ants</w> 1456
cont em 1455
str ict</w> 1455
A re</w> 1454
lea k</w> 1454
Sing h</w> 1454
situ ations</w> 1454
Rach el</w> 1454
gr and</w> 1453
to s</w> 1453
Cri me 1453
Cur ren 1453
tol l</w> 1453
trigg er</w> 1453
campaig ner</w> 1452
At le 1452
C ad 1451
rec y 1451
am e 1450
gh ters</w> 1450
gu ided</w> 1450
sti c</w> 1450
N ice</w> 1449
cl ash</w> 1449
un expected</w> 1448
su n</w> 1448
Mor oc 1448
scre ening</w> 1448
7 8</w> 1447
it i</w> 1447
for th 1447
pre ferred</w> 1447
mu ch- 1447
Bl ue</w> 1447
b our</w> 1446
n d</w> 1446
us s</w> 1446
di abetes</w> 1446
sub - 1446
deb ts</w> 1446
swit ched</w> 1446
li sts</w> 1445
min ds</w> 1445
sha me</w> 1445
ty pically</w> 1445
citi zen</w> 1444
Cul ture</w> 1444
lo yal</w> 1443
cap t</w> 1443
bur ning</w> 1443
develop ers</w> 1443
than ked</w> 1443
ea ses</w> 1442
al ising</w> 1441
far ming</w> 1441
Swed ish</w> 1441
child hood</w> 1441
mar gin</w> 1440
Pear son</w> 1440
fi l</w> 1439
sa me- 1438
Atle tico</w> 1438
e o</w> 1437
F itz 1437
An dro 1437
ther ine</w> 1437
insp iration</w> 1437
Bern ard</w> 1437
- out</w> 1436
ir on</w> 1436
electr onic</w> 1436
fi erce</w> 1435
promot ing</w> 1435
come back</w> 1435
M ass 1434
W it 1434
em e 1434
Coun try</w> 1433
Camer oon</w> 1433
sk ir 1432
vo ices</w> 1431
c iting</w> 1430
F ig 1430
Sp ani 1430
eng agement</w> 1430
lux ury</w> 1430
an on</w> 1429
fir mly</w> 1429
3- 2</w> 1429
bbc news 1429
en counter</w> 1428
acc es 1428
sol utions</w> 1428
mid d 1428
coff ee</w> 1428
bbcnews ents</w> 1428
do zen</w> 1427
Twent y 1427
am ate 1426
oper ates</w> 1426
sugg estions</w> 1426
tor ture</w> 1426
mos que</w> 1426
McCar thy</w> 1426
K ash 1425
or ious</w> 1425
se al</w> 1425
Charlot te</w> 1425
M ea 1424
W ill 1424
ne ys</w> 1424
im men 1424
win dows</w> 1424
commit ments</w> 1424
author ised</w> 1424
2. 5</w> 1424
tempor arily</w> 1424
4 8 1423
18 th</w> 1423
virtu al</w> 1423
Vau ghan</w> 1423
P ur 1422
P embro 1422
sm ashed</w> 1422
Ac tion</w> 1422
u me</w> 1421
P rison</w> 1421
si zed</w> 1421
dis gu 1421
har assment</w> 1421
demonstr ated</w> 1421
ona ire</w> 1421
gene tic</w> 1421
W a 1420
ti se</w> 1420
ri dic 1420
comm and</w> 1420
pas sport</w> 1420
remov ing</w> 1420
stab il 1420
Whe ther</w> 1420
S hel 1419
U r 1419
dis gr 1419
reli able</w> 1419
Val en 1419
tu al</w> 1418
b in 1417
p hi 1417
com promise</w> 1417
Dor set</w> 1417
integr ity</w> 1417
Form ula</w> 1417
di um</w> 1416
la sted</w> 1416
young sters</w> 1416
Exper ts</w> 1416
f esti 1415
aff air</w> 1415
h ide</w> 1414
bur den</w> 1414
renew ed</w> 1414
attack er</w> 1414
fly- half</w> 1414
u sive</w> 1413
B yr 1413
feder ation</w> 1413
V ill 1412
ci ous</w> 1412
te a</w> 1412
Mor rison</w> 1412
bail out</w> 1412
I O 1411
fre ed</w> 1411
boo k 1411
refl ects</w> 1411
Econom ic</w> 1411
Gaz a</w> 1411
Sebas tian</w> 1411
m aster</w> 1410
de stri 1410
tournam ents</w> 1410
distribu tion</w> 1410
C ol</w> 1409
govern ance</w> 1409
Res ear 1409
G M</w> 1408
be st- 1408
sel ect</w> 1408
educ ational</w> 1408
conver sations</w> 1408
Ger man 1407
30 -year-old</w> 1407
MS P</w> 1407
ch ann 1406
mon y</w> 1406
fic ial</w> 1406
regar dless</w> 1406
n on 1405
Fin n</w> 1405
Sen ior</w> 1405
f oundation</w> 1404
Sha w</w> 1404
tac tics</w> 1404
toil et</w> 1404
R ash 1403
in aug 1403
bro ad</w> 1403
conn ect</w> 1403
3 0s</w> 1402
M ig 1402
ret ained</w> 1402
bac ter 1402
con stantly</w> 1401
vi c</w> 1401
holid ays</w> 1401
t one</w> 1400
vis ible</w> 1400
guarante ed</w> 1400
SD LP</w> 1400
2015- 16</w> 1400
T hat 1399
ec tly</w> 1399
Car los</w> 1399
1, 500</w> 1399
wor e</w> 1398
Com pl 1398
Ma x 1398
Hot el</w> 1398
g as 1397
i ety</w> 1397
z en 1397
an cies</w> 1397
ar chae 1397
head line</w> 1397
convic tions</w> 1396
spac es</w> 1396
9 ,000</w> 1395
acc using</w> 1395
squ ee 1395
fle et</w> 1395
Ci vil</w> 1395
g yd 1394
el ds</w> 1394
Ch eshire</w> 1394
itch en</w> 1394
Prot ection</w> 1394
s enti 1393
ac le</w> 1393
por tr 1393
ob jects</w> 1393
clas ses</w> 1393
Palestin ians</w> 1393
1 1. 1392
N atur 1392
ex am</w> 1392
Har le 1392
198 4</w> 1392
E mil 1391
R acing</w> 1391
in adequate</w> 1391
ti gh 1391
du b 1391
chi at 1391
Cl ose</w> 1391
laun ching</w> 1391
Bas har</w> 1391
b itter</w> 1390
acc id 1390
ph arm 1390
st rain</w> 1389
Bor ough</w> 1389
demonstr ate</w> 1389
p it 1388
0 km</w> 1388
est one</w> 1388
East ern</w> 1388
Cambri dg 1388
c rown</w> 1387
len e</w> 1386
hor ses</w> 1386
perf ectly</w> 1386
High land</w> 1386
R ay 1385
break through</w> 1385
Je an- 1385
explan ation</w> 1385
d ges</w> 1384
A A</w> 1384
U - 1384
re verse</w> 1384
st ocks</w> 1384
de struction</w> 1384
gr oss</w> 1384
Ar magh</w> 1384
Le g 1384
fun ction</w> 1384
gen ous</w> 1384
boo ked</w> 1384
resu me</w> 1384
tough er</w> 1384
S even</w> 1383
7 9</w> 1383
St af 1383
igh t 1383
photograp h</w> 1383
Academ ical</w> 1383
Simp son</w> 1383
f ab 1382
H il 1382
0 3</w> 1382
le ton</w> 1382
um ping</w> 1382
ili ation</w> 1382
15 ,000</w> 1382
Rober to</w> 1382
G et</w> 1381
ed d 1381
up per</w> 1381
bre ast</w> 1381
medi um</w> 1381
Lin d 1381
Bag h 1381
Croati a</w> 1381
ow ski</w> 1380
appre n 1380
Councill or</w> 1380
sa fer</w> 1379
cou ples</w> 1379
introduc ing</w> 1379
inev itable</w> 1379
Cly de</w> 1379
gang s</w> 1379
E ag 1378
U N 1378
loc ally</w> 1378
alleg ation</w> 1378
reti re</w> 1378
gradu ate</w> 1378
D over</w> 1377
qu anti 1377
rec ession</w> 1377
rev el 1377
Wal sh</w> 1377
doub t 1377
meth od</w> 1377
k n 1376
pe destri 1376
St at 1376
main land</w> 1376
particip ation</w> 1376
optimis tic</w> 1376
re views</w> 1375
sc ep 1375
new ly</w> 1375
treat ments</w> 1375
billi ons</w> 1375
har dly</w> 1374
F let 1373
ic als</w> 1373
St ri 1373
fo rensic</w> 1373
BBCNews beat</w> 1373
tremend ous</w> 1373
w ishes</w> 1372
F lin 1372
L enn 1372
Sh ei 1372
inspec tors</w> 1372
M ason</w> 1371
ment ally</w> 1371
John ston</w> 1371
indic ation</w> 1371
grab bed</w> 1371
cho ices</w> 1370
cham ber</w> 1370
B ah 1369
th ro 1369
ec tor</w> 1369
St aff</w> 1369
step ping</w> 1369
mortg age</w> 1369
F arrell</w> 1368
at i</w> 1368
ad mit</w> 1368
di g</w> 1368
cr y</w> 1368
any way</w> 1368
ym ar</w> 1368
K aren</w> 1367
for gotten</w> 1367
la sting</w> 1367
Naz i</w> 1367
Slov akia</w> 1367
E A</w> 1366
Valen cia</w> 1366
si e</w> 1364
af i</w> 1364
Cum bria</w> 1364
news letter</w> 1364
spectac ular</w> 1364
m ad 1363
m ast 1363
un happy</w> 1363
un anim 1363
ten sion</w> 1363
Rom ania</w> 1363
ud es</w> 1362
follow ers</w> 1362
transparen cy</w> 1362
k il 1361
Nor man</w> 1361
Wel sh 1361
rac ism</w> 1361
pregn ancy</w> 1361
MS Ps</w> 1361
B E</w> 1360
ak h 1360
Portu gu 1360
Pros ecu 1360
Ell is</w> 1360
Philipp ines</w> 1360
r am 1359
c apped</w> 1359
on ian</w> 1359
el eph 1359
Ch ic 1359
air ports</w> 1359
Mor ning</w> 1359
recru it</w> 1359
unbeliev able</w> 1359
same- sex</w> 1359
F lynn</w> 1358
vi able</w> 1358
sw ept</w> 1358
Ne ymar</w> 1358
News night</w> 1358
Cy cling</w> 1358
divis ions</w> 1358
e ze</w> 1357
B it 1357
z ation</w> 1357
re vised</w> 1357
br is</w> 1357
lad s</w> 1357
o ed</w> 1356
fri gh 1356
17 -year-old</w> 1356
Cru z</w> 1356
W ell 1355
is i</w> 1355
lif ting</w> 1355
FT SE</w> 1355
t ent</w> 1354
mur ders</w> 1354
mor al</w> 1354
Sha ba 1354
anx iety</w> 1354
under ground</w> 1353
dr ones</w> 1353
main stream</w> 1353
Dub ai</w> 1353
engine er</w> 1353
Middles ex</w> 1353
Rev i 1353
Twenty 20</w> 1353
s borough</w> 1352
ch est 1352
As sist 1352
Br y 1352
P ul 1351
P ay 1351
Q PR</w> 1351
ic ing</w> 1351
St ep 1351
dr a</w> 1351
Flet cher</w> 1351
b arely</w> 1350
w ood 1350
H and</w> 1350
mat ure</w> 1350
don ated</w> 1350
gall ery</w> 1350
Warr ington</w> 1350
n on</w> 1349
unc overed</w> 1349
ar chi 1348
au d 1348
emp has 1348
Pen alty</w> 1348
c e 1347
an dez</w> 1347
T rent</w> 1346
z er</w> 1346
de pri 1346
open s</w> 1346
propor tion 1346
Al der 1345
cha se</w> 1345
Adri an</w> 1345
p - 1344
ve get 1344
Dam as 1344
Kon ta</w> 1344
m ir</w> 1343
y m</w> 1343
f ile</w> 1343
Mad uro</w> 1342
suppl iers</w> 1342
Leb anon</w> 1342
reg ener 1341
cra zy</w> 1341
u a</w> 1340
ten ing</w> 1340
Cambridg eshire</w> 1340
ac ed</w> 1339
fa x</w> 1339
et a</w> 1338
loc ate</w> 1338
tra um 1338
Portugu ese</w> 1338
b ility</w> 1337
Le one</w> 1337
ograp hy</w> 1337
Abbot t</w> 1337
C risti 1336
W ool 1336
diagnos is</w> 1336
po is 1335
yl an</w> 1335
Feder er</w> 1335
d ressed</w> 1334
pas ses</w> 1334
div or 1334
Wil tshire</w> 1334
12 th</w> 1334
four- year</w> 1334
S ier 1333
min al</w> 1333
pris oner</w> 1333
strong est</w> 1333
consu mption</w> 1333
S pen 1332
O k 1332
X i</w> 1332
I van</w> 1331
di esel</w> 1331
join s</w> 1331
Shaba b</w> 1331
K az 1330
y weight</w> 1330
J eff</w> 1330
ous se 1330
col on 1330
Staf fordshire</w> 1330
S ad 1329
t an</w> 1329
G ran 1329
ok er</w> 1329
Man agement</w> 1329
ga ther</w> 1329
regul ators</w> 1329
dest ination</w> 1329
h ang 1328
long est</w> 1328
al- Assad</w> 1328
han g</w> 1328
S aint</w> 1327
A N 1327
Ra ith</w> 1327
person ality</w> 1327
con grat 1326
clos ures</w> 1326
defend ants</w> 1326
2 nd</w> 1325
F as 1325
A li 1325
G wy 1325
qu ay</w> 1325
di alogue</w> 1325
Car wyn</w> 1325
retail er</w> 1325
dang ers</w> 1324
destro y</w> 1324
Resear chers</w> 1324
im migrants</w> 1323
In dies</w> 1323
kic king</w> 1323
forth coming</w> 1323
el - 1322
ol o</w> 1321
fin anci 1321
Ch ile</w> 1321
fit ted</w> 1321
Appe al</w> 1321
Damas cus</w> 1321
s ely</w> 1320
C yn 1320
iti ons</w> 1320
sk illed</w> 1320
Bl atter</w> 1320
Andre a</w> 1320
A ge</w> 1319
Re ports</w> 1319
cin ema</w> 1319
f ate</w> 1318
ro g 1318
St ef 1318
30 0,000</w> 1318
Polic y</w> 1318
g aining</w> 1317
leg es</w> 1317
poin ting</w> 1317
acti vely</w> 1317
B ad 1316
1 6- 1316
C lif 1316
P el 1316
go l</w> 1316
dis appearance</w> 1316
pen sion 1316
ty pical</w> 1316
land mark</w> 1316
dy ce</w> 1316
princi ples</w> 1316
spin ner</w> 1316
a f</w> 1315
c m</w> 1315
as ser 1315
su e</w> 1315
dis placed</w> 1315
char ging</w> 1315
ton shire</w> 1315
High lands</w> 1315
leng thy</w> 1315
par ks</w> 1314
198 8</w> 1314
Hay es</w> 1314
d ged</w> 1313
G ove</w> 1313
St atistics</w> 1313
br e</w> 1313
mid night</w> 1313
Mal col 1313
hac kers</w> 1313
j ew 1312
fr ing 1312
eb ri 1312
fail ures</w> 1312
iti me</w> 1311
contribu tions</w> 1311
clas sic</w> 1311
inspec tor</w> 1311
Juli an</w> 1311
HM RC</w> 1311
That cher</w> 1311
ri f 1310
dis eases</w> 1310
adv ent 1310
Per th</w> 1310
bar ton</w> 1310
Sand ers</w> 1310
Dum barton</w> 1310
l ington</w> 1309
be ds</w> 1309
pa th 1309
eal ing</w> 1309
16 th</w> 1309
W i 1308
fe eding</w> 1308
Car mar 1308
respond ents</w> 1308
Ug anda</w> 1308
B air 1307
p h</w> 1307
un rest</w> 1307
Cap tain</w> 1307
trou bled</w> 1307
libr ary</w> 1307
Sier ra</w> 1307
Malcol m</w> 1307
C un 1306
5 -year-old</w> 1306
gr ants</w> 1306
gu ests</w> 1306
Mar s</w> 1306
Ar ound</w> 1306
Russi ans</w> 1306
dist ress</w> 1306
Chil d</w> 1306
surr ounded</w> 1306
Bos ton</w> 1306
ag on</w> 1305
de bris</w> 1305
ra ids</w> 1305
ob ject</w> 1305
first- class</w> 1305
t es 1304
inter ior</w> 1304
mar king</w> 1304
writ es</w> 1304
Sha dow</w> 1304
feel ings</w> 1304
Lig a</w> 1304
w ound</w> 1303
cr ack</w> 1303
exper tise</w> 1303
ec raft</w> 1302
compar ison</w> 1302
extremis m</w> 1302
dis miss 1301
exc essive</w> 1301
Jam a 1301
Bu il 1301
V o 1300
St one</w> 1300
ran ean</w> 1300
Ro dri 1300
din ner</w> 1300
k et 1299
stor age</w> 1299
dou bles</w> 1299
Res idents</w> 1299
bra ve</w> 1299
plat forms</w> 1299
San chez</w> 1299
su rely</w> 1298
ty re</w> 1298
resear cher</w> 1298
appreci ate</w> 1298
inter nationals</w> 1297
col li 1297
shou ting</w> 1297
Viet nam</w> 1297
m our 1296
der by</w> 1296
ment - 1296
pros per 1296
gun man</w> 1296
motor way</w> 1296
Gab ri 1296
Emer g 1296
c ow 1295
R ail 1295
D im 1295
er ly</w> 1295
aff ects</w> 1295
sh r 1294
man date</w> 1294
th in</w> 1293
cont ains</w> 1293
narrow ly</w> 1293
F lo 1292
ot ing</w> 1292
us hing</w> 1292
sp r 1292
fil ming</w> 1292
h ome 1291
o ch 1291
P at</w> 1291
Gre ens</w> 1291
insul a</w> 1291
E ri 1290
separ ati 1290
achiev ing</w> 1290
pron ounced</w> 1290
v an 1289
H ous 1289
201 4- 1289
dam ages</w> 1289
patter n</w> 1289
Nep al</w> 1289
v ated</w> 1288
fun ny</w> 1288
shar ply</w> 1288
u ality</w> 1287
moder ate</w> 1287
gun men</w> 1287
a z</w> 1286
is co</w> 1286
compl y</w> 1285
hu b</w> 1285
25 - 1285
explo itation</w> 1285
techni ques</w> 1285
amend ment</w> 1285
ad mitting</w> 1284
ra ises</w> 1284
scri be</w> 1284
Town send</w> 1284
Emerg ency</w> 1284
i deal</w> 1283
s burg</w> 1283
P ed 1283
ch ur 1283
Mo on</w> 1283
Du ffy</w> 1283
vent ure</w> 1283
un disclosed</w> 1282
ru bb 1282
one- year</w> 1282
Glen n</w> 1282
A E</w> 1281
tak er</w> 1281
ous ness</w> 1281
clim bed</w> 1281
IA AF</w> 1281
N u 1280
z ie</w> 1280
P res 1280
L ong 1280
ag ging</w> 1280
form at</w> 1280
war n</w> 1280
exp anded</w> 1280
Med iter 1280
ex ha 1279
17 th</w> 1279
corpor ation</w> 1279
camp us</w> 1279
dub bed</w> 1279
K am 1278
th ous 1278
ic on</w> 1278
sp are</w> 1278
promp ting</w> 1278
ther apy</w> 1277
gre y</w> 1277
deb ates</w> 1277
Govern or</w> 1277
short ages</w> 1277
ame work</w> 1277
g li 1276
S op 1276
B obby</w> 1276
p ies</w> 1276
A gre 1276
out lets</w> 1276
moder n 1276
Turn bull</w> 1276
v y</w> 1275
N ext</w> 1275
im ports</w> 1275
inv asion</w> 1274
ref using</w> 1274
left- wing</w> 1274
postp oned</w> 1274
O mar</w> 1273
is ers</w> 1273
des c 1273
Man ager</w> 1273
competi tors</w> 1273
assa ults</w> 1273
b row 1272
S ex 1272
t as</w> 1272
un fortunately</w> 1272
we gi 1272
impres sion</w> 1272
fi es</w> 1271
Un it</w> 1271
pas sionate</w> 1271
Bec k 1271
Thor n 1271
R adi 1270
hear ts</w> 1270
Em irates</w> 1270
vacc ine</w> 1270
ir i</w> 1269
di verse</w> 1269
scr apped</w> 1269
Pot ter</w> 1269
wheel chair</w> 1269
s la 1268
8 8</w> 1268
ev ed</w> 1268
acc or 1268
conf id 1268
scen ario</w> 1268
Andre ws</w> 1268
solic itor</w> 1268
brea thing</w> 1268
r ab 1267
C N 1267
sh ut 1267
um ps</w> 1267
out lined</w> 1267
Al lar 1267
h anging</w> 1266
n ick 1266
lo ose</w> 1266
ut ing</w> 1266
gr ades</w> 1266
cu r</w> 1266
op pose</w> 1265
pri mar 1265
Mid lo 1265
R ab 1264
cl oud</w> 1264
neg l 1264
Midlo thian</w> 1264
z ing</w> 1263
D an 1263
en sured</w> 1263
ti ous</w> 1263
batt ling</w> 1263
campaig ned</w> 1263
or ial</w> 1262
sp in</w> 1262
ben ch 1262
G on 1261
mon thly</w> 1261
et e</w> 1261
comp on 1261
Per ry</w> 1261
lif estyle</w> 1261
Mag u 1261
Brad y</w> 1261
arrang ed</w> 1261
R oot</w> 1260
qu ins</w> 1260
bre ached</w> 1260
El sewhere</w> 1260
provid er</w> 1260
r ha 1259
v el</w> 1259
W H 1259
over turned</w> 1259
13 th</w> 1259
McG reg 1259
Crime a</w> 1259
Mediter ranean</w> 1259
S ab 1258
Org ani 1258
ad au</w> 1257
ad rift</w> 1257
exam ples</w> 1257
m ass 1256
g lad</w> 1256
y ang</w> 1256
rum ours</w> 1256
Su arez</w> 1256
Mu ch</w> 1256
illu str 1256
concer ning</w> 1255
main taining</w> 1255
manu el</w> 1255
prop ag 1255
1 4- 1254
concentr ate</w> 1254
Inde ed</w> 1254
h iding</w> 1253
J ar 1253
Sh or 1253
6- 2</w> 1253
barri er</w> 1253
discipl ine</w> 1253
nut ri 1253
h ull</w> 1252
run way</w> 1252
inten sive</w> 1252
child care</w> 1252
C lau 1251
re ply</w> 1251
al u 1251
is ley</w> 1251
dr agged</w> 1251
techn ologies</w> 1251
An na</w> 1250
val ued</w> 1250
War s</w> 1250
Web b</w> 1250
Spani ard</w> 1250
- and- 1249
9 8</w> 1249
en g</w> 1249
ex posure</w> 1249
pre m 1249
ref use</w> 1249
car di 1248
1. 5</w> 1248
let ting</w> 1248
Barcl ays</w> 1248
P en</w> 1247
bas ically</w> 1247
cat ast 1247
demonstr ation</w> 1247
fire arms</w> 1247
st ones</w> 1246
buil d-up</w> 1246
Cab inet</w> 1246
R eds</w> 1245
T E 1245
V eg 1245
pos ting</w> 1245
fac tion</w> 1245
bn .</w> 1245
McGreg or</w> 1245
J P</w> 1244
vis itor</w> 1244
bud sman</w> 1244
l u</w> 1243
L as</w> 1243
al em</w> 1243
st airs</w> 1243
Ar t</w> 1243
Res er 1243
tee th</w> 1243
d ir 1242
or al</w> 1242
fail ings</w> 1242
Sev illa</w> 1242
tr uck</w> 1241
struc tures</w> 1241
lun ch</w> 1241
sleep ing</w> 1241
Allar dyce</w> 1241
B all</w> 1240
es ity</w> 1240
as set</w> 1240
deser ves</w> 1240
i Ph 1239
P P</w> 1239
re serv 1239
do l</w> 1239
depen d</w> 1239
pain ful</w> 1239
Daw son</w> 1239
blow n</w> 1239
nch en</w> 1239
Mü nchen</w> 1239
e h</w> 1238
in stitution</w> 1238
fe ed 1238
under mine</w> 1238
Gra eme</w> 1238
pursu it</w> 1238
Hill sborough</w> 1237
in t</w> 1236
it ement</w> 1236
pe er</w> 1236
wa ited</w> 1236
Carol ina</w> 1236
o ever</w> 1235
d row 1235
our ing</w> 1235
respon sibilities</w> 1235
cop y</w> 1235
alli ed</w> 1235
Organi zation</w> 1235
en emy</w> 1234
sm ile</w> 1234
achiev ements</w> 1234
m al</w> 1233
u tionary</w> 1233
sp ots</w> 1233
jo ke</w> 1233
D ylan</w> 1232
ro cks</w> 1232
custom s</w> 1232
forec asts</w> 1232
rh et 1232
g ym 1231
8 3</w> 1231
In iti 1231
hel p 1231
stea dy</w> 1231
Pri mary</w> 1230
Vic tor</w> 1230
acces sible</w> 1230
rubb ish</w> 1230
cy ber</w> 1229
appl ic 1229
hot els</w> 1229
arrang ement</w> 1229
Harle quins</w> 1229
Lenn on</w> 1229
E ti 1228
st an</w> 1228
di et</w> 1228
car ries</w> 1228
ste in</w> 1228
fru it</w> 1228
But ton</w> 1228
ves sels</w> 1228
amate ur</w> 1228
T og 1227
as sured</w> 1227
ad ju 1227
scienti st</w> 1227
demonstr ations</w> 1227
crack down</w> 1227
K rem 1226
k itchen</w> 1226
at y</w> 1226
un like</w> 1226
lo ving</w> 1226
Ru th</w> 1226
y ne</w> 1225
ec tors</w> 1225
ag her</w> 1225
vi er</w> 1225
fl ats</w> 1225
pi one 1225
th- placed</w> 1225
boos ted</w> 1225
R ight</w> 1224
9 00</w> 1224
in ity</w> 1224
cr it 1224
coll ective</w> 1224
explos ive</w> 1224
chann els</w> 1224
con g 1223
tion ing</w> 1223
sever ely</w> 1223
l ing 1222
car ing</w> 1222
sy l 1222
No body</w> 1222
credi ble</w> 1222
r d</w> 1220
V ati 1220
in ner</w> 1220
ro ad 1220
sc rap</w> 1220
198 3</w> 1220
Ash es</w> 1220
grand father</w> 1220
north- east</w> 1220
c ock 1219
Car ney</w> 1219
invest ments</w> 1219
sym bol</w> 1219
s in</w> 1218
8 7</w> 1218
ti pped</w> 1218
cred ited</w> 1218
J our 1217
T ar 1217
lo ads</w> 1217
cont am 1217
hand ful</w> 1217
e ggs</w> 1216
is a</w> 1216
det ected</w> 1216
exist ence</w> 1216
dy nam 1216
r al</w> 1215
K ati 1215
U C 1215
med d 1215
15 -year-old</w> 1215
Hig gins</w> 1215
Chic ago</w> 1215
h man</w> 1214
E den</w> 1214
Of com</w> 1214
s ory</w> 1213
K no 1213
W ay</w> 1213
a g</w> 1212
t ments</w> 1212
psy chiat 1212
coin s</w> 1212
Fil m</w> 1212
S E 1211
8 2</w> 1211
M e</w> 1211
me als</w> 1211
exp anding</w> 1211
vol ume</w> 1211
Rog ers</w> 1211
My an 1211
z oo</w> 1210
M ick</w> 1210
G o</w> 1210
el ine</w> 1210
Ch o 1210
ni fer</w> 1210
kno ck</w> 1210
k ley</w> 1209
star ring</w> 1209
crit eria</w> 1209
P C 1208
re hab 1208
Con te</w> 1208
sim pl 1208
Gwy nedd</w> 1208
R w 1207
as y</w> 1207
Direc t</w> 1207
coast al</w> 1207
fundra ising</w> 1207
Myan mar</w> 1207
u x</w> 1206
l oud</w> 1206
K as 1206
arti ficial</w> 1206
cred its</w> 1206
Sin cla 1206
Jac ob</w> 1206
weal thy</w> 1206
os ex 1205
ha z 1205
li v 1205
par amil 1205
coun tr 1205
add ressing</w> 1205
Over all</w> 1205
Z ika</w> 1204
il at 1204
no where</w> 1204
An field</w> 1204
signific ance</w> 1204
2- 2</w> 1204
doub ts</w> 1204
D id</w> 1203
it ably</w> 1203
lo p</w> 1203
renew able</w> 1203
t y- 1202
M et 1202
nur sing</w> 1202
Fur ther</w> 1202
ol es 1201
est y</w> 1201
sub jected</w> 1201
conduc ting</w> 1201
nation alist</w> 1201
pil ots</w> 1201
Shei kh</w> 1201
Vati can</w> 1201
fl ags</w> 1200
care ers</w> 1200
xim ately</w> 1200
N um 1199
Bar on 1199
Fri ends</w> 1199
16 -year-old</w> 1199
Agre ement</w> 1199
r ice</w> 1198
b utes</w> 1198
M S</w> 1198
rum - 1198
lad y</w> 1198
oph ob 1198
N early</w> 1197
el e 1197
war ns</w> 1197
defin ed</w> 1197
bea uty</w> 1197
ricul um</w> 1197
B attle</w> 1196
W id 1196
re acted</w> 1196
wh it 1196
con fusion</w> 1196
sur pris 1196
Mur do 1196
stre aming</w> 1196
25 m</w> 1196
effici ency</w> 1196
v o</w> 1195
E u 1195
wh eel</w> 1195
tri ps</w> 1195
Curren tly</w> 1195
M A</w> 1194
all ers</w> 1194
top- flight</w> 1194
extremis t</w> 1194
en ni 1193
ut ory</w> 1193
spec t 1193
h en</w> 1192
K now 1192
ed e</w> 1192
Ibra him 1192
k it</w> 1191
differ ently</w> 1191
Mac ron</w> 1191
th- minute</w> 1191
vice- president</w> 1191
i us</w> 1190
P I</w> 1190
coun ted</w> 1190
att orney</w> 1190
An n 1190
25 0,000</w> 1190
Liber ty</w> 1190
Assist ant</w> 1190
r ush</w> 1189
S ony</w> 1189
form erly</w> 1189
med ication</w> 1189
carri er</w> 1189
anonym ous</w> 1189
con stable</w> 1188
mea sured</w> 1188
Win d 1188
catast rop 1188
3 0m</w> 1187
T en</w> 1187
ov o</w> 1187
com mon 1187
bu re 1187
Al bert</w> 1187
defen ders</w> 1187
regul atory</w> 1187
well- known</w> 1187
Lanc aster</w> 1187
Krem lin</w> 1187
M ous 1186
P un 1186
198 7</w> 1186
Cla ire</w> 1186
execu ted</w> 1185
Pa isley</w> 1185
S ent 1184
K ay 1184
Par ker</w> 1184
Every thing</w> 1184
B ond</w> 1183
9 3</w> 1183
war rant</w> 1183
e in</w> 1182
e ous</w> 1182
or an</w> 1182
te ach</w> 1182
bot tle</w> 1182
add resses</w> 1182
Lati n</w> 1182
Prosecu tion</w> 1182
s men</w> 1181
6 -year-old</w> 1181
8 6</w> 1181
in di 1181
&apos; Connor</w> 1181
for - 1181
prof ession</w> 1181
pur poses</w> 1181
Slo ven 1181
poo rest</w> 1181
Natur al</w> 1181
Revi ew</w> 1181
r ough</w> 1180
P lat 1180
&apos; Sullivan</w> 1180
pas s 1180
quick er</w> 1180
C enter</w> 1179
en abled</w> 1179
st al 1179
Al ber 1179
Athle tics</w> 1179
fro zen</w> 1179
dat ab 1179
Nicol as</w> 1179
mean ing 1178
d it 1177
J unior</w> 1177
ha sh 1177
Mc Le 1177
break down</w> 1177
pain ted</w> 1177
liber al</w> 1177
kick -off</w> 1177
Gu il 1176
floo ds</w> 1176
A last 1175
P it 1175
I B 1175
in sist 1175
fr acking</w> 1175
under ing</w> 1175
ore y</w> 1175
Fren chman</w> 1175
barri ster</w> 1175
Organ isation</w> 1175
Pembro k 1175
J un 1174
8 4</w> 1174
M it 1174
chi e</w> 1174
15 th</w> 1174
ref er</w> 1174
3 1-year-old</w> 1173
P ayne</w> 1173
ic ted</w> 1173
du o</w> 1173
Alast air</w> 1173
t ear</w> 1172
D ig 1172
D ennis</w> 1172
ot y 1172
Car roll</w> 1172
open ly</w> 1172
sk ill</w> 1172
exam ining</w> 1172
vol ley</w> 1172
Matthe ws</w> 1172
perpe tr 1172
lo aded</w> 1171
et - 1171
Kati e</w> 1171
C ir 1170
L ist 1170
Ar ts</w> 1170
John ny</w> 1170
avo id 1170
emplo ys</w> 1170
g ood 1169
cop ies</w> 1169
traditi onally</w> 1169
Dy wedodd</w> 1169
liter ally</w> 1169
Nad al</w> 1169
Sincla ir</w> 1169
g rid</w> 1168
in os</w> 1168
an no 1168
no d</w> 1168
201 6- 1168
Jo el</w> 1168
announ cing</w> 1168
Ser ies</w> 1168
Hol mes</w> 1168
edi tion</w> 1168
Lau gh 1168
Dag enham</w> 1168
Pembrok eshire</w> 1168
F all 1167
sh oes</w> 1167
br anded</w> 1167
Bri dg 1167
guar ding</w> 1167
justi fied</w> 1167
li ed</w> 1166
Re bec 1166
Gu y</w> 1166
ty res</w> 1166
appren tic 1166
F lan 1165
Ch ur 1165
imm une</w> 1165
mat ched</w> 1164
East leigh</w> 1164
train er</w> 1164
2014- 15</w> 1164
be d 1163
two- thirds</w> 1163
cli ffe</w> 1163
V W</w> 1162
por tive</w> 1162
pen ny</w> 1162
ran k</w> 1162
exam s</w> 1162
Bor n</w> 1162
indic ate</w> 1162
Lan ar 1162
succe eded</w> 1162
pray ers</w> 1162
Shak es 1162
U ru 1161
sig nings</w> 1161
aw n</w> 1161
ba i</w> 1161
rad ic 1161
Commun ist</w> 1161
Rebec ca</w> 1161
R ock</w> 1160
ag a</w> 1160
di sts</w> 1160
Par t</w> 1160
Mo D</w> 1160
Ox fordshire</w> 1160
Lib yan</w> 1160
thous and</w> 1160
ar ch</w> 1159
be er</w> 1159
ed ics</w> 1159
gol den</w> 1159
attr action</w> 1159
Vir gin</w> 1159
anticip ated</w> 1159
ar ia</w> 1158
li min 1158
ed itor 1158
Al g 1158
publ ishing</w> 1158
Jew s</w> 1158
K ey</w> 1157
dis played</w> 1157
quali fications</w> 1157
gra m</w> 1157
Argent ine</w> 1157
persu ade</w> 1157
m ation</w> 1156
fl an 1156
Bl acks</w> 1156
chair s</w> 1156
popul ations</w> 1156
life- threatening</w> 1156
p raise</w> 1155
R ig 1155
ab e</w> 1155
aff ili 1155
Brit ons</w> 1155
cir cuit</w> 1155
Luc y</w> 1155
un fortunate</w> 1154
Jo yce</w> 1154
trans l 1154
Tran s 1154
explos ives</w> 1154
San tos</w> 1154
Politi cs</w> 1154
patro l</w> 1154
tari ffs</w> 1154
Nor wegi 1153
neighbour hood</w> 1153
Analy sts</w> 1153
i on- 1152
mar gin 1152
depen ds</w> 1152
net ted</w> 1152
conv entional</w> 1152
Var dy</w> 1152
south- east</w> 1152
m o</w> 1151
1 30</w> 1151
P in 1151
rac ed</w> 1151
assaul ting</w> 1151
Princ ess</w> 1151
dismiss al</w> 1151
f ence</w> 1150
de pic 1150
stat utory</w> 1150
Pat erson</w> 1150
With in</w> 1150
h ell</w> 1149
p in</w> 1149
dis on</w> 1149
bloc k 1149
execu tion</w> 1149
bench mark</w> 1149
k ara</w> 1148
w av 1148
ul es</w> 1148
dis charged</w> 1148
sub scri 1148
cli sts</w> 1148
innov ative</w> 1148
prior iti 1148
B ent 1147
H in 1147
sup portive</w> 1147
stri pped</w> 1147
exc ept</w> 1147
Far c</w> 1147
g est 1146
b i</w> 1146
acc o</w> 1146
win d 1146
Ash ton</w> 1146
Doc tor</w> 1146
deleg ates</w> 1146
S ou 1145
M ali 1145
ri ots</w> 1145
An n</w> 1145
entr ance</w> 1145
Hart ley</w> 1145
Spen cer</w> 1145
ot ion</w> 1144
sp reading</w> 1144
pe are</w> 1144
form ula</w> 1144
Stev ens</w> 1144
In ter</w> 1143
Her t 1143
Si x 1143
dram atically</w> 1143
Com mer 1142
back grounds</w> 1142
connec tions</w> 1142
Shakes peare</w> 1142
y en</w> 1141
fr amework</w> 1141
War ner</w> 1141
Ham as</w> 1141
i en</w> 1140
re serves</w> 1140
ul ty</w> 1140
dis pos 1140
comp ul 1140
tion ally</w> 1140
stret ched</w> 1140
. .</w> 1139
id arity</w> 1139
tu ition</w> 1139
up grade</w> 1139
syst em 1139
f at</w> 1138
J ay 1138
F on 1138
qu iry</w> 1138
se em 1138
In side</w> 1138
sol e</w> 1138
Chi efs</w> 1138
volunte er</w> 1138
Nas a</w> 1138
C oul 1137
M all 1137
con dol 1137
St re 1137
ob served</w> 1137
cr ying</w> 1137
Wh ich</w> 1137
Oc ean</w> 1137
far ms</w> 1137
requi rement</w> 1137
bomb ings</w> 1137
I d 1136
No bel</w> 1136
counter part</w> 1136
H ez 1135
M LA</w> 1135
negoti ation</w> 1135
sor ts</w> 1135
Ken yan</w> 1134
13 . 1134
Ren ault</w> 1134
Ly on</w> 1134
shel ter</w> 1134
night m 1134
w oo 1133
R id 1133
ci ally</w> 1133
thre sh 1133
gener ous</w> 1133
Conn ell</w> 1133
HS BC</w> 1133
rhet oric</w> 1133
g yn 1132
b ones</w> 1132
R ousse 1132
O D 1132
8 1</w> 1132
9 99</w> 1132
ac compl 1132
Ex - 1132
Be ing</w> 1132
M ob 1131
W ik 1131
Sub scribe</w> 1131
top ped</w> 1131
Cy p 1131
,00 0m</w> 1131
P aren 1130
re viewing</w> 1130
ne eding</w> 1130
197 9</w> 1130
discus sing</w> 1130
50 0m</w> 1130
Py ong 1130
cigarett es</w> 1130
r oughly</w> 1129
rec eption</w> 1129
advis ers</w> 1129
financi ally</w> 1129
b ailed</w> 1128
v in 1128
S n 1128
t ney</w> 1128
T U 1128
pa res</w> 1128
air lines</w> 1128
accep ting</w> 1128
observ ers</w> 1128
rum- half</w> 1128
c ad 1127
C are 1127
L G 1127
or i</w> 1127
ec ute</w> 1127
no d 1127
di ving</w> 1127
per ed</w> 1127
pol e</w> 1127
bid ding</w> 1127
c ous 1126
V ik 1126
ar ian</w> 1126
li p 1126
hal ted</w> 1126
Lea der</w> 1126
writ ers</w> 1126
nomin ee</w> 1126
horri fic</w> 1126
agricul ture</w> 1126
repa irs</w> 1126
Rousse ff</w> 1126
8 9</w> 1125
j ets</w> 1125
oc cur</w> 1125
fre eze</w> 1125
predic t</w> 1125
Cri minal</w> 1125
Alex is</w> 1125
Tha i</w> 1125
Alg eria</w> 1125
ot ted</w> 1124
def ences</w> 1124
appro ximately</w> 1124
Don egal</w> 1124
dau ghters</w> 1124
gyd a</w> 1124
Cyp rus</w> 1124
l abor 1123
mon th- 1123
ob esity</w> 1123
ox ide</w> 1123
Pyong yang</w> 1123
l acked</w> 1122
wor thy</w> 1122
T A</w> 1121
P enn 1121
tra uma</w> 1121
boy friend</w> 1121
Stand ard</w> 1121
pharm ac 1121
Ibrahim ovic</w> 1121
E FL</w> 1120
J ong- 1120
Win ter</w> 1120
Lou ise</w> 1120
interven e</w> 1120
enc ry 1119
mo dest</w> 1119
sub mit</w> 1119
Pe ace</w> 1119
vol ati 1119
mut ual</w> 1119
collabor ation</w> 1119
si est</w> 1118
bu l</w> 1118
ph y 1118
Gar cia</w> 1118
nomin ations</w> 1118
spea ker</w> 1117
Bo xing</w> 1117
Fin al</w> 1117
US - 1117
enthusi as 1117
attend ance</w> 1117
indi genous</w> 1117
shi p 1116
cho osing</w> 1116
Franc isco</w> 1116
perc eived</w> 1116
Moy es</w> 1116
h ei 1115
M es 1115
ch in</w> 1115
conver t</w> 1115
prosecu ted</w> 1115
Bul gar 1115
o ks</w> 1114
is tic 1114
pre fer</w> 1114
out comes</w> 1114
Op position</w> 1114
expen ses</w> 1114
r ounder</w> 1113
d al</w> 1113
An gus</w> 1113
Fi re 1113
Cair o</w> 1113
limin ary</w> 1113
d is</w> 1112
H os 1112
R BS</w> 1112
at ro 1112
con vention</w> 1112
ly n</w> 1112
4- 1</w> 1112
mi x 1112
We ir</w> 1112
Uru gu 1112
M I 1111
ic tly</w> 1111
wh ist 1111
govern ment- 1111
out look</w> 1111
Le on</w> 1111
198 6</w> 1111
k ov</w> 1110
re act</w> 1110
pl ate</w> 1110
with drew</w> 1110
ro bot</w> 1109
di min 1109
sh ine</w> 1109
Ar lene</w> 1109
qui ries</w> 1109
privil ege</w> 1109
K ie 1108
P ist 1108
en ever</w> 1108
wh is 1108
ev ol 1108
oc ol 1108
Ju lie</w> 1108
boo t</w> 1108
heav yweight</w> 1108
m in</w> 1107
et ting</w> 1107
ham string</w> 1107
Sen egal</w> 1107
Air lines</w> 1107
desper ately</w> 1107
Ethiop ia</w> 1107
2016- 17</w> 1107
Hez bol 1107
B lo 1106
cont ention</w> 1106
appro ve</w> 1106
assa s 1106
poo rer</w> 1106
n ea 1105
w et</w> 1105
F eli 1105
L ake</w> 1105
sa ves</w> 1105
un certain</w> 1105
wor ries</w> 1105
ban ning</w> 1105
b al</w> 1104
S ale</w> 1104
f ou 1104
id an</w> 1104
out fit</w> 1104
control ling</w> 1104
2, 500</w> 1104
time table</w> 1104
Refer ee</w> 1104
cyber - 1104
w r</w> 1103
P ent 1103
comp as 1103
clim bing</w> 1103
consen sus</w> 1103
in comes</w> 1102
Wor kers</w> 1102
Radi o 1102
M oo 1101
al d 1101
op ted</w> 1101
depen ding</w> 1101
Jer us 1101
Em manuel</w> 1101
J i 1100
re ject</w> 1100
or ed</w> 1100
ter ies</w> 1100
exc ess</w> 1100
Bur g 1100
celebr ity</w> 1100
14 th</w> 1100
stab bing</w> 1100
great ly</w> 1100
L ang 1099
re ven 1099
il itation</w> 1099
ak er</w> 1099
inter val</w> 1099
bl ind</w> 1099
Mc Donnell</w> 1099
inten sity</w> 1099
exten ding</w> 1099
reluct ant</w> 1099
Swi ft</w> 1099
Baron ess</w> 1099
g i</w> 1098
d or 1098
X in 1098
ag en</w> 1098
Mon t 1098
Cl ement</w> 1098
Gat es 1098
sam ple</w> 1098
propag anda</w> 1098
C ou 1097
8 , 1097
crow ded</w> 1097
avi ation</w> 1097
s its</w> 1096
im ent</w> 1096
mar athon</w> 1096
uc c 1096
coll ecting</w> 1096
Ben jam 1096
fra ud 1096
r ang 1095
s ick 1095
k o 1095
G ill</w> 1095
cl arity</w> 1095
less ly</w> 1095
Hezbol lah</w> 1095
y te</w> 1094
O pen 1094
min es</w> 1094
St eel</w> 1094
sw ing</w> 1094
law ed</w> 1094
Fi f 1094
box er</w> 1094
Tro phy</w> 1094
Muham mad</w> 1094
d atory</w> 1093
J a 1093
wh istle</w> 1093
li gh 1093
su its</w> 1093
dis advant 1093
langu ages</w> 1093
jiha dists</w> 1093
b ans</w> 1092
w ill 1092
N R 1092
str anded</w> 1092
cru de</w> 1092
particip ants</w> 1092
other apy</w> 1092
Hert fordshire</w> 1092
P ie 1091
Ar ctic</w> 1091
s- up</w> 1091
bet ting</w> 1091
WH O</w> 1091
Murdo ch</w> 1091
Jerus alem</w> 1091
n h 1090
A yr 1090
N one</w> 1090
do or 1090
dr af 1090
rac ial</w> 1090
cast ing</w> 1090
p ot</w> 1089
D oyle</w> 1089
an ic</w> 1089
cont ain 1089
extr adition</w> 1089
depri ved</w> 1089
Reser ve</w> 1089
g or</w> 1088
w ine</w> 1088
f itting</w> 1088
W is 1088
run ner</w> 1088
represent ation</w> 1088
ori us</w> 1088
Benjam in</w> 1088
gi ft</w> 1087
har sh</w> 1087
6- 1</w> 1087
3 2-year-old</w> 1086
ec tation</w> 1086
lar g 1086
compl i 1086
int end</w> 1086
trans gender</w> 1086
back - 1086
Christi ans</w> 1086
Gol den</w> 1086
nav ig 1086
Iv ory</w> 1086
phil os 1086
1 2. 1085
champi onships</w> 1085
produc tivity</w> 1084
glob ally</w> 1084
9 , 1083
pl un 1083
as sisted</w> 1083
um - 1083
sol o</w> 1083
ah u</w> 1083
rat ings</w> 1083
H ass 1082
A my</w> 1082
M illi 1082
th al</w> 1082
for wards</w> 1082
cont ested</w> 1082
bom ber</w> 1082
Du g 1082
Nichol as</w> 1082
outr age</w> 1082
Gates head</w> 1082
h ef 1081
t elec 1081
c attle</w> 1081
E cu 1081
P es 1081
L og 1081
W ag 1081
tri o</w> 1081
star t- 1081
reas sure</w> 1081
198 0</w> 1081
aler ted</w> 1081
f ting</w> 1080
de gre 1080
comm entary</w> 1080
Sam uel</w> 1080
transparen t</w> 1080
Maid stone</w> 1080
g ates</w> 1079
N ur 1079
z ones</w> 1079
Z uma</w> 1079
at - 1079
Bar nes</w> 1079
arre l</w> 1079
stor ed</w> 1079
pi pel 1079
Ni all</w> 1079
Lis a</w> 1079
psych ological</w> 1079
pipel ine</w> 1079
c ali 1078
R av 1078
7 -year-old</w> 1078
be an</w> 1078
te es</w> 1078
trans form</w> 1078
oph istic 1078
Raf ael</w> 1078
c ats</w> 1077
am ford</w> 1077
doubt edly</w> 1077
feed back</w> 1077
Kie v</w> 1077
r ushed</w> 1076
I stan 1076
under lying</w> 1076
read s</w> 1076
t ably</w> 1075
pri est</w> 1075
requ iring</w> 1075
tor n</w> 1075
educ ated</w> 1075
her ty</w> 1075
cy clists</w> 1075
don ation</w> 1075
unc le</w> 1075
grad ed</w> 1075
sign als</w> 1075
mo di 1074
exp ectation</w> 1074
bur gl 1074
commit ting</w> 1074
Fin land</w> 1074
acqu ired</w> 1074
conveni ence</w> 1074
E ight</w> 1073
D R</w> 1073
en i</w> 1073
de par 1073
argu ably</w> 1073
US -led</w> 1073
Mum bai</w> 1073
n arr 1072
P ati 1072
re j 1072
recei ves</w> 1072
alter n 1072
motor ists</w> 1072
virtu ally</w> 1072
gu ess</w> 1071
la undering</w> 1071
det ectives</w> 1071
spe eds</w> 1071
desig n 1071
ab usive</w> 1070
per sist 1070
col leges</w> 1070
produc es</w> 1070
lear nt</w> 1070
H ague</w> 1069
R it 1069
P etro 1069
ô l</w> 1069
Th i 1069
dec l 1069
emer ge</w> 1069
flow ers</w> 1069
Venezu el 1069
P ea 1068
Mar i 1068
respon ses</w> 1068
det ect</w> 1068
Sup porters</w> 1068
dig nity</w> 1068
moun tains</w> 1068
Sol i 1068
disp utes</w> 1068
fos sil</w> 1068
5 0- 1067
bal anced</w> 1067
grad ually</w> 1067
Bow ie</w> 1067
fort une</w> 1067
Lanar kshire</w> 1067
J acqu 1066
ati vely</w> 1066
gu ez</w> 1066
Que ens 1066
zen ship</w> 1066
e on</w> 1065
d ell</w> 1065
P il 1065
or a</w> 1065
mission ing</w> 1065
Ram sey</w> 1065
ar k</w> 1064
mo s</w> 1064
cur riculum</w> 1064
Mu g 1064
.co m</w> 1064
English man</w> 1064
eme tery</w> 1064
s ophistic 1063
A I 1063
L l 1063
Sh in 1063
Cr os 1063
insp ire</w> 1063
tis m</w> 1063
offen der</w> 1063
gri p</w> 1063
intel lig 1063
m ol 1062
G add 1062
P A</w> 1062
L ough 1062
dec or 1062
app alling</w> 1062
gre en 1062
sm ith</w> 1062
eng aging</w> 1062
Cap e</w> 1062
asp ect</w> 1062
academ ies</w> 1062
Gen eva</w> 1062
F u 1061
A Ms</w> 1061
imp acts</w> 1061
G lo 1060
re ll</w> 1060
le isure</w> 1060
produc tive</w> 1060
Willi e</w> 1060
Tor quay</w> 1060
G w 1059
cat ching</w> 1059
explo ded</w> 1059
correc tly</w> 1059
o id</w> 1058
S or 1058
P GA</w> 1058
os h</w> 1058
Cor por 1058
Andro id</w> 1058
in equality</w> 1057
Sh ep 1057
inten ds</w> 1057
analy sed</w> 1057
apar tment</w> 1057
C iti 1056
ra w</w> 1056
mon itor 1056
succ ession</w> 1056
fail s</w> 1056
wea ker</w> 1056
Istan bul</w> 1056
- related</w> 1055
p ts</w> 1055
A C 1055
st ab</w> 1055
Tw ick 1055
experi encing</w> 1055
Sch ools</w> 1055
Nic o</w> 1055
sprin t</w> 1055
tast e</w> 1055
is ms</w> 1054
disc over</w> 1054
stop s</w> 1054
Spea ker</w> 1054
wy d</w> 1054
genu inely</w> 1054
Stand ards</w> 1054
Writ ing</w> 1054
Magu ire</w> 1054
Jour nal</w> 1054
Dug dale</w> 1054
monitor ed</w> 1054
r ot 1053
l it</w> 1053
ti um</w> 1053
sc he</w> 1053
Li z</w> 1053
Li onel</w> 1053
mer ger</w> 1053
ool e</w> 1053
parti al</w> 1053
right- wing</w> 1053
i ze</w> 1052
s and</w> 1052
in form</w> 1052
att on</w> 1052
bre aches</w> 1052
15 m</w> 1052
Lu x 1052
Tran mere</w> 1052
bran ches</w> 1052
broadcast ing</w> 1052
turn out</w> 1052
E qu 1051
B ac 1051
J an</w> 1051
L ine 1051
exc e 1051
jour neys</w> 1051
separ ated</w> 1051
Med ic 1051
qualifi ers</w> 1051
ke ys</w> 1051
world- class</w> 1051
H ind 1050
P ap 1050
up coming</w> 1050
Mc Cl 1050
Di amond</w> 1050
Sa ve</w> 1050
Gall agher</w> 1050
Gadd afi</w> 1050
at on</w> 1049
ther hood</w> 1049
ther -of- 1049
Norwegi an</w> 1049
s lower</w> 1048
K id 1048
p y</w> 1048
N either</w> 1048
acc use</w> 1048
bat tery</w> 1048
Net any 1048
contribut ing</w> 1048
staff ing</w> 1048
ent- elect</w> 1048
reven ge</w> 1048
e ath</w> 1047
- in- 1047
R ay</w> 1047
st ole</w> 1047
dr unk</w> 1047
Bar bar 1047
al- Shabab</w> 1047
experim ent</w> 1047
Twick enham</w> 1047
ob tain</w> 1046
Al ison</w> 1046
Li thu 1046
bot tles</w> 1046
Bra d</w> 1046
pat ri 1046
floo ded</w> 1046
come dian</w> 1046
Mich el</w> 1046
l aps</w> 1045
k h 1045
d ust</w> 1045
bre eding</w> 1045
bon ds</w> 1045
Moham mad</w> 1045
m iti 1044
F U</w> 1044
D ol 1044
re build</w> 1044
un ders</w> 1044
por tra 1044
Gun ners</w> 1044
phr ase</w> 1044
skir ts</w> 1044
ridic ulous</w> 1044
n est</w> 1043
c able</w> 1043
Bar ton</w> 1043
Don n 1043
counter parts</w> 1043
sympa thy</w> 1043
CE O</w> 1043
c ot</w> 1042
t less</w> 1041
f illing</w> 1041
G ame</w> 1041
ak u</w> 1041
pre sti 1041
pre serve</w> 1041
gg er</w> 1041
econom ics</w> 1041
Cal ais</w> 1041
chem icals</w> 1041
belong ing</w> 1041
s m</w> 1040
R icky</w> 1040
anti bi 1040
bow lers</w> 1040
Te achers</w> 1040
w ei 1039
9 4</w> 1039
os ity</w> 1039
- held</w> 1038
f inger</w> 1038
C lim 1038
R E 1038
ab using</w> 1038
deliber ate</w> 1038
deep er</w> 1038
Tan z 1038
Netany ahu</w> 1038
R even 1037
N apol 1037
5 ft</w> 1037
L en 1037
st ery</w> 1037
pro ving</w> 1037
du al</w> 1037
wi ves</w> 1037
chi p</w> 1037
slow down</w> 1037
i fy</w> 1036
C PS</w> 1036
T ake</w> 1036
L E 1036
W hatever</w> 1036
ha iled</w> 1036
Gr ay 1036
fle e</w> 1036
obj ective</w> 1036
hi p</w> 1035
mee ts</w> 1035
certi fic 1035
B road</w> 1034
so oner</w> 1034
some how</w> 1034
tran spor 1034
proc essing</w> 1034
fas cin 1034
centre- back</w> 1034
Rud d</w> 1034
nh w</w> 1034
pre liminary</w> 1033
appl ying</w> 1033
Sal mond</w> 1033
grand mother</w> 1033
adop t</w> 1033
bound aries</w> 1033
V ote</w> 1032
M L 1032
um es</w> 1032
Ry der</w> 1032
Moroc co</w> 1032
degre es</w> 1032
Soli hull</w> 1032
K ee 1031
F isher</w> 1031
L and 1031
tur b 1031
fron t- 1031
Cast le 1031
veter ans</w> 1031
b outs</w> 1030
th ick</w> 1030
re iter 1030
batt les</w> 1030
bow l</w> 1030
lor ds</w> 1030
human ity</w> 1030
vig il 1030
m ings</w> 1029
9 bn</w> 1029
et own</w> 1029
some what</w> 1029
Ger ry</w> 1029
broad er</w> 1029
regist ration</w> 1029
D emb 1028
de plo 1028
acc idents</w> 1028
loc als</w> 1028
Ex press</w> 1028
b ited</w> 1027
th o 1027
ick en</w> 1027
pain t</w> 1027
acqu is 1027
accoun ted</w> 1026
mag nific 1026
swi m</w> 1025
Hann ah</w> 1025
a j</w> 1024
ar o</w> 1024
In tel 1024
Li ving</w> 1024
6 0,000</w> 1023
Air bus</w> 1023
conv ince</w> 1023
help ful</w> 1023
ch ill</w> 1022
cha p 1022
rel ay</w> 1022
198 5</w> 1022
Wil dlife</w> 1022
enter prise</w> 1022
195 0s</w> 1022
b ond</w> 1021
T yn 1021
pl ain</w> 1021
fur b 1021
develop er</w> 1021
[...]
